{"version":"1.0","truncation":null,"padding":null,"added_tokens":[{"id":0,"special":true,"content":"[UNK]","single_word":false,"lstrip":false,"rstrip":false,"normalized":false},{"id":1,"special":true,"content":"[PAD]","single_word":false,"lstrip":false,"rstrip":false,"normalized":false},{"id":2,"special":true,"content":"[BOS]","single_word":false,"lstrip":false,"rstrip":false,"normalized":false},{"id":3,"special":true,"content":"[EOS]","single_word":false,"lstrip":false,"rstrip":false,"normalized":false}],"normalizer":null,"pre_tokenizer":{"type":"Whitespace"},"post_processor":null,"decoder":null,"model":{"type":"BPE","dropout":null,"unk_token":"[UNK]","continuing_subword_prefix":null,"end_of_word_suffix":null,"fuse_unk":false,"vocab":{"[UNK]":0,"[PAD]":1,"[BOS]":2,"[EOS]":3,"!":4,"\"":5,"#":6,"$":7,"%":8,"&":9,"'":10,"(":11,")":12,"*":13,"+":14,",":15,"-":16,".":17,"/":18,"0":19,"1":20,"2":21,"3":22,"4":23,"5":24,"6":25,"7":26,"8":27,"9":28,":":29,";":30,"<":31,"=":32,">":33,"?":34,"@":35,"A":36,"B":37,"C":38,"D":39,"E":40,"F":41,"G":42,"H":43,"I":44,"J":45,"K":46,"L":47,"M":48,"N":49,"O":50,"P":51,"Q":52,"R":53,"S":54,"T":55,"U":56,"V":57,"W":58,"X":59,"Y":60,"Z":61,"[":62,"\\":63,"]":64,"^":65,"_":66,"`":67,"a":68,"b":69,"c":70,"d":71,"e":72,"f":73,"g":74,"h":75,"i":76,"j":77,"k":78,"l":79,"m":80,"n":81,"o":82,"p":83,"q":84,"r":85,"s":86,"t":87,"u":88,"v":89,"w":90,"x":91,"y":92,"z":93,"{":94,"|":95,"}":96,"~":97,"":98,"":99,"":100,"":101,"":102,"":103,"":104,"":105,"":106,"":107,"":108,"":109,"":110,"":111,"":112,"":113,"":114,"":115,"":116,"":117,"":118,"":119,"":120,"":121,"":122,"":123,"":124,"":125,"":126,"¡":127,"¢":128,"£":129,"¤":130,"¥":131,"¦":132,"§":133,"¨":134,"©":135,"ª":136,"«":137,"¬":138,"­":139,"®":140,"¯":141,"°":142,"±":143,"²":144,"³":145,"´":146,"µ":147,"¶":148,"·":149,"¸":150,"¹":151,"º":152,"»":153,"¼":154,"½":155,"¾":156,"¿":157,"À":158,"Á":159,"Â":160,"Ã":161,"Ä":162,"Å":163,"Æ":164,"Ç":165,"È":166,"É":167,"Ê":168,"Ë":169,"Ì":170,"Í":171,"Î":172,"Ï":173,"Ð":174,"Ñ":175,"Ò":176,"Ó":177,"Ô":178,"Õ":179,"Ö":180,"×":181,"Ø":182,"Ù":183,"Ú":184,"Û":185,"Ü":186,"Ý":187,"Þ":188,"ß":189,"à":190,"á":191,"â":192,"ã":193,"ä":194,"å":195,"æ":196,"ç":197,"è":198,"é":199,"ê":200,"ë":201,"ì":202,"í":203,"î":204,"ï":205,"ð":206,"ñ":207,"ò":208,"ó":209,"ô":210,"õ":211,"ö":212,"÷":213,"ø":214,"ù":215,"ú":216,"û":217,"ü":218,"ý":219,"þ":220,"ÿ":221,"Ā":222,"ā":223,"Ă":224,"ă":225,"Ą":226,"ą":227,"Ć":228,"ć":229,"Ĉ":230,"ĉ":231,"ċ":232,"Č":233,"č":234,"Ď":235,"ď":236,"Đ":237,"đ":238,"Ē":239,"ē":240,"ĕ":241,"Ė":242,"ė":243,"Ę":244,"ę":245,"Ě":246,"ě":247,"ĝ":248,"Ğ":249,"ğ":250,"Ġ":251,"ġ":252,"Ģ":253,"ģ":254,"ĥ":255,"Ħ":256,"ħ":257,"ĩ":258,"Ī":259,"ī":260,"Į":261,"į":262,"İ":263,"ı":264,"Ĳ":265,"ĵ":266,"Ķ":267,"ķ":268,"ĸ":269,"Ĺ":270,"ĺ":271,"Ļ":272,"ļ":273,"Ľ":274,"ľ":275,"Ŀ":276,"Ł":277,"ł":278,"Ń":279,"ń":280,"Ņ":281,"ņ":282,"Ň":283,"ň":284,"ŋ":285,"Ō":286,"ō":287,"ŏ":288,"Ő":289,"ő":290,"Œ":291,"œ":292,"Ŕ":293,"ŕ":294,"Ř":295,"ř":296,"Ś":297,"ś":298,"Ŝ":299,"ŝ":300,"Ş":301,"ş":302,"Š":303,"š":304,"Ţ":305,"ţ":306,"Ť":307,"ť":308,"ũ":309,"Ū":310,"ū":311,"ŭ":312,"Ů":313,"ů":314,"Ű":315,"ű":316,"Ų":317,"ų":318,"ŵ":319,"ŷ":320,"Ÿ":321,"Ź":322,"ź":323,"Ż":324,"ż":325,"Ž":326,"ž":327,"ſ":328,"Ƒ":329,"ƒ":330,"Ɠ":331,"Ɩ":332,"Ƙ":333,"ƛ":334,"Ɲ":335,"Ơ":336,"ơ":337,"Ʀ":338,"Ƭ":339,"ư":340,"ǎ":341,"ǐ":342,"ǒ":343,"ǔ":344,"ǘ":345,"ǜ":346,"ǝ":347,"ǣ":348,"ǵ":349,"Ǻ":350,"ș":351,"ț":352,"Ȥ":353,"Ȼ":354,"ɐ":355,"ɑ":356,"ɒ":357,"ɔ":358,"ɕ":359,"ə":360,"ɛ":361,"ɜ":362,"ɡ":363,"ɢ":364,"ɪ":365,"ɫ":366,"ɯ":367,"ɲ":368,"ɹ":369,"ɾ":370,"ʀ":371,"ʁ":372,"ʃ":373,"ʊ":374,"ʌ":375,"ʎ":376,"ʐ":377,"ʒ":378,"ʔ":379,"ʚ":380,"ʤ":381,"ʦ":382,"ʰ":383,"ʲ":384,"ʺ":385,"ʻ":386,"ʼ":387,"ʾ":388,"ʿ":389,"ˁ":390,"ˆ":391,"ˇ":392,"ˈ":393,"ˌ":394,"ː":395,"˘":396,"˙":397,"˚":398,"˛":399,"˜":400,"˝":401,"ˡ":402,"̀":403,"́":404,"̃":405,"̆":406,"̇":407,"̈":408,"̍":409,"̤":410,"̯":411,"̶":412,"͡":413,";":414,"΄":415,"Ά":416,"Έ":417,"Ί":418,"Ό":419,"Ώ":420,"ΐ":421,"Α":422,"Β":423,"Γ":424,"Δ":425,"Ε":426,"Ζ":427,"Η":428,"Θ":429,"Ι":430,"Κ":431,"Λ":432,"Μ":433,"Ν":434,"Ο":435,"Π":436,"Ρ":437,"Σ":438,"Τ":439,"Υ":440,"Φ":441,"Χ":442,"Ω":443,"ά":444,"έ":445,"ή":446,"ί":447,"α":448,"β":449,"γ":450,"δ":451,"ε":452,"ζ":453,"η":454,"θ":455,"ι":456,"κ":457,"λ":458,"μ":459,"ν":460,"ξ":461,"ο":462,"π":463,"ρ":464,"ς":465,"σ":466,"τ":467,"υ":468,"φ":469,"χ":470,"ψ":471,"ω":472,"ϊ":473,"ϋ":474,"ό":475,"ύ":476,"ώ":477,"Ё":478,"Ђ":479,"Ѓ":480,"Є":481,"Ѕ":482,"І":483,"Ї":484,"Ј":485,"Љ":486,"Њ":487,"Ћ":488,"Ќ":489,"Ў":490,"Џ":491,"А":492,"Б":493,"В":494,"Г":495,"Д":496,"Е":497,"Ж":498,"З":499,"И":500,"Й":501,"К":502,"Л":503,"М":504,"Н":505,"О":506,"П":507,"Р":508,"С":509,"Т":510,"У":511,"Ф":512,"Х":513,"Ц":514,"Ч":515,"Ш":516,"Щ":517,"Ъ":518,"Ы":519,"Ь":520,"Э":521,"Ю":522,"Я":523,"а":524,"б":525,"в":526,"г":527,"д":528,"е":529,"ж":530,"з":531,"и":532,"й":533,"к":534,"л":535,"м":536,"н":537,"о":538,"п":539,"р":540,"с":541,"т":542,"у":543,"ф":544,"х":545,"ц":546,"ч":547,"ш":548,"щ":549,"ъ":550,"ы":551,"ь":552,"э":553,"ю":554,"я":555,"ё":556,"ђ":557,"ѓ":558,"є":559,"ѕ":560,"і":561,"ї":562,"ј":563,"љ":564,"њ":565,"ћ":566,"ќ":567,"ў":568,"џ":569,"Ґ":570,"ґ":571,"ғ":572,"ҙ":573,"қ":574,"Ҡ":575,"ҡ":576,"ң":577,"ү":578,"ұ":579,"Ҳ":580,"ҳ":581,"һ":582,"ә":583,"ө":584,"ӳ":585,"ְ":586,"ֲ":587,"ֳ":588,"ִ":589,"ֶ":590,"ַ":591,"ָ":592,"ֹ":593,"ּ":594,"ֿ":595,"ׁ":596,"א":597,"ב":598,"ג":599,"ד":600,"ה":601,"ו":602,"ז":603,"ח":604,"ט":605,"י":606,"כ":607,"ל":608,"ם":609,"מ":610,"ן":611,"נ":612,"ס":613,"ע":614,"פ":615,"ץ":616,"צ":617,"ק":618,"ר":619,"ש":620,"ת":621,"،":622,"ؒ":623,"؛":624,"ء":625,"آ":626,"أ":627,"ؤ":628,"إ":629,"ئ":630,"ا":631,"ب":632,"ة":633,"ت":634,"ث":635,"ج":636,"ح":637,"خ":638,"د":639,"ذ":640,"ر":641,"ز":642,"س":643,"ش":644,"ص":645,"ض":646,"ط":647,"ظ":648,"ع":649,"غ":650,"ـ":651,"ف":652,"ق":653,"ك":654,"ل":655,"م":656,"ن":657,"ه":658,"و":659,"ى":660,"ي":661,"ً":662,"ٌ":663,"َ":664,"ُ":665,"ِ":666,"ّ":667,"ْ":668,"ٲ":669,"ټ":670,"پ":671,"ځ":672,"ڠ":673,"ک":674,"ڬ":675,"ڭ":676,"گ":677,"ھ":678,"ۆ":679,"ۇ":680,"ی":681,"ې":682,"۞":683,"۩":684,"۰":685,"۱":686,"۲":687,"۳":688,"۴":689,"۵":690,"۶":691,"۷":692,"۸":693,"۹":694,"ރ":695,"ކ":696,"އ":697,"މ":698,"ާ":699,"ި":700,"ެ":701,"ߖ":702,"߮":703,"ं":704,"अ":705,"आ":706,"ई":707,"उ":708,"क":709,"ग":710,"च":711,"छ":712,"ज":713,"ञ":714,"ट":715,"ड":716,"ढ":717,"ण":718,"त":719,"थ":720,"द":721,"ध":722,"न":723,"प":724,"ब":725,"भ":726,"म":727,"य":728,"र":729,"ल":730,"व":731,"श":732,"स":733,"ह":734,"़":735,"ा":736,"ि":737,"ी":738,"ु":739,"ृ":740,"े":741,"ॉ":742,"ो":743,"्":744,"ॐ":745,"ॡ":746,"०":747,"१":748,"२":749,"३":750,"५":751,"९":752,"ং":753,"আ":754,"ই":755,"এ":756,"ক":757,"গ":758,"ঙ":759,"চ":760,"ট":761,"ত":762,"ন":763,"প":764,"ব":765,"ম":766,"য":767,"র":768,"ল":769,"শ":770,"ষ":771,"হ":772,"়":773,"া":774,"ি":775,"ু":776,"ো":777,"্":778,"ৰ":779,"ਗ":780,"ਚ":781,"ਡ":782,"ਹ":783,"ੀ":784,"੍":785,"ੜ":786,"ੰ":787,"ં":788,"અ":789,"ક":790,"જ":791,"ત":792,"મ":793,"ય":794,"ર":795,"સ":796,"ા":797,"િ":798,"ુ":799,"ે":800,"્":801,"૦":802,"૧":803,"૨":804,"க":805,"ச":806,"ட":807,"த":808,"ன":809,"ப":810,"ம":811,"ய":812,"ர":813,"ு":814,"ூ":815,"ெ":816,"ை":817,"ோ":818,"்":819,"ం":820,"ఆ":821,"ద":822,"ధ":823,"ప":824,"ర":825,"శ":826,"ె":827,"్":828,"ౕ":829,"ಐ":830,"ಯ":831,"ರ":832,"ವ":833,"ಶ":834,"ಾ":835,"ೆ":836,"್":837,"ೖ":838,"೦":839,"೧":840,"೨":841,"೩":842,"೫":843,"೬":844,"೮":845,"೯":846,"എ":847,"ക":848,"ദ":849,"പ":850,"യ":851,"ല":852,"വ":853,"ഷ":854,"സ":855,"ീ":856,"ു":857,"്":858,"න":859,"ම":860,"ර":861,"ව":862,"හ":863,"ු":864,"ก":865,"ข":866,"ค":867,"ฆ":868,"ง":869,"จ":870,"ฉ":871,"ช":872,"ซ":873,"ญ":874,"ฎ":875,"ฏ":876,"ฐ":877,"ฒ":878,"ณ":879,"ด":880,"ต":881,"ถ":882,"ท":883,"ธ":884,"น":885,"บ":886,"ป":887,"ผ":888,"ฝ":889,"พ":890,"ฟ":891,"ภ":892,"ม":893,"ย":894,"ร":895,"ฤ":896,"ล":897,"ว":898,"ศ":899,"ษ":900,"ส":901,"ห":902,"อ":903,"ฮ":904,"ฯ":905,"ะ":906,"ั":907,"า":908,"ำ":909,"ิ":910,"ี":911,"ึ":912,"ื":913,"ุ":914,"ู":915,"฿":916,"เ":917,"แ":918,"โ":919,"ใ":920,"ไ":921,"ๆ":922,"็":923,"่":924,"้":925,"๊":926,"์":927,"๑":928,"ຄ":929,"ງ":930,"ດ":931,"ຖ":932,"ນ":933,"ມ":934,"ວ":935,"ັ":936,"ຸ":937,"་":938,"ད":939,"བ":940,"ོ":941,"ა":942,"ბ":943,"გ":944,"დ":945,"ე":946,"ვ":947,"თ":948,"ი":949,"კ":950,"ლ":951,"მ":952,"ნ":953,"ო":954,"პ":955,"რ":956,"ს":957,"ტ":958,"უ":959,"ქ":960,"ღ":961,"შ":962,"ც":963,"ხ":964,"ህ":965,"ሊ":966,"ል":967,"ሕ":968,"መ":969,"ሜ":970,"ም":971,"ረ":972,"ሪ":973,"ራ":974,"ር":975,"ሰ":976,"ስ":977,"ሻ":978,"ቀ":979,"ቐ":980,"በ":981,"ቢ":982,"ባ":983,"ተ":984,"ት":985,"ቶ":986,"ን":987,"አ":988,"ኣ":989,"ኤ":990,"እ":991,"ኦ":992,"ካ":993,"ክ":994,"ዋ":995,"ው":996,"ዓ":997,"የ":998,"ይ":999,"ዲ":1000,"ድ":1001,"ገ":1002,"ጨ":1003,"ጽ":1004,"ፈ":1005,"፣":1006,"Ꭰ":1007,"Ꭲ":1008,"Ꮊ":1009,"ᐊ":1010,"ᑲ":1011,"ᒥ":1012,"ᓕ":1013,"ដ":1014,"ឋ":1015,"រ":1016,"ស":1017,"ហ":1018,"្":1019,"ḍ":1020,"Ḥ":1021,"ḥ":1022,"ḫ":1023,"ḷ":1024,"ḿ":1025,"ṃ":1026,"ṅ":1027,"ṇ":1028,"ṉ":1029,"ṛ":1030,"ṣ":1031,"Ṭ":1032,"ṭ":1033,"Ṯ":1034,"ṳ":1035,"ẋ":1036,"ạ":1037,"ả":1038,"ấ":1039,"ầ":1040,"ẩ":1041,"ậ":1042,"ắ":1043,"Ẳ":1044,"ẵ":1045,"ẻ":1046,"ẽ":1047,"ế":1048,"ề":1049,"ể":1050,"ễ":1051,"ệ":1052,"ọ":1053,"ỏ":1054,"ố":1055,"ồ":1056,"ổ":1057,"ộ":1058,"ớ":1059,"ờ":1060,"ở":1061,"ợ":1062,"ụ":1063,"ủ":1064,"ứ":1065,"ừ":1066,"ử":1067,"ữ":1068,"ự":1069,"ỳ":1070,"ỹ":1071,"ἀ":1072,"ἄ":1073,"ἅ":1074,"ἔ":1075,"Ἥ":1076,"ἰ":1077,"ὁ":1078,"ὄ":1079,"ά":1080,"ὶ":1081,"ὺ":1082,"ῆ":1083,"ῑ":1084,"ῥ":1085,"ῦ":1086,"​":1087,"‌":1088,"‍":1089,"‎":1090,"‏":1091,"‐":1092,"‑":1093,"‒":1094,"–":1095,"—":1096,"―":1097,"‘":1098,"’":1099,"‚":1100,"‛":1101,"“":1102,"”":1103,"„":1104,"‟":1105,"†":1106,"‡":1107,"•":1108,"…":1109,"‪":1110,"‬":1111,"‭":1112,"‰":1113,"′":1114,"″":1115,"‹":1116,"›":1117,"※":1118,"‼":1119,"⁄":1120,"⁴":1121,"ⁿ":1122,"₂":1123,"₤":1124,"₩":1125,"₪":1126,"€":1127,"₴":1128,"℃":1129,"ℓ":1130,"№":1131,"™":1132,"Ω":1133,"⅛":1134,"⅞":1135,"Ⅱ":1136,"Ⅲ":1137,"←":1138,"↑":1139,"→":1140,"↓":1141,"↔":1142,"⇒":1143,"⇗":1144,"⇢":1145,"∀":1146,"∈":1147,"∑":1148,"−":1149,"∙":1150,"√":1151,"∞":1152,"∫":1153,"∴":1154,"∶":1155,"≈":1156,"≠":1157,"≤":1158,"≥":1159,"≪":1160,"≫":1161,"⋅":1162,"⌃":1163,"⌘":1164,"①":1165,"②":1166,"③":1167,"─":1168,"│":1169,"╚":1170,"╞":1171,"╩":1172,"█":1173,"░":1174,"■":1175,"□":1176,"▪":1177,"▲":1178,"△":1179,"▸":1180,"►":1181,"▼":1182,"◆":1183,"◇":1184,"◈":1185,"◊":1186,"○":1187,"◎":1188,"●":1189,"◙":1190,"◦":1191,"★":1192,"☆":1193,"☎":1194,"☏":1195,"☑":1196,"☺":1197,"☻":1198,"☼":1199,"♀":1200,"♂":1201,"♠":1202,"♣":1203,"♥":1204,"♦":1205,"♪":1206,"♫":1207,"✿":1208,"➔":1209,"➚":1210,"➟":1211,"➲":1212,"Ⰶ":1213,"ⲉ":1214,"ⲟ":1215,"Ⲡ":1216,"ⲣ":1217,"ⲩ":1218,"、":1219,"。":1220,"々":1221,"《":1222,"》":1223,"「":1224,"」":1225,"『":1226,"』":1227,"【":1228,"】":1229,"〔":1230,"〕":1231,"〜":1232,"あ":1233,"ぃ":1234,"い":1235,"う":1236,"え":1237,"お":1238,"か":1239,"が":1240,"き":1241,"ぎ":1242,"く":1243,"ぐ":1244,"け":1245,"げ":1246,"こ":1247,"ご":1248,"さ":1249,"ざ":1250,"し":1251,"じ":1252,"す":1253,"ず":1254,"せ":1255,"ぜ":1256,"そ":1257,"ぞ":1258,"た":1259,"だ":1260,"ち":1261,"ぢ":1262,"っ":1263,"つ":1264,"づ":1265,"て":1266,"で":1267,"と":1268,"ど":1269,"な":1270,"に":1271,"ぬ":1272,"ね":1273,"の":1274,"は":1275,"ば":1276,"ひ":1277,"び":1278,"ふ":1279,"ぶ":1280,"ぷ":1281,"へ":1282,"べ":1283,"ほ":1284,"ぼ":1285,"ま":1286,"み":1287,"む":1288,"め":1289,"も":1290,"や":1291,"ゆ":1292,"ょ":1293,"よ":1294,"ら":1295,"り":1296,"る":1297,"れ":1298,"ろ":1299,"わ":1300,"を":1301,"ん":1302,"゛":1303,"゜":1304,"ア":1305,"ィ":1306,"イ":1307,"ゥ":1308,"ウ":1309,"ェ":1310,"エ":1311,"オ":1312,"カ":1313,"ガ":1314,"キ":1315,"ギ":1316,"ク":1317,"グ":1318,"ケ":1319,"ゲ":1320,"コ":1321,"ゴ":1322,"サ":1323,"ザ":1324,"シ":1325,"ジ":1326,"ス":1327,"ズ":1328,"セ":1329,"ゼ":1330,"ソ":1331,"ゾ":1332,"タ":1333,"ダ":1334,"チ":1335,"ッ":1336,"ツ":1337,"テ":1338,"デ":1339,"ト":1340,"ド":1341,"ナ":1342,"ニ":1343,"ヌ":1344,"ネ":1345,"ノ":1346,"ハ":1347,"バ":1348,"パ":1349,"ヒ":1350,"ビ":1351,"ピ":1352,"フ":1353,"ブ":1354,"プ":1355,"ヘ":1356,"ベ":1357,"ペ":1358,"ホ":1359,"ボ":1360,"ポ":1361,"マ":1362,"ミ":1363,"ム":1364,"メ":1365,"モ":1366,"ヤ":1367,"ュ":1368,"ユ":1369,"ヨ":1370,"ラ":1371,"リ":1372,"ル":1373,"レ":1374,"ロ":1375,"ワ":1376,"ン":1377,"ヴ":1378,"・":1379,"ー":1380,"ㄅ":1381,"ㄆ":1382,"ㄇ":1383,"ㄈ":1384,"ㄤ":1385,"ㄧ":1386,"ㅓ":1387,"ㅔ":1388,"ㅕ":1389,"ㅖ":1390,"ㅡ":1391,"ㅣ":1392,"㎡":1393,"䟩":1394,"一":1395,"七":1396,"万":1397,"丈":1398,"三":1399,"上":1400,"下":1401,"不":1402,"与":1403,"世":1404,"丘":1405,"东":1406,"两":1407,"丨":1408,"个":1409,"中":1410,"丸":1411,"丹":1412,"为":1413,"主":1414,"丼":1415,"丽":1416,"举":1417,"久":1418,"义":1419,"之":1420,"乌":1421,"乎":1422,"乏":1423,"乐":1424,"乗":1425,"乙":1426,"九":1427,"也":1428,"习":1429,"书":1430,"乱":1431,"了":1432,"事":1433,"二":1434,"于":1435,"云":1436,"互":1437,"五":1438,"井":1439,"亚":1440,"些":1441,"亞":1442,"交":1443,"产":1444,"亨":1445,"京":1446,"人":1447,"什":1448,"仁":1449,"今":1450,"从":1451,"他":1452,"付":1453,"代":1454,"以":1455,"仪":1456,"仮":1457,"仲":1458,"件":1459,"价":1460,"伊":1461,"伎":1462,"伏":1463,"休":1464,"优":1465,"会":1466,"伝":1467,"伦":1468,"伯":1469,"伴":1470,"伸":1471,"但":1472,"位":1473,"住":1474,"佐":1475,"佑":1476,"体":1477,"何":1478,"佗":1479,"余":1480,"作":1481,"你":1482,"佰":1483,"侍":1484,"依":1485,"便":1486,"俄":1487,"俊":1488,"保":1489,"信":1490,"修":1491,"倉":1492,"倍":1493,"倒":1494,"做":1495,"健":1496,"储":1497,"傷":1498,"働":1499,"像":1500,"儀":1501,"儉":1502,"元":1503,"先":1504,"光":1505,"克":1506,"免":1507,"入":1508,"全":1509,"八":1510,"公":1511,"六":1512,"共":1513,"关":1514,"兵":1515,"其":1516,"内":1517,"円":1518,"册":1519,"写":1520,"冤":1521,"决":1522,"况":1523,"冷":1524,"凄":1525,"凉":1526,"凍":1527,"减":1528,"几":1529,"凶":1530,"出":1531,"函":1532,"刀":1533,"分":1534,"切":1535,"刑":1536,"列":1537,"刘":1538,"则":1539,"刚":1540,"创":1541,"別":1542,"刨":1543,"利":1544,"别":1545,"到":1546,"則":1547,"前":1548,"剑":1549,"剣":1550,"剥":1551,"副":1552,"割":1553,"創":1554,"力":1555,"功":1556,"加":1557,"务":1558,"动":1559,"助":1560,"势":1561,"動":1562,"勢":1563,"勧":1564,"勿":1565,"包":1566,"化":1567,"北":1568,"匠":1569,"匹":1570,"区":1571,"医":1572,"匿":1573,"區":1574,"十":1575,"千":1576,"华":1577,"卓":1578,"单":1579,"南":1580,"博":1581,"卡":1582,"危":1583,"却":1584,"厂":1585,"原":1586,"去":1587,"县":1588,"参":1589,"參":1590,"及":1591,"友":1592,"反":1593,"发":1594,"取":1595,"受":1596,"变":1597,"口":1598,"只":1599,"叫":1600,"召":1601,"可":1602,"台":1603,"史":1604,"右":1605,"号":1606,"司":1607,"吃":1608,"合":1609,"吉":1610,"吊":1611,"同":1612,"名":1613,"后":1614,"向":1615,"吗":1616,"君":1617,"否":1618,"吧":1619,"听":1620,"吳":1621,"吴":1622,"吸":1623,"吹":1624,"吾":1625,"呀":1626,"呆":1627,"呉":1628,"告":1629,"呑":1630,"员":1631,"周":1632,"味":1633,"呼":1634,"咆":1635,"和":1636,"咬":1637,"品":1638,"哈":1639,"員":1640,"哮":1641,"哲":1642,"唐":1643,"售":1644,"唸":1645,"商":1646,"啤":1647,"啦":1648,"喀":1649,"喜":1650,"嗣":1651,"嘉":1652,"嘛":1653,"器":1654,"四":1655,"回":1656,"因":1657,"団":1658,"囧":1659,"园":1660,"固":1661,"国":1662,"图":1663,"圆":1664,"國":1665,"圏":1666,"土":1667,"在":1668,"地":1669,"圳":1670,"场":1671,"址":1672,"坊":1673,"坐":1674,"坛":1675,"垣":1676,"城":1677,"埔":1678,"堂":1679,"堆":1680,"報":1681,"場":1682,"塔":1683,"塾":1684,"墟":1685,"墩":1686,"壊":1687,"士":1688,"壮":1689,"売":1690,"壳":1691,"处":1692,"変":1693,"夏":1694,"夕":1695,"外":1696,"多":1697,"夢":1698,"大":1699,"天":1700,"太":1701,"央":1702,"头":1703,"夷":1704,"夹":1705,"奄":1706,"奉":1707,"套":1708,"奘":1709,"奥":1710,"女":1711,"奸":1712,"好":1713,"如":1714,"妻":1715,"始":1716,"委":1717,"娃":1718,"娄":1719,"娜":1720,"娥":1721,"娱":1722,"婁":1723,"婷":1724,"媛":1725,"子":1726,"字":1727,"存":1728,"学":1729,"孴":1730,"宁":1731,"宇":1732,"安":1733,"宋":1734,"宗":1735,"官":1736,"定":1737,"宜":1738,"宝":1739,"实":1740,"実":1741,"客":1742,"宣":1743,"宮":1744,"宰":1745,"家":1746,"容":1747,"宿":1748,"富":1749,"寤":1750,"實":1751,"寧":1752,"寨":1753,"寶":1754,"寸":1755,"对":1756,"寺":1757,"寻":1758,"寿":1759,"専":1760,"将":1761,"小":1762,"少":1763,"尔":1764,"尘":1765,"就":1766,"尾":1767,"局":1768,"屄":1769,"居":1770,"屈":1771,"届":1772,"屋":1773,"屏":1774,"属":1775,"山":1776,"屿":1777,"岐":1778,"岛":1779,"岩":1780,"岭":1781,"岷":1782,"島":1783,"崎":1784,"崔":1785,"崩":1786,"嵥":1787,"嶼":1788,"川":1789,"州":1790,"工":1791,"左":1792,"巧":1793,"巨":1794,"已":1795,"巴":1796,"巻":1797,"市":1798,"布":1799,"师":1800,"希":1801,"帝":1802,"師":1803,"席":1804,"帯":1805,"常":1806,"幡":1807,"干":1808,"平":1809,"年":1810,"幸":1811,"幹":1812,"广":1813,"庁":1814,"広":1815,"庄":1816,"庆":1817,"应":1818,"底":1819,"庚":1820,"府":1821,"度":1822,"座":1823,"庫":1824,"康":1825,"建":1826,"开":1827,"弁":1828,"弄":1829,"式":1830,"弓":1831,"引":1832,"张":1833,"弦":1834,"張":1835,"当":1836,"形":1837,"彩":1838,"彭":1839,"彰":1840,"影":1841,"役":1842,"彻":1843,"彼":1844,"征":1845,"很":1846,"律":1847,"後":1848,"徒":1849,"得":1850,"御":1851,"復":1852,"微":1853,"徳":1854,"德":1855,"徹":1856,"徽":1857,"心":1858,"必":1859,"忆":1860,"忍":1861,"志":1862,"応":1863,"念":1864,"忻":1865,"态":1866,"怒":1867,"思":1868,"怡":1869,"急":1870,"性":1871,"恢":1872,"恩":1873,"恵":1874,"悟":1875,"悠":1876,"患":1877,"您":1878,"悩":1879,"悪":1880,"情":1881,"惑":1882,"惧":1883,"惯":1884,"想":1885,"意":1886,"愛":1887,"慈":1888,"慢":1889,"慣":1890,"憎":1891,"憾":1892,"成":1893,"我":1894,"戴":1895,"戶":1896,"户":1897,"戸":1898,"房":1899,"所":1900,"扈":1901,"手":1902,"才":1903,"打":1904,"找":1905,"承":1906,"技":1907,"投":1908,"折":1909,"抜":1910,"报":1911,"押":1912,"担":1913,"拉":1914,"拓":1915,"择":1916,"括":1917,"拼":1918,"拿":1919,"持":1920,"挂":1921,"指":1922,"挑":1923,"挡":1924,"振":1925,"损":1926,"掉":1927,"排":1928,"探":1929,"接":1930,"控":1931,"掻":1932,"揃":1933,"提":1934,"換":1935,"握":1936,"援":1937,"搅":1938,"搜":1939,"搞":1940,"携":1941,"摂":1942,"摇":1943,"摩":1944,"撮":1945,"操":1946,"支":1947,"收":1948,"放":1949,"政":1950,"故":1951,"敏":1952,"救":1953,"教":1954,"散":1955,"敦":1956,"数":1957,"整":1958,"文":1959,"斗":1960,"料":1961,"新":1962,"方":1963,"施":1964,"旅":1965,"旋":1966,"族":1967,"无":1968,"日":1969,"旧":1970,"旨":1971,"时":1972,"昇":1973,"明":1974,"星":1975,"映":1976,"春":1977,"是":1978,"显":1979,"晏":1980,"晨":1981,"普":1982,"景":1983,"智":1984,"暂":1985,"暫":1986,"暴":1987,"曌":1988,"曝":1989,"更":1990,"書":1991,"最":1992,"會":1993,"月":1994,"有":1995,"望":1996,"朝":1997,"木":1998,"末":1999,"本":2000,"札":2001,"术":2002,"朱":2003,"机":2004,"李":2005,"杏":2006,"材":2007,"村":2008,"条":2009,"来":2010,"杨":2011,"杭":2012,"東":2013,"松":2014,"板":2015,"林":2016,"果":2017,"枫":2018,"架":2019,"某":2020,"染":2021,"柔":2022,"查":2023,"柱":2024,"柴":2025,"标":2026,"树":2027,"校":2028,"株":2029,"样":2030,"核":2031,"根":2032,"桂":2033,"桃":2034,"框":2035,"桓":2036,"梅":2037,"梨":2038,"检":2039,"森":2040,"椅":2041,"植":2042,"検":2043,"楠":2044,"業":2045,"極":2046,"楼":2047,"楽":2048,"標":2049,"模":2050,"横":2051,"樱":2052,"橿":2053,"檀":2054,"次":2055,"欢":2056,"款":2057,"歌":2058,"止":2059,"正":2060,"此":2061,"步":2062,"武":2063,"歩":2064,"歳":2065,"死":2066,"殊":2067,"段":2068,"殷":2069,"殿":2070,"毁":2071,"母":2072,"比":2073,"毛":2074,"氏":2075,"民":2076,"气":2077,"気":2078,"氣":2079,"水":2080,"氷":2081,"永":2082,"汇":2083,"汉":2084,"汕":2085,"江":2086,"汤":2087,"汴":2088,"決":2089,"沈":2090,"沙":2091,"沛":2092,"没":2093,"沪":2094,"沱":2095,"河":2096,"油":2097,"治":2098,"況":2099,"泉":2100,"泊":2101,"法":2102,"波":2103,"泥":2104,"注":2105,"泽":2106,"洋":2107,"洒":2108,"洛":2109,"洪":2110,"洲":2111,"活":2112,"派":2113,"流":2114,"浄":2115,"测":2116,"济":2117,"浙":2118,"浦":2119,"浮":2120,"海":2121,"涂":2122,"消":2123,"涩":2124,"淫":2125,"深":2126,"淹":2127,"清":2128,"済":2129,"渋":2130,"温":2131,"港":2132,"渲":2133,"游":2134,"湖":2135,"湾":2136,"満":2137,"溜":2138,"溝":2139,"溢":2140,"溥":2141,"溪":2142,"溫":2143,"溶":2144,"滬":2145,"漢":2146,"漫":2147,"潟":2148,"潮":2149,"澄":2150,"澤":2151,"激":2152,"濟":2153,"灣":2154,"火":2155,"灯":2156,"灰":2157,"灾":2158,"点":2159,"為":2160,"烦":2161,"無":2162,"然":2163,"焼":2164,"照":2165,"煮":2166,"熊":2167,"熟":2168,"熨":2169,"爆":2170,"爛":2171,"爪":2172,"爱":2173,"父":2174,"片":2175,"版":2176,"牌":2177,"牙":2178,"物":2179,"特":2180,"状":2181,"狐":2182,"狗":2183,"独":2184,"狭":2185,"献":2186,"獄":2187,"玄":2188,"率":2189,"玉":2190,"王":2191,"现":2192,"玲":2193,"珠":2194,"班":2195,"球":2196,"理":2197,"琢":2198,"瑠":2199,"瑩":2200,"璃":2201,"璐":2202,"瓶":2203,"甜":2204,"生":2205,"用":2206,"田":2207,"由":2208,"甲":2209,"申":2210,"电":2211,"男":2212,"甸":2213,"町":2214,"画":2215,"界":2216,"留":2217,"畢":2218,"略":2219,"畿":2220,"疆":2221,"疑":2222,"疗":2223,"疫":2224,"病":2225,"痛":2226,"痴":2227,"癌":2228,"白":2229,"百":2230,"的":2231,"皇":2232,"皮":2233,"益":2234,"盖":2235,"盗":2236,"盛":2237,"目":2238,"直":2239,"相":2240,"省":2241,"看":2242,"県":2243,"真":2244,"眩":2245,"眼":2246,"着":2247,"睦":2248,"瞎":2249,"瞳":2250,"矢":2251,"知":2252,"石":2253,"码":2254,"砂":2255,"砕":2256,"硝":2257,"硬":2258,"确":2259,"確":2260,"磨":2261,"礱":2262,"示":2263,"礼":2264,"社":2265,"祝":2266,"神":2267,"票":2268,"祸":2269,"祿":2270,"禅":2271,"福":2272,"禪":2273,"秀":2274,"私":2275,"秉":2276,"秋":2277,"种":2278,"科":2279,"秦":2280,"积":2281,"称":2282,"移":2283,"程":2284,"稱":2285,"稼":2286,"空":2287,"立":2288,"站":2289,"竞":2290,"章":2291,"端":2292,"競":2293,"竹":2294,"笠":2295,"第":2296,"筆":2297,"答":2298,"简":2299,"箕":2300,"管":2301,"箱":2302,"篇":2303,"米":2304,"系":2305,"紂":2306,"紅":2307,"納":2308,"純":2309,"級":2310,"素":2311,"索":2312,"紧":2313,"終":2314,"経":2315,"結":2316,"統":2317,"經":2318,"続":2319,"綺":2320,"総":2321,"線":2322,"縮":2323,"繁":2324,"織":2325,"约":2326,"级":2327,"纸":2328,"纹":2329,"纽":2330,"线":2331,"细":2332,"经":2333,"绞":2334,"统":2335,"维":2336,"网":2337,"罗":2338,"罪":2339,"置":2340,"羅":2341,"美":2342,"群":2343,"義":2344,"羲":2345,"羽":2346,"翁":2347,"翠":2348,"翻":2349,"耀":2350,"老":2351,"考":2352,"者":2353,"而":2354,"耳":2355,"耶":2356,"耸":2357,"联":2358,"肥":2359,"育":2360,"背":2361,"胖":2362,"胜":2363,"胞":2364,"胡":2365,"能":2366,"脱":2367,"腕":2368,"腰":2369,"腹":2370,"腺":2371,"膚":2372,"臂":2373,"臈":2374,"臓":2375,"臘":2376,"臣":2377,"臧":2378,"臨":2379,"自":2380,"至":2381,"致":2382,"臺":2383,"舁":2384,"舅":2385,"舊":2386,"舍":2387,"舐":2388,"舖":2389,"舞":2390,"舣":2391,"舩":2392,"航":2393,"舫":2394,"良":2395,"色":2396,"艳":2397,"节":2398,"芝":2399,"花":2400,"苏":2401,"苑":2402,"若":2403,"英":2404,"茂":2405,"茜":2406,"茨":2407,"茶":2408,"荣":2409,"莉":2410,"莞":2411,"获":2412,"莹":2413,"菜":2414,"華":2415,"菱":2416,"萄":2417,"萧":2418,"萬":2419,"落":2420,"葉":2421,"著":2422,"葡":2423,"蒋":2424,"蒸":2425,"蔓":2426,"蔚":2427,"薇":2428,"薔":2429,"薬":2430,"藏":2431,"藤":2432,"蘇":2433,"虑":2434,"蛋":2435,"蜀":2436,"蝦":2437,"螨":2438,"螳":2439,"螺":2440,"蟲":2441,"血":2442,"衆":2443,"行":2444,"術":2445,"街":2446,"衣":2447,"表":2448,"裂":2449,"裕":2450,"製":2451,"西":2452,"要":2453,"見":2454,"視":2455,"覧":2456,"親":2457,"覺":2458,"见":2459,"观":2460,"视":2461,"觉":2462,"角":2463,"解":2464,"言":2465,"訓":2466,"記":2467,"設":2468,"許":2469,"試":2470,"詩":2471,"話":2472,"誓":2473,"語":2474,"說":2475,"読":2476,"談":2477,"請":2478,"諸":2479,"謑":2480,"證":2481,"计":2482,"讣":2483,"讨":2484,"讯":2485,"记":2486,"讲":2487,"许":2488,"论":2489,"设":2490,"证":2491,"识":2492,"译":2493,"试":2494,"诘":2495,"话":2496,"该":2497,"语":2498,"说":2499,"请":2500,"课":2501,"调":2502,"谢":2503,"谷":2504,"豆":2505,"豊":2506,"貌":2507,"販":2508,"貮":2509,"貴":2510,"賀":2511,"資":2512,"賢":2513,"贞":2514,"负":2515,"贡":2516,"贤":2517,"货":2518,"质":2519,"贱":2520,"贳":2521,"费":2522,"资":2523,"赌":2524,"赛":2525,"赞":2526,"赤":2527,"赵":2528,"赶":2529,"起":2530,"超":2531,"越":2532,"趙":2533,"足":2534,"跋":2535,"跟":2536,"跨":2537,"路":2538,"跳":2539,"踌":2540,"躇":2541,"躍":2542,"身":2543,"軍":2544,"転":2545,"輪":2546,"车":2547,"转":2548,"轮":2549,"载":2550,"较":2551,"辑":2552,"辛":2553,"辞":2554,"辱":2555,"込":2556,"达":2557,"迅":2558,"过":2559,"迎":2560,"运":2561,"近":2562,"返":2563,"这":2564,"进":2565,"连":2566,"迷":2567,"送":2568,"逃":2569,"逆":2570,"选":2571,"透":2572,"途":2573,"通":2574,"逸":2575,"遇":2576,"遊":2577,"道":2578,"達":2579,"遗":2580,"遝":2581,"遣":2582,"遪":2583,"遭":2584,"遲":2585,"遽":2586,"那":2587,"邱":2588,"郎":2589,"郑":2590,"郝":2591,"郡":2592,"部":2593,"郷":2594,"都":2595,"鄂":2596,"鄉":2597,"鄭":2598,"酉":2599,"配":2600,"酒":2601,"采":2602,"釉":2603,"里":2604,"重":2605,"野":2606,"量":2607,"金":2608,"鈍":2609,"鈴":2610,"銀":2611,"鋍":2612,"鋑":2613,"鋒":2614,"鋓":2615,"鋖":2616,"鋘":2617,"鋜":2618,"鋝":2619,"鋞":2620,"鋟":2621,"鐵":2622,"针":2623,"钓":2624,"钢":2625,"钦":2626,"钧":2627,"钱":2628,"铃":2629,"铭":2630,"银":2631,"销":2632,"锈":2633,"锋":2634,"错":2635,"键":2636,"镜":2637,"長":2638,"門":2639,"開":2640,"間":2641,"関":2642,"閣":2643,"閩":2644,"门":2645,"问":2646,"间":2647,"闵":2648,"闻":2649,"闽":2650,"阜":2651,"队":2652,"阪":2653,"防":2654,"阳":2655,"阿":2656,"陀":2657,"际":2658,"陈":2659,"降":2660,"限":2661,"除":2662,"陳":2663,"陵":2664,"陶":2665,"隆":2666,"階":2667,"際":2668,"难":2669,"雄":2670,"雅":2671,"集":2672,"雛":2673,"離":2674,"雪":2675,"雲":2676,"雷":2677,"電":2678,"需":2679,"青":2680,"静":2681,"非":2682,"面":2683,"革":2684,"靳":2685,"音":2686,"項":2687,"須":2688,"頑":2689,"頭":2690,"顗":2691,"页":2692,"顶":2693,"顾":2694,"预":2695,"颐":2696,"颖":2697,"题":2698,"颜":2699,"風":2700,"风":2701,"飛":2702,"飞":2703,"食":2704,"飯":2705,"飼":2706,"館":2707,"饮":2708,"首":2709,"香":2710,"馬":2711,"駄":2712,"駅":2713,"験":2714,"騜":2715,"马":2716,"验":2717,"髄":2718,"體":2719,"高":2720,"鬼":2721,"魔":2722,"鰀":2723,"鰃":2724,"鰄":2725,"鰈":2726,"鰊":2727,"鰎":2728,"鱼":2729,"鲁":2730,"鲞":2731,"鳳":2732,"鴻":2733,"鵜":2734,"鹈":2735,"鹤":2736,"鹿":2737,"麗":2738,"麩":2739,"麺":2740,"黃":2741,"黄":2742,"黒":2743,"黚":2744,"黡":2745,"黨":2746,"黮":2747,"黵":2748,"黷":2749,"鼻":2750,"齡":2751,"龍":2752,"龙":2753,"검":2754,"고":2755,"구":2756,"국":2757,"군":2758,"김":2759,"뀌":2760,"나":2761,"널":2762,"녀":2763,"년":2764,"누":2765,"는":2766,"니":2767,"님":2768,"다":2769,"단":2770,"당":2771,"대":2772,"돌":2773,"드":2774,"로":2775,"루":2776,"류":2777,"르":2778,"마":2779,"막":2780,"맨":2781,"문":2782,"미":2783,"바":2784,"박":2785,"반":2786,"번":2787,"법":2788,"베":2789,"별":2790,"비":2791,"빛":2792,"사":2793,"서":2794,"성":2795,"세":2796,"셀":2797,"셜":2798,"소":2799,"스":2800,"습":2801,"시":2802,"신":2803,"아":2804,"어":2805,"었":2806,"에":2807,"엘":2808,"엠":2809,"영":2810,"왕":2811,"요":2812,"웅":2813,"월":2814,"유":2815,"으":2816,"이":2817,"인":2818,"일":2819,"자":2820,"작":2821,"적":2822,"조":2823,"존":2824,"주":2825,"지":2826,"짝":2827,"창":2828,"천":2829,"체":2830,"추":2831,"층":2832,"치":2833,"킨":2834,"터":2835,"톨":2836,"티":2837,"폐":2838,"한":2839,"향":2840,"호":2841,"환":2842,"회":2843,"훈":2844,"":2845,"":2846,"":2847,"":2848,"":2849,"":2850,"":2851,"":2852,"":2853,"":2854,"":2855,"":2856,"":2857,"":2858,"":2859,"":2860,"":2861,"":2862,"":2863,"":2864,"":2865,"":2866,"":2867,"":2868,"ﬁ":2869,"ﬂ":2870,"ﷲ":2871,"︰":2872,"﻿":2873,"！":2874,"（":2875,"）":2876,"＊":2877,"，":2878,"－":2879,"．":2880,"：":2881,"；":2882,"？":2883,"ｔ":2884,"､":2885,"ｲ":2886,"ｿ":2887,"ﾜ":2888,"ﾟ":2889,"￡":2890,"￥":2891,"￼":2892,"�":2893,"𐌰":2894,"𐌴":2895,"𐌸":2896,"𐌼":2897,"𐌽":2898,"𐍃":2899,"𐍉":2900,"𠐄":2901,"𢥲":2902,"𧵮":2903,"𲠄":2904,"𲠤":2905,"򮬩":2906,"򮮥":2907,"򲤥":2908,"򲵮":2909,"򴩧":2910,"en":2911,"er":2912,"ch":2913,"ei":2914,"un":2915,"ie":2916,"st":2917,"in":2918,"der":2919,"an":2920,"es":2921,"ich":2922,"on":2923,"die":2924,"ein":2925,"sch":2926,"und":2927,"ung":2928,"au":2929,"ge":2930,"den":2931,"al":2932,"te":2933,"ti":2934,"or":2935,"ar":2936,"ten":2937,"as":2938,"zu":2939,"it":2940,"de":2941,"gen":2942,"hr":2943,"el":2944,"ur":2945,"ir":2946,"ter":2947,"lich":2948,"le":2949,"ol":2950,"be":2951,"se":2952,"at":2953,"ür":2954,"men":2955,"ber":2956,"das":2957,"eit":2958,"is":2959,"ra":2960,"ist":2961,"ver":2962,"eine":2963,"im":2964,"von":2965,"om":2966,"auf":2967,"isch":2968,"ier":2969,"wir":2970,"icht":2971,"mit":2972,"ben":2973,"us":2974,"ro":2975,"re":2976,"tion":2977,"für":2978,"tz":2979,"sen":2980,"ach":2981,"des":2982,"ne":2983,"wer":2984,"am":2985,"ig":2986,"ck":2987,"aus":2988,"um":2989,"Ver":2990,"il":2991,"sp":2992,"ser":2993,"ft":2994,"len":2995,"ungen":2996,"nen":2997,"dem":2998,"Die":2999,"In":3000,"eich":3001,"sich":3002,"si":3003,"and":3004,"ent":3005,"da":3006,"op":3007,"wei":3008,"nicht":3009,"ste":3010,"Sie":3011,"la":3012,"ff":3013,"ischen":3014,"über":3015,"än":3016,"kt":3017,"ind":3018,"werden":3019,"so":3020,"bei":3021,"auch":3022,"St":3023,"dass":3024,"An":3025,"ges":3026,"Be":3027,"he":3028,"ha":3029,"vor":3030,"wie":3031,"Re":3032,"ah":3033,"Un":3034,"ation":3035,"ahr":3036,"ann":3037,"ien":3038,"me":3039,"ger":3040,"ab":3041,"lie":3042,"hal":3043,"urop":3044,"rei":3045,"Sch":3046,"lt":3047,"gt":3048,"hen":3049,"scha":3050,"och":3051,"einer":3052,"ungs":3053,"ri":3054,"sind":3055,"ut":3056,"sten":3057,"als":3058,"tel":3059,"wen":3060,"rä":3061,"wird":3062,"einen":3063,"fü":3064,"for":3065,"iel":3066,"Pro":3067,"oder":3068,"em":3069,"stel":3070,"err":3071,"ön":3072,"Er":3073,"je":3074,"Ein":3075,"all":3076,"hat":3077,"mer":3078,"00":3079,"En":3080,"gr":3081,"ts":3082,"schaft":3083,"diese":3084,"zur":3085,"oll":3086,"Aus":3087,"Europ":3088,"unter":3089,"sie":3090,"et":3091,"haben":3092,"urch":3093,"li":3094,"Au":3095,"bes":3096,"ru":3097,"Mit":3098,"Ber":3099,"war":3100,"Kom":3101,"ern":3102,"lichen":3103,"tig":3104,"lo":3105,"ihr":3106,"ische":3107,"her":3108,"kön":3109,"Ar":3110,"sion":3111,"nach":3112,"gan":3113,"mö":3114,"Wir":3115,"ort":3116,"tet":3117,"ing":3118,"kom":3119,"unser":3120,"schen":3121,"durch":3122,"chen":3123,"ken":3124,"Ge":3125,"di":3126,"heit":3127,"oh":3128,"är":3129,"dar":3130,"keit":3131,"Das":3132,"lung":3133,"einem":3134,"iti":3135,"ion":3136,"ot":3137,"uss":3138,"wur":3139,"kann":3140,"ander":3141,"Par":3142,"aten":3143,"mis":3144,"ün":3145,"hin":3146,"dern":3147,"tiv":3148,"du":3149,"ze":3150,"Ich":3151,"liche":3152,"können":3153,"tei":3154,"lei":3155,"ht":3156,"geb":3157,"fe":3158,"cht":3159,"Jahr":3160,"tra":3161,"ran":3162,"ment":3163,"beit":3164,"ssen":3165,"Vor":3166,"Herr":3167,"Kommis":3168,"Sp":3169,"lan":3170,"Ab":3171,"zum":3172,"tw":3173,"ma":3174,"ieren":3175,"sta":3176,"ör":3177,"rie":3178,"führ":3179,"fen":3180,"che":3181,"fin":3182,"chte":3183,"wä":3184,"glich":3185,"ück":3186,"itä":3187,"kl":3188,"Europä":3189,"iert":3190,"Ges":3191,"ik":3192,"eiten":3193,"tzt":3194,"ktion":3195,"..":3196,"gl":3197,"uns":3198,"bar":3199,"gem":3200,"Unter":3201,"ho":3202,"nur":3203,"zi":3204,"oliti":3205,"dies":3206,"neh":3207,"man":3208,"ffen":3209,"br":3210,"Ma":3211,"elt":3212,"Der":3213,"neu":3214,"Ihr":3215,"we":3216,"alle":3217,"ick":3218,"Kon":3219,"rau":3220,"Ho":3221,"mü":3222,"noch":3223,"lä":3224,"was":3225,"bt":3226,"kon":3227,"räsi":3228,"dieser":3229,"räsiden":3230,"ul":3231,"imm":3232,"Al":3233,"Kommission":3234,"utz":3235,"son":3236,"ak":3237,"ierung":3238,"pro":3239,"ßen":3240,"Gr":3241,"nis":3242,"immer":3243,"mehr":3244,"Es":3245,"gel":3246,"ler":3247,"fol":3248,"daß":3249,"sa":3250,"igen":3251,"weiter":3252,"ner":3253,"sein":3254,"sel":3255,"pf":3256,"200":3257,"zen":3258,"ok":3259,"alen":3260,"rit":3261,"dig":3262,"räsident":3263,"sam":3264,"wurde":3265,"Zu":3266,"tern":3267,"Auf":3268,"soll":3269,"gegen":3270,"ke":3271,"aber":3272,"gra":3273,"kommen":3274,"gesch":3275,"ob":3276,"glie":3277,"Um":3278,"han":3279,"wenn":3280,"zw":3281,"per":3282,"ad":3283,"nah":3284,"tigen":3285,"olle":3286,"form":3287,"det":3288,"fahr":3289,"del":3290,"lin":3291,"halten":3292,"sehr":3293,"assen":3294,"bie":3295,"eichen":3296,"müssen":3297,"Fra":3298,"nehmen":3299,"tier":3300,"ell":3301,"ic":3302,"bis":3303,"ität":3304,"ag":3305,"Mitglie":3306,"ord":3307,"ug":3308,"Präsident":3309,"Parla":3310,"ige":3311,"pp":3312,"Hotel":3313,"ale":3314,"eines":3315,"os":3316,"stimm":3317,"ute":3318,"fer":3319,"tschaft":3320,"hnen":3321,"qu":3322,"Le":3323,"Reg":3324,"anz":3325,"Men":3326,"ahl":3327,"og":3328,"We":3329,"diesem":3330,"rü":3331,"enn":3332,"hä":3333,"Union":3334,"age":3335,"atz":3336,"ßer":3337,"De":3338,"Arbeit":3339,"setz":3340,"gro":3341,"sche":3342,"gew":3343,"kte":3344,"ess":3345,"Europäischen":3346,"unden":3347,"19":3348,"stat":3349,"schie":3350,"gi":3351,"dung":3352,"geben":3353,"hn":3354,"bet":3355,"onder":3356,"uch":3357,"Mitglied":3358,"eigen":3359,"möchte":3360,"tung":3361,"Bes":3362,"stän":3363,"ationen":3364,"Zeit":3365,"yste":3366,"Me":3367,"stü":3368,"Ent":3369,"Rat":3370,"Über":3371,"doch":3372,"stellen":3373,"zie":3374,"land":3375,"EU":3376,"politi":3377,"hier":3378,"Im":3379,"For":3380,"iz":3381,"So":3382,"wich":3383,"Te":3384,"ve":3385,"end":3386,"uropä":3387,"ster":3388,"stehen":3389,"ble":3390,"Nach":3391,"ass":3392,"nung":3393,"fä":3394,"tige":3395,"vom":3396,"Mar":3397,"ga":3398,"ihre":3399,"zwei":3400,"gibt":3401,"Se":3402,"net":3403,"trag":3404,"ap":3405,"Frau":3406,"Menschen":3407,"schlie":3408,"europä":3409,"sowie":3410,"ins":3411,"bereit":3412,"Bericht":3413,"woh":3414,"zwischen":3415,"änder":3416,"tre":3417,"mal":3418,"twick":3419,"dieses":3420,"Bei":3421,"Ne":3422,"sol":3423,"besonder":3424,"halb":3425,"stellt":3426,"ele":3427,"teil":3428,"Da":3429,"iele":3430,"Zus":3431,"ften":3432,"chn":3433,"to":3434,"Entwick":3435,"bst":3436,"möglich":3437,"acht":3438,"Inter":3439,"enz":3440,"staaten":3441,"denen":3442,"gram":3443,"ange":3444,"äch":3445,"viel":3446,"the":3447,"Parlament":3448,"hör":3449,"wel":3450,"Grund":3451,"gleich":3452,"forder":3453,"arbei":3454,"muss":3455,"gese":3456,"Or":3457,"su":3458,"sicher":3459,"uß":3460,"entr":3461,"ast":3462,"keine":3463,"wür":3464,"unsere":3465,"The":3466,"dr":3467,"ammen":3468,"20":3469,"ausge":3470,"deut":3471,"finden":3472,"achen":3473,"Ihnen":3474,"ße":3475,"öff":3476,"rechen":3477,"legen":3478,"Mitgliedstaaten":3479,"anderen":3480,"Produ":3481,"...":3482,"stütz":3483,"eil":3484,"Europa":3485,"ellen":3486,"ce":3487,"ub":3488,"Zusammen":3489,"währ":3490,"art":3491,"besser":3492,"steht":3493,"weise":3494,"ischer":3495,"Land":3496,"keiten":3497,"Proble":3498,"wirk":3499,"sicht":3500,"Her":3501,"issen":3502,"pt":3503,"zei":3504,"ingen":3505,"gung":3506,"ös":3507,"Wenn":3508,"chä":3509,"Welt":3510,"leich":3511,"itu":3512,"Wer":3513,"mittel":3514,"unkt":3515,"gemein":3516,"dann":3517,"ystem":3518,"iger":3519,"gehen":3520,"spe":3521,"bil":3522,"Vorsch":3523,"schei":3524,"Fl":3525,"Sta":3526,"wo":3527,"tr":3528,"nahmen":3529,"Bür":3530,"Haus":3531,"ank":3532,"chten":3533,"stand":3534,"ativ":3535,"gie":3536,"Per":3537,"ffe":3538,"ant":3539,"wieder":3540,"ding":3541,"fahren":3542,"fra":3543,"zeit":3544,"äm":3545,"allen":3546,"igkeit":3547,"lick":3548,"damit":3549,"diesen":3550,"brauch":3551,"innen":3552,"Inform":3553,"wohl":3554,"arbeit":3555,"wirtschaft":3556,"10":3557,"wurden":3558,"ternation":3559,"alt":3560,"dien":3561,"tik":3562,"lau":3563,"hö":3564,"wor":3565,"po":3566,"bin":3567,"reich":3568,"Diese":3569,"gang":3570,"ändern":3571,"icher":3572,"ollen":3573,"neue":3574,"äu":3575,"ill":3576,"lag":3577,"ko":3578,"inn":3579,"ats":3580,"voll":3581,"gar":3582,"sprechen":3583,"ire":3584,"Qu":3585,"einf":3586,"mus":3587,"chts":3588,"Fe":3589,"unserer":3590,"Dies":3591,"Wei":3592,"str":3593,"satz":3594,"ätz":3595,"habe":3596,"grund":3597,"olog":3598,"sondern":3599,"Ihre":3600,"min":3601,"Gem":3602,"seine":3603,"ate":3604,"stru":3605,"spiel":3606,"ss":3607,"ker":3608,"ommen":3609,"inter":3610,"ard":3611,"fall":3612,"zeich":3613,"jedoch":3614,"alis":3615,"richt":3616,"ex":3617,"elle":3618,"führen":3619,"Europäische":3620,"uer":3621,"Bürger":3622,"Min":3623,"Sicher":3624,"akt":3625,"ähr":3626,"mar":3627,"Kl":3628,"uten":3629,"lagen":3630,"luss":3631,"itz":3632,").":3633,"tionen":3634,"fest":3635,"ments":3636,"heute":3637,"ia":3638,"halt":3639,"Fin":3640,"ang":3641,"schließ":3642,"letz":3643,"ktiv":3644,"Unternehmen":3645,"frei":3646,"ruck":3647,"Stra":3648,"öl":3649,"kehr":3650,"licher":3651,"Was":3652,"Än":3653,"fern":3654,"ritt":3655,"rich":3656,"ßnahmen":3657,"seit":3658,"lage":3659,"sor":3660,"gramm":3661,"ov":3662,"ohne":3663,"Kolle":3664,"verb":3665,"ihrer":3666,"schn":3667,"Wie":3668,"bereits":3669,"Änder":3670,"ielen":3671,"ganz":3672,"Entwicklung":3673,"olitik":3674,"welt":3675,"lungen":3676,"lassen":3677,"ati":3678,"fre":3679,"Bereich":3680,"zug":3681,"Ko":3682,"sollte":3683,"pr":3684,"ult":3685,"weil":3686,"Bil":3687,"mich":3688,"Daten":3689,"US":3690,"hän":3691,"europäischen":3692,"führt":3693,"amen":3694,"selbst":3695,"Gemein":3696,"neuen":3697,"sehen":3698,"Mo":3699,"Jahren":3700,"Frage":3701,"Leben":3702,"twort":3703,"mo":3704,"Ser":3705,"andere":3706,"Mö":3707,"Richt":3708,"grö":3709,"verschie":3710,"öffent":3711,"aut":3712,"stellung":3713,"hei":3714,"fr":3715,"liegt":3716,"hand":3717,"internation":3718,"wa":3719,"Sicherheit":3720,"Mon":3721,"aller":3722,"our":3723,"ven":3724,"of":3725,"Mil":3726,"Teil":3727,"sei":3728,"sollten":3729,"ierte":3730,"Po":3731,"machen":3732,"nahme":3733,"bewer":3734,"Des":3735,"gend":3736,"kun":3737,"esse":3738,"hält":3739,"bietet":3740,"nisse":3741,"wichtig":3742,"kten":3743,"Stad":3744,"Wirtschaft":3745,"essen":3746,"ktur":3747,"Mittel":3748,"eben":3749,"setzen":3750,"dan":3751,"bel":3752,"besch":3753,"lang":3754,"atur":3755,"genommen":3756,"geht":3757,"Zimmer":3758,"hm":3759,"zahl":3760,"besondere":3761,"tigt":3762,"tieren":3763,"),":3764,"dazu":3765,"onen":3766,"gut":3767,"erst":3768,"viele":3769,"bau":3770,"hlen":3771,"andel":3772,"unktion":3773,"findet":3774,"iv":3775,"under":3776,"einfach":3777,"pl":3778,"ierten":3779,"könn":3780,"kur":3781,"kunft":3782,"Möglich":3783,"seiner":3784,"Person":3785,"wick":3786,"Ger":3787,"Man":3788,"fort":3789,"ichte":3790,"alität":3791,"Ex":3792,"sagen":3793,"inner":3794,"ac":3795,"denn":3796,"beg":3797,"pe":3798,"darauf":3799,"ust":3800,"Gen":3801,"oren":3802,"sar":3803,"Rei":3804,"Web":3805,"ahmen":3806,"ow":3807,"isk":3808,"jetzt":3809,"par":3810,"io":3811,"Rahmen":3812,"Stand":3813,"tischen":3814,"klär":3815,"zel":3816,"Maßnahmen":3817,"Finanz":3818,"mei":3819,"wissen":3820,"hl":3821,"ganis":3822,"stra":3823,"schon":3824,"id":3825,"Lage":3826,"reis":3827,"atür":3828,"zusam":3829,"cken":3830,"fte":3831,"Hau":3832,"sozi":3833,"ultur":3834,"Informationen":3835,"gestellt":3836,"ice":3837,"bieten":3838,"esen":3839,"Bet":3840,"einige":3841,"zusammen":3842,"ks":3843,"ett":3844,"tiert":3845,"dafür":3846,"lossen":3847,"eld":3848,"los":3849,"Jahre":3850,"recht":3851,"gesam":3852,"Ziel":3853,"com":3854,"ade":3855,"ide":3856,"zeu":3857,"reg":3858,"Dien":3859,"ial":3860,"Stadt":3861,"fäl":3862,"Am":3863,"sätz":3864,"zurück":3865,"Fall":3866,"Herrn":3867,"hil":3868,"Ta":3869,"stär":3870,"entwick":3871,"Eur":3872,"aler":3873,"otwen":3874,"setzung":3875,"Aussch":3876,"Kin":3877,"ihren":3878,"heiten":3879,"sto":3880,"Region":3881,"liegen":3882,"mir":3883,"nun":3884,"Kommissar":3885,"äß":3886,"spra":3887,"leg":3888,"lichkeit":3889,"zentr":3890,"allem":3891,"leist":3892,"uf":3893,"stau":3894,"Verein":3895,"komm":3896,"prä":3897,"stal":3898,"star":3899,"199":3900,"weit":3901,"würde":3902,"ine":3903,"folgen":3904,"Bo":3905,"lungs":3906,"falls":3907,"punkt":3908,"meine":3909,"Rechts":3910,"statt":3911,"Für":3912,"are":3913,"Ener":3914,"wollen":3915,"Ch":3916,"Eine":3917,"System":3918,"nie":3919,"verfü":3920,"Aut":3921,"antwort":3922,"unseren":3923,"kün":3924,"Lei":3925,"bringen":3926,"spro":3927,"tisch":3928,"rat":3929,"Länder":3930,"län":3931,"bestimm":3932,"na":3933,"dire":3934,"Proje":3935,"Bar":3936,"Arbeits":3937,"während":3938,"ahn":3939,"Und":3940,"Res":3941,"Parlaments":3942,"ziel":3943,"co":3944,"leben":3945,"tigung":3946,"15":3947,"ta":3948,"dür":3949,"drei":3950,"Lös":3951,"Recht":3952,"techn":3953,"Verb":3954,"etwas":3955,"Su":3956,"hmen":3957,"gangen":3958,"waren":3959,"lü":3960,"hol":3961,"schein":3962,"delt":3963,"Vorschlag":3964,"Frei":3965,"ordnung":3966,"erhalten":3967,"ogen":3968,"isten":3969,"legt":3970,"Form":3971,"bez":3972,"Problem":3973,"eite":3974,"iss":3975,"Geschä":3976,"riv":3977,"nation":3978,"aum":3979,"ersten":3980,"insbesondere":3981,"Unterstütz":3982,"arbeiten":3983,"Dem":3984,"Durch":3985,"äl":3986,"Fraktion":3987,"schri":3988,"schaften":3989,"ple":3990,"tragen":3991,"schw":3992,"bs":3993,"ache":3994,"linie":3995,"umf":3996,"ßt":3997,"ichter":3998,"kauf":3999,"rag":4000,"itte":4001,"ations":4002,"erreich":4003,"Unser":4004,"rin":4005,"außer":4006,"atürlich":4007,"Programm":4008,"verwen":4009,"Markt":4010,"gesetzt":4011,"amil":4012,"fft":4013,"begr":4014,"Str":4015,"unterstütz":4016,"assung":4017,"Namen":4018,"glichen":4019,"stitu":4020,"bede":4021,"einmal":4022,"Fre":4023,"stimmung":4024,"rank":4025,"Li":4026,"zun":4027,"räge":4028,"letzten":4029,"Ur":4030,"völ":4031,"Verfü":4032,"einge":4033,"ond":4034,"Änderungs":4035,"gabe":4036,"Lu":4037,"ign":4038,"tun":4039,"Lin":4040,"Unterstützung":4041,"digen":4042,"Pl":4043,"utzen":4044,"auer":4045,"Mein":4046,"Kunden":4047,"ellschaft":4048,"gri":4049,"gaben":4050,"also":4051,"ite":4052,"okra":4053,"itäten":4054,"Ländern":4055,"Gesch":4056,"ue":4057,"Sti":4058,"Art":4059,"beim":4060,"Zusammenarbeit":4061,"Energie":4062,"get":4063,"Ro":4064,"treten":4065,"ständig":4066,"Euro":4067,"druck":4068,"Tran":4069,"Umwelt":4070,"jen":4071,"gemeinsam":4072,"amer":4073,"gehör":4074,"12":4075,"Gemeinschaft":4076,"Deut":4077,"zeug":4078,"Regierung":4079,"18":4080,"besteht":4081,"Ste":4082,"dlich":4083,"darf":4084,"Je":4085,"wach":4086,"30":4087,"Milli":4088,"ware":4089,"markt":4090,"handel":4091,"örder":4092,"deren":4093,"Handel":4094,"gef":4095,"zial":4096,"Hin":4097,"ichts":4098,"yp":4099,"eln":4100,"Tag":4101,"führung":4102,"vice":4103,"Spiel":4104,"ppe":4105,"blick":4106,"will":4107,"sk":4108,"Flug":4109,"Ha":4110,"glau":4111,"leicht":4112,"stim":4113,"Dienst":4114,"seinen":4115,"merk":4116,"La":4117,"Fragen":4118,"wär":4119,"stan":4120,"zieh":4121,"Hil":4122,"blei":4123,"bekann":4124,"Anwen":4125,"wäre":4126,"tische":4127,"cher":4128,"ismus":4129,"ühr":4130,"EN":4131,"raum":4132,"Beit":4133,"Stel":4134,"rechte":4135,"Besch":4136,"tigkeit":4137,"welche":4138,"mente":4139,"xt":4140,"Entschei":4141,"handelt":4142,"dabei":4143,"reichen":4144,"entsprechen":4145,"Politik":4146,"häng":4147,"ettbewer":4148,"Gro":4149,"ja":4150,"Proz":4151,"Seite":4152,"wahr":4153,"fiz":4154,"kosten":4155,"oten":4156,"gelegen":4157,"Co":4158,"Part":4159,"wert":4160,"Com":4161,"politischen":4162,"Kollegen":4163,"Dar":4164,"rän":4165,"ichterstat":4166,"Techn":4167,"Vertrag":4168,"raft":4169,"wirklich":4170,"stell":4171,"Geschäft":4172,"offen":4173,"ppen":4174,"undheit":4175,"000":4176,"klar":4177,"otwendig":4178,"bung":4179,"ktor":4180,"großen":4181,"große":4182,"halts":4183,"con":4184,"worden":4185,"Hand":4186,"ER":4187,"Bedeut":4188,"muß":4189,"spar":4190,"kre":4191,"Woh":4192,"bo":4193,"unde":4194,"50":4195,"asse":4196,"dingungen":4197,"kommt":4198,"chäf":4199,"zeigt":4200,"prü":4201,"Sa":4202,"Eben":4203,"one":4204,"Kinder":4205,"Aber":4206,"vest":4207,"igung":4208,"Ergeb":4209,"Verfügung":4210,"Bedeutung":4211,"nehmer":4212,"erfol":4213,"pa":4214,"ative":4215,"Staaten":4216,"Br":4217,"pflich":4218,"etz":4219,"Lebens":4220,"lauf":4221,"anischen":4222,"bur":4223,"Schutz":4224,"Vol":4225,"stä":4226,"Möglichkeit":4227,"ahlen":4228,"fäh":4229,"jeder":4230,"moder":4231,"schließen":4232,"Hier":4233,"staat":4234,"Thema":4235,"schließlich":4236,"gere":4237,"ca":4238,"eigenen":4239,"Auch":4240,"rise":4241,"Fol":4242,"ums":4243,"Kar":4244,"dessen":4245,"politik":4246,"Gew":4247,"ph":4248,"Stu":4249,"bereich":4250,"res":4251,"Haupt":4252,"hervor":4253,"Berichterstat":4254,"ierungs":4255,"näch":4256,"tte":4257,"weisen":4258,"wes":4259,"schutz":4260,"ligen":4261,"zep":4262,"anzu":4263,"rak":4264,"Als":4265,"Fahr":4266,"davon":4267,"fül":4268,"tä":4269,"alles":4270,"hau":4271,"suchen":4272,"gegenüber":4273,"wegen":4274,"äh":4275,"Ju":4276,"Zukunft":4277,"Beispiel":4278,"Lie":4279,"Internet":4280,"könnte":4281,"Ben":4282,"ere":4283,"erforder":4284,"ffiz":4285,"entfern":4286,"lob":4287,"darüber":4288,"kein":4289,"Probleme":4290,"Frauen":4291,"produ":4292,"Gegen":4293,"Gru":4294,"hang":4295,"daher":4296,"samen":4297,"Zentr":4298,"Weise":4299,"käm":4300,"aktiv":4301,"Gä":4302,"zer":4303,"-,":4304,"stauran":4305,"gern":4306,"rieden":4307,"tikel":4308,"ou":4309,"ritte":4310,"Famil":4311,"sowohl":4312,"Weg":4313,"At":4314,"hoch":4315,"ald":4316,"Seiten":4317,"weitere":4318,"lu":4319,"ingt":4320,"geord":4321,"erreichen":4322,"Ende":4323,"hatte":4324,"ister":4325,"meiner":4326,"befindet":4327,"ian":4328,"finanz":4329,"tem":4330,"gegeben":4331,"Tra":4332,"bed":4333,"Ihrer":4334,"ka":4335,"natürlich":4336,"gesehen":4337,"unterstützen":4338,"inen":4339,"Ausschuss":4340,"neten":4341,"hof":4342,"ital":4343,"besonders":4344,"Währ":4345,"Mehr":4346,"War":4347,"Sol":4348,"stens":4349,"eren":4350,"reise":4351,"Forsch":4352,"ihnen":4353,"ruch":4354,"Dat":4355,"abil":4356,"ehmen":4357,"bat":4358,"use":4359,"USA":4360,"rieben":4361,"ider":4362,"od":4363,"Situ":4364,"Richtlinie":4365,"abhäng":4366,"dt":4367,"innerhalb":4368,"verschiedenen":4369,"tungen":4370,"reifen":4371,"ziehen":4372,"obil":4373,"aktu":4374,"Berichterstatter":4375,"genann":4376,"weg":4377,"einzu":4378,"posi":4379,"Bild":4380,"Funktion":4381,"Wettbewer":4382,"Ob":4383,"Rück":4384,"Deutsch":4385,"geschlossen":4386,"vielen":4387,"dort":4388,"entfernt":4389,"cen":4390,"geführt":4391,"dings":4392,"ima":4393,"Rolle":4394,"He":4395,"zip":4396,"11":4397,"zwar":4398,"dungen":4399,"bri":4400,"rifft":4401,"Wasser":4402,"nt":4403,"geln":4404,"enzen":4405,"internationalen":4406,"Di":4407,"sön":4408,"Grün":4409,"Zwei":4410,"gän":4411,"Artikel":4412,"indung":4413,"ron":4414,"mon":4415,"tiger":4416,"ase":4417,"zimmer":4418,"Vert":4419,"scheiden":4420,"angen":4421,"ftware":4422,"Fort":4423,"Em":4424,"vers":4425,"mäß":4426,"az":4427,"Nutz":4428,"werk":4429,"Gar":4430,"stet":4431,"agt":4432,"dition":4433,"größ":4434,"hunder":4435,"einzel":4436,"Woch":4437,"möchten":4438,"erken":4439,"Verbrauch":4440,"sweise":4441,"direkt":4442,"ome":4443,"16":4444,"Kü":4445,"Pf":4446,"sprache":4447,"Gesetz":4448,"tlich":4449,"Uhr":4450,"vier":4451,"schaffen":4452,"bestehen":4453,"Ihren":4454,"gewähr":4455,"erste":4456,"gebra":4457,"Terr":4458,"verschieden":4459,"lig":4460,"do":4461,"danken":4462,"ologie":4463,"europäische":4464,"Kre":4465,"frage":4466,"ktionen":4467,"Alle":4468,"mitt":4469,"Disk":4470,"tro":4471,"stimmt":4472,"spolitik":4473,"haus":4474,"Gesundheit":4475,"halte":4476,"sse":4477,"ater":4478,"igten":4479,"hel":4480,"opp":4481,"konn":4482,"tze":4483,"Strate":4484,"les":4485,"genau":4486,"Mus":4487,"Sk":4488,"ül":4489,"unge":4490,"Gebie":4491,"Wor":4492,"Partner":4493,"Restauran":4494,"stimmen":4495,"Kam":4496,"ünst":4497,"rüh":4498,"Geschäfts":4499,"lik":4500,"uter":4501,"Spra":4502,"ore":4503,"Meinung":4504,"Preis":4505,"line":4506,"dlichen":4507,"tes":4508,"14":4509,"Kultur":4510,"Indu":4511,"Hilfe":4512,"antrag":4513,"eig":4514,"stück":4515,"drück":4516,"Gleich":4517,"Bau":4518,"Abgeord":4519,"Chin":4520,"einander":4521,"iste":4522,"grün":4523,"Personen":4524,"größer":4525,"Lösung":4526,"oku":4527,"politische":4528,"Kont":4529,"plan":4530,"Con":4531,"gesagt":4532,"Zusammenhang":4533,"beiden":4534,"Ele":4535,"Fest":4536,"hinaus":4537,"yn":4538,"Situation":4539,"]]":4540,"sichtlich":4541,"17":4542,"spä":4543,"gelegt":4544,"läge":4545,"Gäste":4546,"ym":4547,"verbesser":4548,"jähr":4549,"2009":4550,"por":4551,"unserem":4552,"orden":4553,"Den":4554,"alten":4555,"Scha":4556,"ys":4557,"asst":4558,"weis":4559,"etwa":4560,"weniger":4561,"schrei":4562,"Entschließ":4563,"groß":4564,"alisierung":4565,"[[":4566,"ütz":4567,"Sü":4568,"av":4569,"Verantwort":4570,"ilt":4571,"ferenz":4572,"stützt":4573,"Spe":4574,"achten":4575,"folg":4576,"ity":4577,"demokra":4578,"Kontr":4579,"macht":4580,"verkehr":4581,"rieb":4582,"Software":4583,"eng":4584,"bu":4585,"ali":4586,"Natur":4587,"Pol":4588,"baren":4589,"unterschie":4590,"Deutschland":4591,"no":4592,"Dieses":4593,"Dienstleist":4594,"struktur":4595,"schnell":4596,"Kosten":4597,"Op":4598,"Schluss":4599,"13":4600,"fel":4601,"erien":4602,"Projekt":4603,"Met":4604,"Produkte":4605,"auszu":4606,"erwar":4607,"ierungen":4608,"öffentlichen":4609,"begrü":4610,"äußer":4611,"daran":4612,"mun":4613,"bzw":4614,"reffen":4615,"teilung":4616,"aussch":4617,"que":4618,"Präsidentin":4619,"Invest":4620,"fähr":4621,"tions":4622,"indem":4623,"Geb":4624,"ech":4625,"tten":4626,"wün":4627,"pfe":4628,"gilt":4629,"Millionen":4630,"ichtet":4631,"Viel":4632,"enden":4633,"ämlich":4634,"forderungen":4635,"fragen":4636,"ächlich":4637,"zeitig":4638,"IN":4639,"sogar":4640,"völker":4641,"Deshalb":4642,"persön":4643,"gemacht":4644,"Haushalts":4645,"nämlich":4646,"funktion":4647,"Son":4648,"UN":4649,"jeden":4650,"schrift":4651,"gute":4652,"ragen":4653,"entscheiden":4654,"Europas":4655,"leisten":4656,"bitte":4657,"ritten":4658,"okrat":4659,"laub":4660,"zunehmen":4661,"utet":4662,"Verfahren":4663,"Erfahr":4664,"Kur":4665,"ari":4666,"Bu":4667,"Rates":4668,"Entwicklungs":4669,"th":4670,"zü":4671,"roffen":4672,"fang":4673,"ücksich":4674,"einigen":4675,"ed":4676,"gerade":4677,"gebracht":4678,"Tats":4679,"Zugang":4680,"able":4681,"schwer":4682,"Tür":4683,"altung":4684,"teilen":4685,"Du":4686,"rechts":4687,"Geld":4688,"stre":4689,"Bus":4690,"To":4691,"Institu":4692,"trä":4693,"Schw":4694,"site":4695,"Service":4696,"Klima":4697,"Kap":4698,"verstän":4699,"Hotels":4700,"Eigen":4701,"Mal":4702,"Fil":4703,"ure":4704,"onds":4705,"Fir":4706,"Pal":4707,"Punkt":4708,"AN":4709,"stadt":4710,"schö":4711,"Weiter":4712,"aufge":4713,"okratie":4714,"amerik":4715,"rech":4716,"bef":4717,"km":4718,"dürfen":4719,"part":4720,"25":4721,"ihn":4722,"Organis":4723,"zeichnet":4724,"Verhand":4725,"Lan":4726,"lex":4727,"versch":4728,"greich":4729,"ebenfalls":4730,"Qualität":4731,"organis":4732,"mel":4733,"Ort":4734,"ativen":4735,"Datei":4736,"ihm":4737,"sionen":4738,"San":4739,"Ebene":4740,"seinem":4741,"orgen":4742,"verbunden":4743,"Zahl":4744,"Dieser":4745,"ckt":4746,"fast":4747,"istor":4748,"langen":4749,"Bezug":4750,"wesent":4751,"agement":4752,"Leist":4753,"itär":4754,"zig":4755,"Unsere":4756,"Jahres":4757,"Produktion":4758,"ichten":4759,"ehr":4760,"Nicht":4761,"ember":4762,"kung":4763,"herr":4764,"isches":4765,"Angeb":4766,"Wahl":4767,"hnt":4768,"itzen":4769,"Initi":4770,"ssel":4771,"unterstützt":4772,"igt":4773,"darin":4774,"arbeitet":4775,"brauchen":4776,"deutlich":4777,"Verkehr":4778,"nete":4779,"Aussprache":4780,"ober":4781,"port":4782,"inform":4783,"ysteme":4784,"Verbraucher":4785,"Indust":4786,"itt":4787,"Wirtschafts":4788,"Sel":4789,"att":4790,"künf":4791,"ip":4792,"lö":4793,"Rechte":4794,"Wach":4795,"angeb":4796,"gebung":4797,"Gesellschaft":4798,"kar":4799,"Bel":4800,"Mär":4801,"ator":4802,"prochen":4803,"nationalen":4804,"burg":4805,"Sozial":4806,"ame":4807,"denken":4808,"erklär":4809,"Abkommen":4810,"möglichen":4811,"cke":4812,"Abstimmung":4813,"vo":4814,"abge":4815,"Meer":4816,"sst":4817,"komple":4818,"tive":4819,"omati":4820,"Jahrhunder":4821,"glaube":4822,"nichts":4823,"beispiel":4824,"tran":4825,"fordern":4826,"Steuer":4827,"laden":4828,"anges":4829,"system":4830,"Hei":4831,"Beschäf":4832,"Nä":4833,"hotel":4834,"wiesen":4835,"meisten":4836,"ile":4837,"Verw":4838,"Wissen":4839,"Benutz":4840,"24":4841,"Groß":4842,"bare":4843,"ihrem":4844,"dit":4845,"rim":4846,"sollen":4847,"rieg":4848,"ct":4849,"eller":4850,"Mail":4851,"kurz":4852,"Gi":4853,"igkeiten":4854,"Tour":4855,"liches":4856,"gte":4857,"anderer":4858,"keinen":4859,"fa":4860,"freund":4861,"zusätz":4862,"Früh":4863,"utzt":4864,"umfassen":4865,"region":4866,"wenig":4867,"ren":4868,"CH":4869,"iere":4870,"Strategie":4871,"Buch":4872,"ächst":4873,"Instru":4874,"unkte":4875,"Hö":4876,"wirtschaftlichen":4877,"orien":4878,"Gra":4879,"gru":4880,"Industrie":4881,"Debat":4882,"weiterhin":4883,"tt":4884,"ES":4885,"speziel":4886,"tal":4887,"betrifft":4888,"2010":4889,"Gener":4890,"griff":4891,"immt":4892,"Dank":4893,"setzt":4894,"such":4895,"prof":4896,"haltung":4897,"priv":4898,"oto":4899,"Fortsch":4900,"stum":4901,"Frank":4902,"hlt":4903,"iff":4904,"geschlagen":4905,"oft":4906,"up":4907,"dige":4908,"ive":4909,"bas":4910,"Doku":4911,"standen":4912,"affen":4913,"zustellen":4914,"vert":4915,"neuer":4916,"seits":4917,"IS":4918,"verfahren":4919,"unst":4920,"Produkt":4921,"mals":4922,"Website":4923,"platz":4924,"Fischer":4925,"zehn":4926,"bedeutet":4927,"Is":4928,"notwendig":4929,"frist":4930,"by":4931,"öffentlich":4932,"besten":4933,"Netz":4934,"dest":4935,"würden":4936,"Sitz":4937,"Bezieh":4938,"unver":4939,"daten":4940,"interess":4941,"bekannt":4942,"solche":4943,"aufgrund":4944,"zeigen":4945,"Änderungsant":4946,"benö":4947,"IT":4948,"Raum":4949,"uni":4950,"wichtige":4951,"nutzen":4952,"gien":4953,"Plan":4954,"pfung":4955,"deshalb":4956,"dam":4957,"Ide":4958,"Außen":4959,"teilt":4960,"Stru":4961,"Bevölker":4962,"gliche":4963,"wahl":4964,"einger":4965,"kan":4966,"Ergebnis":4967,"greifen":4968,"Kolleg":4969,"fri":4970,"Standard":4971,"2008":4972,"spr":4973,"spruch":4974,"ay":4975,"ies":4976,"Ph":4977,"Bas":4978,"ession":4979,"eist":4980,"hörden":4981,"Förder":4982,"gehört":4983,"öst":4984,"Demokratie":4985,"Von":4986,"glob":4987,"Richtung":4988,"Menschenrechte":4989,"Insel":4990,"Verbesser":4991,"nächsten":4992,"kam":4993,"ium":4994,"Umsetzung":4995,"histor":4996,"fung":4997,"Struktur":4998,"ffung":4999,"Gol":5000,"Ansicht":5001,"ielt":5002,"sport":5003,"Far":5004,"Kat":5005,"gramme":5006,"genie":5007,"bleiben":5008,"verw":5009,"scht":5010,"ublik":5011,"bew":5012,"vent":5013,"Anwendung":5014,"eile":5015,"Prozess":5016,"allerdings":5017,"100":5018,"met":5019,"Luft":5020,"Entscheidung":5021,"Port":5022,"werde":5023,"ffizien":5024,"gesetz":5025,"All":5026,"beispielsweise":5027,"Ziele":5028,"Druck":5029,"Partei":5030,"schluss":5031,"dliche":5032,"Kunst":5033,"wirkungen":5034,"Besuch":5035,"Herren":5036,"iellen":5037,"Nähe":5038,"ib":5039,"fün":5040,"tur":5041,"hler":5042,"Bedingungen":5043,"enthalten":5044,"Verantwortung":5045,"Russ":5046,"gerung":5047,"Musik":5048,"tis":5049,"itäts":5050,"China":5051,"richtung":5052,"Uni":5053,"scheint":5054,"lation":5055,"jahr":5056,"Aktiv":5057,"gemeinsamen":5058,"kultur":5059,"lätze":5060,"hoffe":5061,"Tages":5062,"spezi":5063,"Verf":5064,"ranz":5065,"brei":5066,"oper":5067,"vielleicht":5068,"Auft":5069,"zin":5070,"lange":5071,"nimmt":5072,"Text":5073,"sozialen":5074,"Mitarbei":5075,"ert":5076,"Grundlage":5077,"Aspe":5078,"Wieder":5079,"gleichen":5080,"kor":5081,"El":5082,"Park":5083,"Erweiter":5084,"ww":5085,"rauen":5086,"Wert":5087,"Vorschläge":5088,"Dah":5089,"Interesse":5090,"gebie":5091,"Selbst":5092,"Reihe":5093,"verwendet":5094,"unternehmen":5095,"Gebiet":5096,"Frieden":5097,"zept":5098,"kleinen":5099,"Geschichte":5100,"verein":5101,"Einsatz":5102,"berücksich":5103,"bevor":5104,"tin":5105,"TO":5106,"Fern":5107,"Erfolg":5108,"Schul":5109,"spielen":5110,"erfül":5111,"merksam":5112,"go":5113,"ermöglich":5114,"bank":5115,"fordert":5116,"höch":5117,"CO":5118,"Arbeitsp":5119,"dio":5120,"erreicht":5121,"Angelegen":5122,"weder":5123,"betra":5124,"Konf":5125,"Investi":5126,"Institutionen":5127,"ings":5128,"Möglichkeiten":5129,"volle":5130,"tweit":5131,"Ihrem":5132,"ateg":5133,"Außer":5134,"Daher":5135,"Wort":5136,"tete":5137,"scher":5138,"Vort":5139,"könnten":5140,"ote":5141,"Version":5142,"schwier":5143,"Kön":5144,"reiche":5145,"dungs":5146,"ans":5147,"linien":5148,"folgt":5149,"disk":5150,"twor":5151,"Doch":5152,"Prä":5153,"ly":5154,"Sicherheits":5155,"nor":5156,"Debatte":5157,"gelten":5158,"Öff":5159,"sucht":5160,"allgem":5161,"bildung":5162,"Erklär":5163,"arbeitung":5164,"Sh":5165,"läss":5166,"Forschung":5167,"weiß":5168,"liefer":5169,"Blick":5170,"entwickelt":5171,"elegen":5172,"omit":5173,"istischen":5174,"On":5175,"40":5176,"ina":5177,"befinden":5178,"Damen":5179,"Nation":5180,"Hoch":5181,"Comp":5182,"folge":5183,"As":5184,"frü":5185,"rel":5186,"stellungen":5187,"amm":5188,"Mitglieder":5189,"erwä":5190,"hinder":5191,"Heraus":5192,"tats":5193,"Hinblick":5194,"Stim":5195,"vorsch":5196,"New":5197,"vorgeschlagen":5198,"Dienstleistungen":5199,"verschiedene":5200,"weltweit":5201,"Auswirkungen":5202,"mitteln":5203,"helfen":5204,"Posi":5205,"Kraft":5206,"AR":5207,"iken":5208,"Pak":5209,"wit":5210,"itten":5211,"ack":5212,"gemeinsame":5213,"konkre":5214,"strate":5215,"\",":5216,"Führ":5217,"kontr":5218,"Landes":5219,"Kommun":5220,"sitz":5221,"Priv":5222,"2007":5223,"Platz":5224,"Diskus":5225,"steuer":5226,"steller":5227,"hinzu":5228,"gab":5229,"einzi":5230,"mut":5231,"nungen":5232,"Einf":5233,"Minuten":5234,"hinter":5235,"verfügt":5236,"verl":5237,"terial":5238,"hatten":5239,"ermöglicht":5240,"letzt":5241,"II":5242,"stattet":5243,"AS":5244,"ende":5245,"Pe":5246,"Regionen":5247,"ruh":5248,"gestimmt":5249,"ebenso":5250,"jenigen":5251,"Tro":5252,"fünf":5253,"heim":5254,"Tatsache":5255,"2000":5256,"ielle":5257,"Th":5258,"Nie":5259,"gemessen":5260,"org":5261,"Änderungsantrag":5262,"tens":5263,"Interessen":5264,"eitung":5265,"tim":5266,"gesellschaft":5267,"bisher":5268,"Einzel":5269,"idu":5270,"Verhandlungen":5271,"abzu":5272,"Pla":5273,"pfen":5274,"präsen":5275,"Ad":5276,"App":5277,"schriften":5278,"erforderlich":5279,"Inte":5280,"isen":5281,"abel":5282,"Inn":5283,"Abgeordneten":5284,"bedeuten":5285,"Neu":5286,"Ausdruck":5287,"Russland":5288,"chsel":5289,"inge":5290,"digung":5291,"Agen":5292,"Wil":5293,"spricht":5294,"Ris":5295,"Innen":5296,"Familien":5297,"Restaurant":5298,"Fäl":5299,"äum":5300,"verantwort":5301,"Seit":5302,"bezü":5303,"Frühstück":5304,"Schritt":5305,"gest":5306,"gesamten":5307,"rimin":5308,"Ru":5309,"Tele":5310,"erhö":5311,"aner":5312,"Dial":5313,"erhe":5314,"inte":5315,"Kenn":5316,"Staats":5317,"räsidenten":5318,"später":5319,"Pr":5320,"Liste":5321,"hung":5322,"bahn":5323,"ländern":5324,"darum":5325,"Binnen":5326,"fon":5327,"einzelnen":5328,"fik":5329,"Türk":5330,"chs":5331,"krä":5332,"Wind":5333,"Gruppe":5334,"60":5335,"denke":5336,"för":5337,"amp":5338,"stu":5339,"dell":5340,"bür":5341,"Prof":5342,"Vertre":5343,"verur":5344,"reisen":5345,"Kolleginnen":5346,"Haushalt":5347,"fs":5348,"tliche":5349,"weiteren":5350,"internationale":5351,"Werk":5352,"Gl":5353,"Sc":5354,"formen":5355,"Chr":5356,"barkeit":5357,"Char":5358,"Vereinigten":5359,"Außerdem":5360,"hätte":5361,"nern":5362,"Bevölkerung":5363,"fähigkeit":5364,"auber":5365,"stelle":5366,"Univers":5367,"gestal":5368,"angenommen":5369,"Bereichen":5370,"Antwort":5371,"empf":5372,"kür":5373,"kämpfung":5374,"wachsen":5375,"wendung":5376,"Nor":5377,"erfolgreich":5378,"Änderungsanträge":5379,"lässt":5380,"länder":5381,"sour":5382,"Internation":5383,"usst":5384,"ers":5385,"ban":5386,"neben":5387,"Beziehungen":5388,"jedem":5389,"Zentrum":5390,"ändert":5391,"RO":5392,"konnte":5393,"Gelegen":5394,"isse":5395,"richtig":5396,"gegenwär":5397,"har":5398,"Terror":5399,"flä":5400,"80":5401,"gu":5402,"Verordnung":5403,"reiben":5404,"Zum":5405,"rem":5406,"Krise":5407,"tiges":5408,"gleichzeitig":5409,"höher":5410,"rund":5411,"sicherheit":5412,"inne":5413,"prak":5414,"ordin":5415,"Vide":5416,"Staat":5417,"würdig":5418,"gesp":5419,"leistet":5420,"heißt":5421,"Regel":5422,"anten":5423,"haft":5424,"ches":5425,"Verbindung":5426,"Erweiterung":5427,"gemäß":5428,"komp":5429,"Ka":5430,"Türkei":5431,"Aben":5432,"örper":5433,"Team":5434,"zeugen":5435,"ände":5436,"wichtigen":5437,"Fischerei":5438,"Sport":5439,"Fuß":5440,"ont":5441,"Auff":5442,"Chan":5443,"ci":5444,"zah":5445,"Themen":5446,"Prin":5447,"automati":5448,"lok":5449,"assi":5450,"Förderung":5451,"handlung":5452,"erzie":5453,"Dialog":5454,"Kampf":5455,"Fr":5456,"23":5457,"Reise":5458,"jede":5459,"prom":5460,"Verpflich":5461,"Ital":5462,"Aufgabe":5463,"wider":5464,"iges":5465,"Kontrolle":5466,"Pri":5467,"verständlich":5468,"Entschließung":5469,"Beitrag":5470,"aly":5471,"Wettbewerbs":5472,"amt":5473,"nahe":5474,"bekommen":5475,"unabhäng":5476,"\".":5477,"abilität":5478,"Kop":5479,"richtungen":5480,"schön":5481,"abon":5482,"lose":5483,"bleibt":5484,"kleine":5485,"Lo":5486,"mein":5487,"handeln":5488,"Prot":5489,"Rom":5490,"äd":5491,"einzig":5492,"meinen":5493,"wirtschaftliche":5494,"Handels":5495,"Bahn":5496,"Ster":5497,"AG":5498,"Ra":5499,"Sen":5500,"treffen":5501,"ranzös":5502,"IP":5503,"Schlussel":5504,"Wachstum":5505,"gangenen":5506,"unseres":5507,"alter":5508,"inst":5509,"rop":5510,"Folgen":5511,"Ausschusses":5512,"wunder":5513,"bedingungen":5514,"rael":5515,"iden":5516,"heu":5517,"ersch":5518,"fl":5519,"Macht":5520,"jedes":5521,"ktive":5522,"ana":5523,"sieht":5524,"anische":5525,"gesamt":5526,"licken":5527,"Mitarbeiter":5528,"hohe":5529,"menten":5530,"stark":5531,"Kor":5532,"mie":5533,"richten":5534,"Veran":5535,"gefähr":5536,"Behörden":5537,"hungen":5538,"Frankreich":5539,"sage":5540,"ix":5541,"Volk":5542,"2006":5543,"prüfen":5544,"Amer":5545,"erweise":5546,"vis":5547,"zess":5548,"yl":5549,"schle":5550,"berech":5551,"hafen":5552,"unsch":5553,"Nutzung":5554,"Kir":5555,"Beg":5556,"za":5557,"ales":5558,"stag":5559,"dauer":5560,"stärker":5561,"Jan":5562,"sorgen":5563,"Som":5564,"nachhal":5565,"ließ":5566,"ziert":5567,"Lösungen":5568,"21":5569,"own":5570,"heraus":5571,"Hol":5572,"Augen":5573,"Benutzer":5574,"Design":5575,"uen":5576,"wichtigsten":5577,"fonds":5578,"regel":5579,"vol":5580,"onnen":5581,"Nord":5582,"AL":5583,"ino":5584,"pfer":5585,"stimmungen":5586,"hinsichtlich":5587,"atten":5588,"bi":5589,"ette":5590,"Cl":5591,"Damit":5592,"Schu":5593,"akzep":5594,"wobei":5595,"zlich":5596,"deu":5597,"mil":5598,"betreffen":5599,"minister":5600,"bald":5601,"Medi":5602,"Forder":5603,"Span":5604,"enthalt":5605,"irgend":5606,"garan":5607,"Verbesserung":5608,"nissen":5609,"haup":5610,"Tä":5611,"Liss":5612,"mehrere":5613,"Car":5614,"gerne":5615,"Lissabon":5616,"gelt":5617,"aufzu":5618,"Stunden":5619,"stoff":5620,"Notwendig":5621,"Bitte":5622,"Juni":5623,"entwickeln":5624,"trotz":5625,"itel":5626,"Wochen":5627,"cker":5628,"wenden":5629,"angemessen":5630,"ermöglichen":5631,"bezüglich":5632,"wünschen":5633,"mu":5634,"Berlin":5635,"eigene":5636,"Tr":5637,"ganzen":5638,"tradition":5639,"fahrt":5640,"Strand":5641,"Auswahl":5642,"Arch":5643,"spräsident":5644,"teile":5645,"Ban":5646,"derzeit":5647,"Go":5648,"Aktion":5649,"log":5650,"ganze":5651,"Gast":5652,"publik":5653,"Air":5654,"Angebot":5655,"öhn":5656,"Zur":5657,"vern":5658,"Flü":5659,"seite":5660,"enthält":5661,"ledig":5662,"genannten":5663,"Kern":5664,"splan":5665,"läu":5666,"Fehler":5667,"Binnenmarkt":5668,"chter":5669,"Vis":5670,"Koh":5671,"ufig":5672,"Pra":5673,"belie":5674,"Bro":5675,"Gewalt":5676,"brigen":5677,"Anfang":5678,"Integra":5679,"ulti":5680,"Krieg":5681,"enten":5682,"Schaffung":5683,"Volks":5684,"geeig":5685,"Konferenz":5686,"Wohn":5687,"Fach":5688,"pfel":5689,"iten":5690,"oppel":5691,"fördern":5692,"Arbeitnehmer":5693,"isierung":5694,"Bal":5695,"Nov":5696,"integr":5697,"Gelegenheit":5698,"kraft":5699,"ät":5700,"erlau":5701,"Liefer":5702,"dienst":5703,"Lauf":5704,"hoben":5705,"rachten":5706,"verpflich":5707,"fallen":5708,"hne":5709,"sätze":5710,"Italien":5711,"tiven":5712,"völlig":5713,"buch":5714,"Ergebnisse":5715,"äst":5716,"verbessern":5717,"schließend":5718,"häre":5719,"Ober":5720,"Regierungen":5721,"grundlegen":5722,"Ferien":5723,"teten":5724,"Darüber":5725,"zeugt":5726,"akter":5727,"Notwendigkeit":5728,"zt":5729,"ähn":5730,"Reform":5731,"person":5732,"schl":5733,"Verwendung":5734,"ail":5735,"vorschriften":5736,"with":5737,"Tage":5738,"Information":5739,"Har":5740,"dürf":5741,"Prior":5742,"gefunden":5743,"Gebäu":5744,"günst":5745,"indiv":5746,"Voraus":5747,"soziale":5748,"EL":5749,"room":5750,"Tex":5751,"individu":5752,"zogen":5753,"großer":5754,"verwenden":5755,"Ter":5756,"größten":5757,"vention":5758,"Woche":5759,"Landwirtschaft":5760,"gessen":5761,"pen":5762,"stie":5763,"AT":5764,"See":5765,"gehören":5766,"König":5767,"elekt":5768,"ohn":5769,"ular":5770,"CD":5771,"22":5772,"vollen":5773,"verfügen":5774,"mäßig":5775,"chan":5776,"klus":5777,"eilen":5778,"Herzen":5779,"Zeitpunkt":5780,"effe":5781,"sourcen":5782,"guten":5783,"int":5784,"hilfe":5785,"maßnahmen":5786,"Wahr":5787,"gesprochen":5788,"dienen":5789,"Les":5790,"bestä":5791,"Zwe":5792,"mobil":5793,"iko":5794,"tie":5795,"verstär":5796,"undes":5797,"grenz":5798,"verfüg":5799,"wissenschaft":5800,"samm":5801,"Adr":5802,"feld":5803,"tatsächlich":5804,"ummer":5805,"Män":5806,"disku":5807,"Maß":5808,"Familie":5809,"gül":5810,"Online":5811,"licht":5812,"sphäre":5813,"Überein":5814,"Beschäftigung":5815,"ucht":5816,"bein":5817,"spezif":5818,"mb":5819,"ausen":5820,"hindern":5821,"Konfli":5822,"Schwei":5823,"riften":5824,"schul":5825,"Sal":5826,"gesamte":5827,"Änderungen":5828,"tter":5829,"Mai":5830,"zunächst":5831,"meinem":5832,"leb":5833,"Jugend":5834,"wählen":5835,"Nieder":5836,"serv":5837,"schieden":5838,"freien":5839,"Während":5840,"ante":5841,"vorhan":5842,"passen":5843,"Hinter":5844,"wander":5845,"Erfahrung":5846,"Sep":5847,"programm":5848,"very":5849,"wesen":5850,"dischen":5851,"ness":5852,"schinen":5853,"Mehrheit":5854,"haupt":5855,"Sommer":5856,"Vertrags":5857,"neut":5858,"Sto":5859,"Einführung":5860,"eindeu":5861,"stitution":5862,"Integration":5863,"bauen":5864,"kü":5865,"ernst":5866,"uren":5867,"Bank":5868,"Wein":5869,"uchen":5870,"sektor":5871,"istische":5872,"2005":5873,"Neben":5874,"absol":5875,"ausschuss":5876,"Zw":5877,"last":5878,"70":5879,"vertreten":5880,"nö":5881,"verstehen":5882,"Umgebung":5883,"Bl":5884,"schriftlich":5885,"kri":5886,"medi":5887,"lüssel":5888,"dro":5889,"text":5890,"Vereinbar":5891,"Technologie":5892,"öffnet":5893,"Öffent":5894,"Stellung":5895,"ehm":5896,"lediglich":5897,"dat":5898,"Dabei":5899,"frieden":5900,"AD":5901,"pass":5902,"hren":5903,"Kommunik":5904,"gener":5905,"erkennen":5906,"hohen":5907,"ott":5908,"effizien":5909,"idar":5910,"artige":5911,"Anzahl":5912,"äußerst":5913,"nü":5914,"preis":5915,"okoll":5916,"bezogen":5917,"Wettbewerb":5918,"xis":5919,"stalt":5920,"Initiative":5921,"bestimmte":5922,"Höhe":5923,"berg":5924,"span":5925,"defin":5926,"Aktivitäten":5927,"beschäf":5928,"tifiz":5929,"gewährleisten":5930,"Informations":5931,"obwohl":5932,"Schl":5933,"somit":5934,"hören":5935,"graf":5936,"dringen":5937,"ux":5938,"bringt":5939,"ständigen":5940,"Sprache":5941,"TV":5942,"flü":5943,"versuchen":5944,"AP":5945,"pfeh":5946,"Computer":5947,"Sicht":5948,"Dez":5949,"vorher":5950,"entde":5951,"schätz":5952,"istr":5953,"nä":5954,"uar":5955,"peten":5956,"ds":5957,"ows":5958,"Position":5959,"Bekämpfung":5960,"tember":5961,"Eng":5962,"Medien":5963,"maß":5964,"einschließlich":5965,"berü":5966,"Innov":5967,"Metho":5968,"Sor":5969,"Jahrhundert":5970,"Gruppen":5971,"tien":5972,"erheb":5973,"ance":5974,"Diskussion":5975,"Programme":5976,"setzungen":5977,"bestimmten":5978,"cl":5979,"antwor":5980,"Präsidentschaft":5981,"Komprom":5982,"stei":5983,"ritts":5984,"Auto":5985,"Freiheit":5986,"orf":5987,"notwen":5988,"seiten":5989,"Flughafen":5990,"September":5991,"bl":5992,"erster":5993,"illa":5994,"zweite":5995,"Standpunkt":5996,"gelung":5997,"Dinge":5998,"bien":5999,"2004":6000,"beru":6001,"Fortschritte":6002,"ausgestattet":6003,"Che":6004,"Tat":6005,"französ":6006,"fal":6007,"indust":6008,"Bemü":6009,"Kommissarin":6010,"Erachten":6011,"aufgenommen":6012,"Kr":6013,"meines":6014,"Erachtens":6015,"möglichkeiten":6016,"Basis":6017,"Verkehrs":6018,"leider":6019,"vorzu":6020,"vorliegen":6021,"dient":6022,"Stre":6023,"Muse":6024,"woll":6025,"pre":6026,"legung":6027,"gert":6028,"''":6029,"erweiter":6030,"Stil":6031,"zahlreiche":6032,"Bestimmungen":6033,"deten":6034,"out":6035,"Kontakt":6036,"jün":6037,"zeuge":6038,"Preise":6039,"wurf":6040,"orn":6041,"vorgesehen":6042,"hältnis":6043,"ON":6044,"sagte":6045,"Dezember":6046,"Agr":6047,"sprün":6048,"lexi":6049,"erhält":6050,"leitet":6051,"Mot":6052,"EG":6053,"sitzen":6054,"ehe":6055,"Erklärung":6056,"Film":6057,"früher":6058,"Punkte":6059,"198":6060,"page":6061,"losen":6062,"vel":6063,"einheit":6064,"mann":6065,"solchen":6066,"Gefahr":6067,"kennen":6068,"nommen":6069,"stände":6070,"Amerik":6071,"Fa":6072,"schnitt":6073,"Ak":6074,"Juli":6075,"betroffen":6076,"außerdem":6077,"oben":6078,"Berg":6079,"Vertrauen":6080,"DE":6081,"Bildung":6082,"Personal":6083,"gewä":6084,"dadurch":6085,"cel":6086,"Stelle":6087,"Okt":6088,"gehend":6089,"zäh":6090,"Gu":6091,"pla":6092,"wäl":6093,"ration":6094,"Süd":6095,"Nur":6096,"Politi":6097,"zweiten":6098,"insgesamt":6099,"ausreichen":6100,"alte":6101,"reibung":6102,"Sub":6103,"streng":6104,"einzige":6105,"vollständig":6106,"Ansatz":6107,"Dr":6108,"Mer":6109,"Aufmerksam":6110,"ona":6111,"2003":6112,"berühm":6113,"vergangenen":6114,"Gesamt":6115,"mm":6116,"ight":6117,"Log":6118,"Vorschriften":6119,"Komp":6120,"Investitionen":6121,"ützen":6122,"Entscheidungen":6123,"Prü":6124,"Wel":6125,"Server":6126,"gebaut":6127,"leiten":6128,"stellten":6129,"lige":6130,"industrie":6131,"Minister":6132,"tensi":6133,"lösen":6134,"Schn":6135,"Alt":6136,"morgen":6137,"nehm":6138,"Aufmerksamkeit":6139,"wirksam":6140,"dnis":6141,"konzentr":6142,"Präsidenten":6143,"iew":6144,"27":6145,"ategorien":6146,"National":6147,"ären":6148,"ologien":6149,"abkommen":6150,"Engl":6151,"zung":6152,"Anforderungen":6153,"Transpar":6154,"erfahren":6155,"Stat":6156,"Apart":6157,"lock":6158,"testen":6159,"Prinzip":6160,"März":6161,"Grenzen":6162,"rang":6163,"Material":6164,"wirken":6165,"bewertungen":6166,"verkauf":6167,"Unternehmens":6168,"ines":6169,"Küche":6170,"uman":6171,"Dire":6172,"genießen":6173,"glück":6174,"Stär":6175,"jewei":6176,"astrop":6177,"proble":6178,"gerecht":6179,"Ir":6180,"Projekte":6181,"sonst":6182,"pol":6183,"utter":6184,"keiner":6185,"wand":6186,"cu":6187,"Bilder":6188,"ld":6189,"Gesundheits":6190,"falt":6191,"Test":6192,"alisiert":6193,"Agrar":6194,"allein":6195,"Berichts":6196,"Öffentlichkeit":6197,"ba":6198,"Straßen":6199,"Tem":6200,"arch":6201,"Gemeinschafts":6202,"Protokoll":6203,"lös":6204,"Cas":6205,"fach":6206,"Arbei":6207,"Wider":6208,"eigentlich":6209,"mand":6210,"häufig":6211,"Bereiche":6212,"Ac":6213,"ierter":6214,"schau":6215,"Dokument":6216,"ählen":6217,"Transparenz":6218,"mensch":6219,"folgenden":6220,"Sektor":6221,"Privat":6222,"Ca":6223,"Oktober":6224,"Nationen":6225,"sprü":6226,"kennt":6227,"Anfrage":6228,"Regeln":6229,"Wirk":6230,"typ":6231,"sprach":6232,"erwarten":6233,"konnten":6234,"Gästebewertungen":6235,"sinn":6236,"tierung":6237,"riterien":6238,"eingesetzt":6239,"Urlaub":6240,"Solidar":6241,"stein":6242,"agen":6243,"Ratspräsident":6244,"Januar":6245,"wichtiger":6246,"Tagesordnung":6247,"how":6248,"Dis":6249,"2001":6250,"sprozess":6251,"steigen":6252,"Pa":6253,"anlage":6254,"angesichts":6255,"Spanien":6256,"wenige":6257,"mittler":6258,"kleiner":6259,"Inst":6260,"Liber":6261,"beste":6262,"aktuellen":6263,"größte":6264,"üb":6265,"Vertreter":6266,"Untersuch":6267,"SE":6268,"tzen":6269,"geber":6270,"90":6271,"griffen":6272,"Israel":6273,"Gel":6274,"ihres":6275,"Bundes":6276,"Analy":6277,"ime":6278,"“,":6279,"Veränder":6280,"unmittel":6281,"Aller":6282,"Foto":6283,"durchgeführt":6284,"Prozent":6285,"wasser":6286,"schu":6287,"Linie":6288,"beziehen":6289,"lesen":6290,"Schwier":6291,"Zun":6292,"est":6293,"heben":6294,"Lebensmittel":6295,"getan":6296,"Do":6297,"europäischer":6298,"kat":6299,"Empfeh":6300,"perfe":6301,"Auftrag":6302,"Aufenthalt":6303,"benötigen":6304,"laufen":6305,"Mark":6306,"Firma":6307,"Sinne":6308,"Meine":6309,"ktiven":6310,"geworden":6311,"Republik":6312,"dete":6313,"Gründen":6314,"lichkeiten":6315,"Hins":6316,"Mobil":6317,"kontroll":6318,"Hinsicht":6319,"eher":6320,"geschä":6321,"ierenden":6322,"West":6323,"öffentliche":6324,"optim":6325,"räum":6326,"Ressourcen":6327,"langfrist":6328,"ps":6329,"Glob":6330,"geschaffen":6331,"unk":6332,"mbH":6333,"Nr":6334,"erneut":6335,"schä":6336,"bilden":6337,"ursprün":6338,"Milliar":6339,"ton":6340,"dank":6341,"drücklich":6342,"Kennt":6343,"RE":6344,"danke":6345,"Gipfel":6346,"sh":6347,"Bedürf":6348,"Armut":6349,"Bemühungen":6350,"Ren":6351,"Star":6352,"kannst":6353,"mag":6354,"zeichnung":6355,"Auffassung":6356,"sur":6357,"Rede":6358,"rauch":6359,"Afri":6360,"paar":6361,"veröffentlich":6362,"reig":6363,"beteil":6364,"Städ":6365,"Heute":6366,"scheinlich":6367,"una":6368,"Tur":6369,"frastruktur":6370,"Sache":6371,"Ereig":6372,"werte":6373,"Qual":6374,"service":6375,"diejenigen":6376,"mosphäre":6377,"west":6378,"kunden":6379,"übrigen":6380,"beitragen":6381,"eister":6382,"sofort":6383,"Aufgaben":6384,"Bewer":6385,"erv":6386,"zeichnen":6387,"zahlen":6388,"tag":6389,"hafte":6390,"Pan":6391,"ama":6392,"fo":6393,"mat":6394,"Änderung":6395,"OS":6396,"Folge":6397,"stieg":6398,"Betrieb":6399,"Organisation":6400,"gemeinschaft":6401,"gangs":6402,"alismus":6403,"Nachbar":6404,"PC":6405,"2002":6406,"wortern":6407,"Rech":6408,"bewusst":6409,"IC":6410,"kra":6411,"Vertei":6412,"Beteil":6413,"Völ":6414,"Stabilität":6415,"GmbH":6416,"lernen":6417,"Apr":6418,"vergessen":6419,"Video":6420,"Wohl":6421,"Windows":6422,"begrüße":6423,"reib":6424,"Fällen":6425,"entsprechenden":6426,"Zentral":6427,"zuführen":6428,"Unterschie":6429,"Tre":6430,"schönen":6431,"dner":6432,"wechsel":6433,"veran":6434,"beschrän":6435,"demokratischen":6436,"auern":6437,"install":6438,"umen":6439,"Behandlung":6440,"tlichen":6441,"verhindern":6442,"wort":6443,"gewesen":6444,"ständige":6445,"eicher":6446,"Bereit":6447,"fühl":6448,"Sitzung":6449,"verstanden":6450,"Werte":6451,"behalten":6452,"fter":6453,"Monaten":6454,"cks":6455,"Wunsch":6456,"sequ":6457,"iveau":6458,"bedingt":6459,"behandelt":6460,"Bü":6461,"igh":6462,"hätten":6463,"institution":6464,"dri":6465,"offiz":6466,"indest":6467,"Schlusselwortern":6468,"kannt":6469,"wandel":6470,"Kredit":6471,"Bürgern":6472,"Spa":6473,"anders":6474,"riebs":6475,"Finanzierung":6476,"va":6477,"ologischen":6478,"wil":6479,"Dritt":6480,"Ziv":6481,"züg":6482,"Exper":6483,"Rel":6484,"belieb":6485,"Bad":6486,"best":6487,"gruppe":6488,"berücksichtigt":6489,"Home":6490,"spannen":6491,"bezieh":6492,"26":6493,"not":6494,"ausgezeich":6495,"gst":6496,"unten":6497,"ollar":6498,"mark":6499,"Dateien":6500,"sichern":6501,"tigungs":6502,"Spieler":6503,"November":6504,"Grö":6505,"Natürlich":6506,"chem":6507,"förder":6508,"anderem":6509,"Koordin":6510,"ces":6511,"Tagen":6512,"Vergangen":6513,"Gebäude":6514,"ku":6515,"igur":6516,"Modell":6517,"Schließ":6518,"tiver":6519,"versucht":6520,"sü":6521,"Trans":6522,"ging":6523,"500":6524,"gewiesen":6525,"ellschaften":6526,"weist":6527,"technischen":6528,"Wissenschaft":6529,"sorg":6530,"senden":6531,"Inhalt":6532,"stehenden":6533,"losigkeit":6534,"kommun":6535,"Fäh":6536,"erfolgt":6537,"strateg":6538,"Beginn":6539,"ID":6540,"Doppel":6541,"Bürgerinnen":6542,"zieren":6543,"Telefon":6544,"Minder":6545,"xim":6546,"begrüßen":6547,"warum":6548,"zufrieden":6549,"zieht":6550,"richtige":6551,"istan":6552,"Nacht":6553,"Atmosphäre":6554,"Brü":6555,"see":6556,"bemü":6557,"braucht":6558,"rück":6559,"äte":6560,"tritt":6561,"Bot":6562,"Erfahrungen":6563,"schung":6564,"innern":6565,"April":6566,"sechs":6567,"nungs":6568,"sorgung":6569,"standard":6570,"Restaurants":6571,"sent":6572,"Golf":6573,"modernen":6574,"legten":6575,"staltung":6576,"ution":6577,"Gerichts":6578,"überhaupt":6579,"deutschen":6580,"erfüllen":6581,"geschrieben":6582,"vereinbar":6583,"fügen":6584,"historischen":6585,"Verfassung":6586,"28":6587,"etc":6588,"stausch":6589,"verantwortlich":6590,"beträ":6591,"EUR":6592,"Vergangenheit":6593,"wind":6594,"gruppen":6595,"erklärt":6596,"Up":6597,"usw":6598,"bra":6599,"Rechtsvorschriften":6600,"Terrorismus":6601,"ynam":6602,"Kn":6603,"Det":6604,"Tab":6605,"führte":6606,"angeboten":6607,"Körper":6608,"mögen":6609,"Lehr":6610,"moderne":6611,"redu":6612,"Firmen":6613,"Dollar":6614,"bol":6615,"achtet":6616,"ünf":6617,"wahrscheinlich":6618,"säm":6619,"Praxis":6620,"Sym":6621,"Paris":6622,"ffer":6623,"aren":6624,"getroffen":6625,"intensi":6626,"schützen":6627,"sigen":6628,"zahlreichen":6629,"tu":6630,"yr":6631,"Jap":6632,"Pap":6633,"zumindest":6634,"weiten":6635,"hervorragen":6636,"Cor":6637,"konom":6638,"izi":6639,"Instal":6640,"zusetzen":6641,"Aspekte":6642,"Parteien":6643,"italien":6644,"Zivil":6645,"Lassen":6646,"stellte":6647,"Viele":6648,"Öst":6649,"user":6650,"welches":6651,"amerikanischen":6652,"uner":6653,"sagt":6654,"holen":6655,"othe":6656,"seines":6657,"Zeichen":6658,"verz":6659,"svor":6660,"ong":6661,"jeweiligen":6662,"neues":6663,"Opfer":6664,"Garten":6665,"jem":6666,"Sonder":6667,"erwartet":6668,"Hä":6669,"kap":6670,"innov":6671,"Mann":6672,"Beruf":6673,"Fer":6674,"verpflichtet":6675,"til":6676,"vic":6677,"Leit":6678,"Ost":6679,"entsprechend":6680,"Zweitens":6681,"Systems":6682,"schlag":6683,"befür":6684,"OR":6685,"Milliarden":6686,"politisch":6687,"Winter":6688,"karte":6689,"Grie":6690,"außerhalb":6691,"orie":6692,"Schritte":6693,"endlich":6694,"Rea":6695,"pag":6696,"bre":6697,"fläche":6698,"gekommen":6699,"beginnen":6700,"länger":6701,"hle":6702,"Krank":6703,"Bestand":6704,"stets":6705,"iness":6706,"ano":6707,"Sterne":6708,"Instrument":6709,"fällt":6710,"Herausforderungen":6711,"erstör":6712,"yer":6713,"bus":6714,"www":6715,"Schlüssel":6716,"Besonder":6717,"Adresse":6718,"Agentur":6719,"genug":6720,"tist":6721,"verab":6722,"exist":6723,"barer":6724,"Fisch":6725,"hilfen":6726,"chtung":6727,"ison":6728,"heutigen":6729,"Schwer":6730,"Sam":6731,"verurs":6732,"Vergleich":6733,"win":6734,"komfort":6735,"fu":6736,"ters":6737,"Angelegenheiten":6738,"Spezial":6739,"vorhanden":6740,"AM":6741,"Angelegenheit":6742,"Berichterstatterin":6743,"Schwierigkeiten":6744,"rägen":6745,"Kri":6746,"Verwaltung":6747,"bessere":6748,"from":6749,"Schla":6750,"General":6751,"kämpfen":6752,"automatisch":6753,"Dazu":6754,"letzte":6755,"Gesprä":6756,"fil":6757,"tage":6758,"Rot":6759,"zeiten":6760,"persönlichen":6761,"privaten":6762,"Menschenrechts":6763,"Dan":6764,"ausschließlich":6765,"IM":6766,"Allerdings":6767,"ownlo":6768,"fur":6769,"dra":6770,"graph":6771,"genutzt":6772,"igin":6773,"getragen":6774,"iö":6775,"Einige":6776,"Lux":6777,"erlaubt":6778,"Solidarität":6779,"Annahme":6780,"enze":6781,"Post":6782,"matisch":6783,"dre":6784,"selben":6785,"erinnern":6786,"AC":6787,"1999":6788,"Management":6789,"Don":6790,"ses":6791,"Obje":6792,"Forschungs":6793,"erkennung":6794,"forderung":6795,"Obwohl":6796,"Archite":6797,"Ander":6798,"Stellen":6799,"gerungen":6800,"reicht":6801,"35":6802,"Regierungs":6803,"Berat":6804,"illeg":6805,"mor":6806,"jüng":6807,"van":6808,"natür":6809,"Einrichtung":6810,"Sign":6811,"Aug":6812,"fälle":6813,"Anti":6814,"ehemal":6815,"Christ":6816,"Öl":6817,"zukünf":6818,"elektron":6819,"Denn":6820,"Nun":6821,"here":6822,"Eigent":6823,"komplex":6824,"Dann":6825,"Club":6826,"fangen":6827,"uern":6828,"Arbeitsplätze":6829,"übernehmen":6830,"schöne":6831,"eingesch":6832,"entgegen":6833,"Einfluss":6834,"allgemeinen":6835,"eicht":6836,"Künst":6837,"äre":6838,"arte":6839,"gewöhn":6840,"29":6841,"mitten":6842,"modern":6843,"dische":6844,"entwickel":6845,"indungen":6846,"Fot":6847,"ala":6848,"Kauf":6849,"EC":6850,"enor":6851,"digt":6852,"don":6853,"strengungen":6854,"Ihres":6855,"anti":6856,"altungs":6857,"Soll":6858,"mär":6859,"begrenz":6860,"Transport":6861,"Ja":6862,"schreiten":6863,"Tier":6864,"ya":6865,"schreiben":6866,"beide":6867,"haften":6868,"Trotz":6869,"Organisationen":6870,"Get":6871,"Fel":6872,"you":6873,"Mittelme":6874,"zudem":6875,"ützt":6876,"bitten":6877,"Österreich":6878,"vermei":6879,"dis":6880,"agieren":6881,"prüft":6882,"ständen":6883,"chtet":6884,"Bis":6885,"militär":6886,"darstellt":6887,"hens":6888,"beein":6889,"Bade":6890,"Hoff":6891,"Verhalten":6892,"freie":6893,"Waren":6894,"Produkten":6895,"Verkauf":6896,"Schiff":6897,"etten":6898,"ball":6899,"kaum":6900,"berei":6901,"zeugung":6902,"gebiet":6903,"lass":6904,"tigten":6905,"ologische":6906,"destens":6907,"Erstens":6908,"rad":6909,"weite":6910,"Mün":6911,"ites":6912,"ET":6913,"low":6914,"Verpflichtungen":6915,"mach":6916,"Antrag":6917,"stoffe":6918,"Griechen":6919,"dringend":6920,".)":6921,"voraus":6922,"ystemen":6923,"ST":6924,"eindeutig":6925,"Falle":6926,"ulieren":6927,"Leute":6928,"größere":6929,"Falls":6930,"Bur":6931,"konstru":6932,"bedarf":6933,"Systeme":6934,"Ausschuß":6935,"fän":6936,"Überwach":6937,"invest":6938,"führten":6939,"Ist":6940,"nachten":6941,"view":6942,"deine":6943,"ake":6944,"Dom":6945,"lebt":6946,"ftung":6947,"Infrastruktur":6948,"Anstrengungen":6949,"profession":6950,"Klein":6951,"anal":6952,"nationale":6953,"mitte":6954,"Detail":6955,"innt":6956,"Kriterien":6957,"45":6958,"langt":6959,"verkehrs":6960,"Ins":6961,"mentar":6962,"Nutzen":6963,"Zustimmung":6964,"Banken":6965,"freuen":6966,"Dro":6967,"Waffen":6968,"Nachfol":6969,"Tätigkeit":6970,"netz":6971,"ckung":6972,"Völker":6973,"Wahlen":6974,"Licht":6975,"benutzt":6976,"Site":6977,"globalen":6978,"sprogramm":6979,"Kommunikation":6980,"Hause":6981,"Eind":6982,"Karte":6983,"stren":6984,"zusätzliche":6985,"enter":6986,"Vereinbarung":6987,"bild":6988,"Anerkennung":6989,"Idee":6990,"Erd":6991,"Charakter":6992,"Ausgaben":6993,"pal":6994,"Hel":6995,"ierende":6996,"entspricht":6997,"Ausbildung":6998,"beschlossen":6999,"umfan":7000,"eingehen":7001,"uell":7002,"unbedingt":7003,"Altern":7004,"ausger":7005,"ufen":7006,"Osten":7007,"park":7008,"bian":7009,"aktuelle":7010,"kel":7011,"genannt":7012,"bürger":7013,"iens":7014,"loc":7015,"überzeugt":7016,"mindestens":7017,"Zwischen":7018,"glauben":7019,"Termin":7020,"Fran":7021,"itieren":7022,"Mor":7023,"Funktionen":7024,"Reformen":7025,"Mitgliedstaat":7026,"197":7027,"Boden":7028,"bele":7029,"akte":7030,"russ":7031,"kategorien":7032,"roso":7033,"besitz":7034,"Entschließungs":7035,"Konflikt":7036,"selbstverständlich":7037,"wesentlich":7038,"Pati":7039,"sichten":7040,"vorgelegt":7041,"stri":7042,"Empf":7043,"sofern":7044,"tain":7045,"Hostel":7046,"extre":7047,"Glück":7048,"Holz":7049,"Mitte":7050,"gründet":7051,"gezeigt":7052,"berücksichtigen":7053,"stimme":7054,"Währung":7055,"bru":7056,"spiele":7057,"unterschiedlichen":7058,"ästinen":7059,"Indi":7060,"Wa":7061,"Immobil":7062,"Durchführung":7063,"Veranstalt":7064,"Elekt":7065,"Hal":7066,"app":7067,"pool":7068,"Ze":7069,"leichter":7070,"bad":7071,"Aufnahme":7072,"Vorteile":7073,"spann":7074,"Hintergrund":7075,"pft":7076,"erwähnt":7077,"Irak":7078,"Richtlinien":7079,"Technologien":7080,"nachdem":7081,"entschieden":7082,"spart":7083,"spunkt":7084,"stattung":7085,"Wann":7086,"lern":7087,"izei":7088,"oss":7089,"mitglie":7090,"hinweisen":7091,"Ba":7092,"gten":7093,"Inhalte":7094,"human":7095,"Abschluss":7096,"chines":7097,"Netzwerk":7098,"Leistungs":7099,"Lond":7100,"hy":7101,"gehalten":7102,"Sprachen":7103,"angegeben":7104,"anzen":7105,"schlossen":7106,"brit":7107,"Fakt":7108,"kund":7109,"mes":7110,"verfügbar":7111,"Mitteilung":7112,"mehreren":7113,"zentrum":7114,"online":7115,"Anspruch":7116,"Organ":7117,"une":7118,"schine":7119,"herunter":7120,"entsprechende":7121,"ssystem":7122,"Kooper":7123,"hochwer":7124,"ull":7125,"ergreifen":7126,"artigen":7127,"koh":7128,"DV":7129,"binden":7130,"Zweifel":7131,"Mensch":7132,"derzei":7133,"Kritik":7134,"London":7135,"Schaden":7136,"Voll":7137,"Ven":7138,"ors":7139,"zone":7140,"stil":7141,"liefert":7142,"Besucher":7143,"bestimmt":7144,"ash":7145,"rug":7146,"My":7147,"Bi":7148,"No":7149,"möglicherweise":7150,"hoffen":7151,"Teilnehmer":7152,"Nahr":7153,"“.":7154,"sex":7155,"akzeptieren":7156,"Griechenland":7157,"Sil":7158,"uellen":7159,"Jo":7160,"unt":7161,"sions":7162,"kommenden":7163,"bilität":7164,"bestehenden":7165,"August":7166,"Partnerschaft":7167,"ori":7168,"Schwe":7169,"rechten":7170,"Titel":7171,"sicherzustellen":7172,"führer":7173,"Super":7174,"nega":7175,"char":7176,"Emis":7177,"britann":7178,"gerin":7179,"technische":7180,"lam":7181,"ens":7182,"Zudem":7183,"Zeitraum":7184,"wegung":7185,"Lizen":7186,"kamen":7187,"Schließlich":7188,"Kompromiss":7189,"euch":7190,"näher":7191,"oking":7192,"benutzen":7193,"Dist":7194,"gleiche":7195,"angesprochen":7196,"besonderen":7197,"jene":7198,"gelöst":7199,"Zunächst":7200,"Abend":7201,"Sonnen":7202,"far":7203,"warten":7204,"tierten":7205,"tischer":7206,"lieben":7207,"erzielt":7208,"Schlaf":7209,"lätzen":7210,"schlä":7211,"Phil":7212,"iet":7213,"eleg":7214,"Beitritt":7215,"geeignet":7216,"tierte":7217,"Haltung":7218,"dul":7219,"Konzept":7220,"finanziellen":7221,"unkten":7222,"Paket":7223,"gewogen":7224,"eingerichtet":7225,"ary":7226,"bruch":7227,"Wettbewerbsfähigkeit":7228,"notwendigen":7229,"freiheit":7230,"Einkauf":7231,"schlagen":7232,"Suche":7233,"siehe":7234,"ischem":7235,"Verwaltungs":7236,"stechn":7237,"ownload":7238,"läuft":7239,"300":7240,"Leg":7241,"positiv":7242,"anlagen":7243,"Bemerk":7244,"Hy":7245,"Einrichtungen":7246,"Straße":7247,"pfehlen":7248,"werke":7249,"Anwendungen":7250,"Mio":7251,"umgesetzt":7252,"erfüllt":7253,"festgelegt":7254,"Demokra":7255,"darunter":7256,"zuletzt":7257,"Chance":7258,"trägt":7259,"Großbritann":7260,"Kapital":7261,"ulierung":7262,"zeption":7263,"Wander":7264,"Iran":7265,"Risiko":7266,"uropa":7267,"vin":7268,"Ham":7269,"Vorbereit":7270,"liebe":7271,"ms":7272,"Presse":7273,"Homepage":7274,"Kenntnis":7275,"Bran":7276,"anderes":7277,"nieder":7278,"ction":7279,"spoliti":7280,"voller":7281,"bereitet":7282,"geändert":7283,"real":7284,"vermeiden":7285,"Monate":7286,"Tor":7287,"stärken":7288,"Oper":7289,"Japan":7290,"reiber":7291,"Wo":7292,"Qualitäts":7293,"ica":7294,"Arten":7295,"Kindern":7296,"tigkeiten":7297,"nütz":7298,"gesundheit":7299,"Unterkategorien":7300,"Mich":7301,"swert":7302,"Akt":7303,"Fo":7304,"Fonds":7305,"Iden":7306,"Währungs":7307,"Business":7308,"Barcel":7309,"zeichen":7310,"qual":7311,"Just":7312,"Klimawandel":7313,"Rechn":7314,"Zweck":7315,"NA":7316,"verfolgen":7317,"Hafen":7318,"Gut":7319,"spie":7320,"Autom":7321,"Vier":7322,"Wege":7323,"ließen":7324,"Dienste":7325,"Sw":7326,"Febru":7327,"Meter":7328,"weils":7329,"leistung":7330,"but":7331,"Tri":7332,"31":7333,"tief":7334,"haber":7335,"Vielfalt":7336,"empfehlen":7337,"LE":7338,"rahmen":7339,"gemü":7340,"verlei":7341,"schwierig":7342,"Effe":7343,"loss":7344,"Vereinten":7345,"rufen":7346,"elegan":7347,"Pass":7348,"eg":7349,"196":7350,"staatlichen":7351,"Komfort":7352,"konferenz":7353,"eingeschrän":7354,"bro":7355,"chehen":7356,"DI":7357,"welcher":7358,"verrin":7359,"erhöhen":7360,"Krä":7361,"Verhältnis":7362,"entweder":7363,"stattfinden":7364,"klicken":7365,"sicherlich":7366,"erzielen":7367,"Vi":7368,"Stimme":7369,"Menge":7370,"Analyse":7371,"dex":7372,"Indien":7373,"jederzeit":7374,"zählen":7375,"Grundsatz":7376,"Band":7377,"famil":7378,"einiger":7379,"teilweise":7380,"gelassen":7381,"jeweils":7382,"wanderung":7383,"Ausland":7384,"Ther":7385,"wären":7386,"Dritten":7387,"leisch":7388,"Frem":7389,"Besitz":7390,"Zer":7391,"liz":7392,"spor":7393,"gelangen":7394,"spielt":7395,"SS":7396,"Kol":7397,"Status":7398,"--":7399,"tour":7400,"Produktions":7401,"ón":7402,"Leistungen":7403,"Schweiz":7404,"Hersteller":7405,"eien":7406,"Instrumente":7407,"besuchen":7408,"Technik":7409,"entstehen":7410,"Forderung":7411,"Moment":7412,"Kamer":7413,"wohner":7414,"Maschinen":7415,"chmal":7416,"Februar":7417,"off":7418,"oph":7419,"ökonom":7420,"Webseite":7421,"behör":7422,"zweifel":7423,"flug":7424,"Nah":7425,"alifiz":7426,"ständigkeit":7427,"verbessert":7428,"klare":7429,"ergän":7430,"Arbeiten":7431,"Vo":7432,"gewün":7433,"Initiativen":7434,"vertrag":7435,"Bon":7436,"Mis":7437,"Sehens":7438,"Teile":7439,"grammen":7440,"Mas":7441,"sser":7442,"angezeigt":7443,"AK":7444,"erleben":7445,"Anteil":7446,"licherweise":7447,"Vorgehen":7448,"wollte":7449,"Moder":7450,"schrän":7451,"Veränderungen":7452,"Regelung":7453,"Fen":7454,"Unabhäng":7455,"Berichte":7456,"instru":7457,"val":7458,"End":7459,"alisieren":7460,"räume":7461,"Flücht":7462,"übernachten":7463,"Abschließend":7464,"klass":7465,"ausdrücklich":7466,"links":7467,"tic":7468,"Leistung":7469,"Sinn":7470,"richtigen":7471,"seh":7472,"kenn":7473,"vi":7474,"ünen":7475,"Grenz":7476,"Well":7477,"hängt":7478,"hindert":7479,"systeme":7480,"Künstler":7481,"Servic":7482,"gewinnen":7483,"that":7484,"verläss":7485,"Mat":7486,"Not":7487,"OL":7488,"plätze":7489,"dium":7490,"betonen":7491,"Ukra":7492,"funktioniert":7493,"MS":7494,"zy":7495,"Jetzt":7496,"mail":7497,"antworten":7498,"Tradition":7499,"peratur":7500,"tere":7501,"Irland":7502,"ons":7503,"Begriff":7504,"Herstellung":7505,"darstellen":7506,"Ruhe":7507,"ieht":7508,"absolut":7509,"endet":7510,"Gas":7511,"Pen":7512,"lanzen":7513,"speziell":7514,"Zeiten":7515,"Beitritts":7516,"fassen":7517,"Abgeordnete":7518,"änden":7519,"haf":7520,"sauber":7521,"erstellt":7522,"möglichst":7523,"Leider":7524,"Warum":7525,"niedr":7526,"mack":7527,"dagegen":7528,"lokalen":7529,"Multi":7530,"Absatz":7531,"Flexi":7532,"zuvor":7533,"minist":7534,"stands":7535,"frie":7536,"nei":7537,"maßen":7538,"informieren":7539,"Engagement":7540,"verloren":7541,"rom":7542,"ption":7543,"prüfung":7544,"kräf":7545,"gefordert":7546,"leiden":7547,"Herz":7548,"Standards":7549,"trans":7550,"Anges":7551,"durchaus":7552,"Aufbau":7553,"lüsse":7554,"uk":7555,"nennen":7556,"Plen":7557,"PL":7558,"Can":7559,"chischen":7560,"qualität":7561,"kulturellen":7562,"PS":7563,"Herausforderung":7564,"konkrete":7565,"Gebieten":7566,"statten":7567,"finanzielle":7568,"Konzer":7569,"itze":7570,"Formen":7571,"Installation":7572,"kop":7573,"Versuch":7574,"grat":7575,"Angaben":7576,"Mig":7577,"mögliche":7578,"punkte":7579,"karten":7580,"leistungen":7581,"Download":7582,"iß":7583,"Ausgang":7584,"wenigen":7585,"folgende":7586,"zentrale":7587,"äufer":7588,"Übereinkommen":7589,"mension":7590,"Ant":7591,"Geist":7592,"tür":7593,"Einigung":7594,"Immobilien":7595,"gewicht":7596,"öffnen":7597,"engl":7598,"stums":7599,"Ratsvor":7600,"ish":7601,"ranken":7602,"Katastrop":7603,"Königreich":7604,"anspruch":7605,"terr":7606,"omen":7607,"Brüssel":7608,"Eisen":7609,"ara":7610,"politischer":7611,"Innovation":7612,"Jahrhunderts":7613,"Prem":7614,".,":7615,"handels":7616,"ffet":7617,"ition":7618,"Vielen":7619,"Konz":7620,"Großbritannien":7621,"fähig":7622,"Net":7623,"erklären":7624,"Prioritäten":7625,"Kil":7626,"andi":7627,"Hauses":7628,"quem":7629,"Programms":7630,"Lit":7631,"tätig":7632,"rum":7633,"gezogen":7634,"vil":7635,"iell":7636,"hnung":7637,"Kirche":7638,"Rechnung":7639,"gewährleistet":7640,"asen":7641,"Motor":7642,"irm":7643,"verk":7644,"Enter":7645,"sammlung":7646,"beauf":7647,"Worte":7648,"beob":7649,"benötigt":7650,"nahm":7651,"volution":7652,"kungen":7653,"Messe":7654,"Na":7655,"unabhängig":7656,"bit":7657,"hielt":7658,"pä":7659,"veröffentlicht":7660,"ktoren":7661,"Afrika":7662,"lic":7663,"nutz":7664,"hre":7665,"konzentrieren":7666,"erfolgen":7667,"freue":7668,"Patienten":7669,"maxim":7670,"starke":7671,"nächste":7672,"abgeschlossen":7673,"Sand":7674,"ehrte":7675,"krieg":7676,"Meeres":7677,"erscheint":7678,"uz":7679,"riebe":7680,"Führung":7681,"Forderungen":7682,"aufmerksam":7683,"Inf":7684,"gelungen":7685,"Ern":7686,"Start":7687,"gegensei":7688,"Militär":7689,"ennen":7690,"proje":7691,"übertragen":7692,"Achtung":7693,"Klicken":7694,"Portug":7695,"Sehenswürdig":7696,"Hü":7697,"betrachtet":7698,"Bre":7699,"gestellten":7700,"läne":7701,"Mic":7702,"Dennoch":7703,"gestalten":7704,"Stellungnahme":7705,"Komple":7706,"Linux":7707,"dennoch":7708,"bericht":7709,"Amster":7710,"ühren":7711,"zählt":7712,"wagen":7713,"Einhaltung":7714,"Gewähr":7715,"schneller":7716,"Kompeten":7717,"erstellen":7718,"Argu":7719,"News":7720,"tele":7721,"befürwor":7722,"Ideen":7723,"Camp":7724,"vielfäl":7725,"preise":7726,"behaup":7727,"Museum":7728,"gegründet":7729,"Karten":7730,"fas":7731,"Landwir":7732,"persönlich":7733,"Paten":7734,"can":7735,"eting":7736,"Terrasse":7737,"unterschiedliche":7738,"Anlagen":7739,"test":7740,"verlassen":7741,"matik":7742,"Freund":7743,"Aspekt":7744,"Miss":7745,"fehl":7746,"Entschließungsantrag":7747,"geschehen":7748,"Vir":7749,"fügt":7750,"holt":7751,"assungs":7752,"achtung":7753,"rift":7754,"ager":7755,"diskutieren":7756,"Verpflichtung":7757,"attra":7758,"Unterkunft":7759,"Deleg":7760,"digit":7761,"positive":7762,"Allgem":7763,"grenzen":7764,"bereiten":7765,"tzentr":7766,"poten":7767,"medizin":7768,"Barcelona":7769,"station":7770,"Yor":7771,"kaufen":7772,"umfasst":7773,"qualifiz":7774,"täglich":7775,"Strom":7776,"uelle":7777,"Pau":7778,"merken":7779,"Wich":7780,"wirkt":7781,"lösung":7782,"Texte":7783,"Sim":7784,"Ukraine":7785,"Sach":7786,"Gemeinsamen":7787,"Lesung":7788,"korre":7789,"umwelt":7790,"endgül":7791,"Nachfolgend":7792,"Wien":7793,"geleistet":7794,"höri":7795,"kostenlos":7796,"mung":7797,"Villa":7798,"osi":7799,"ök":7800,"überschreiten":7801,"führenden":7802,"Rum":7803,"Name":7804,"freut":7805,"ript":7806,"Aussicht":7807,"Stärkung":7808,"Angesichts":7809,"mäch":7810,"geplan":7811,"Arbeitslosigkeit":7812,"cle":7813,"teren":7814,"versorgung":7815,"Sorge":7816,"vir":7817,"hängen":7818,"regionalen":7819,"ausgehen":7820,"kräfte":7821,"verbrei":7822,"gelegten":7823,"Treffen":7824,"Wechsel":7825,"verfolgt":7826,"car":7827,"Kopf":7828,"Bahnhof":7829,"Überwachung":7830,"ungsmittel":7831,"my":7832,"jährigen":7833,"Distri":7834,"passt":7835,"36":7836,"rasch":7837,"Sehenswürdigkeiten":7838,"andt":7839,"ücke":7840,"Ord":7841,"erforderlichen":7842,"Pat":7843,"its":7844,"Universität":7845,"Polen":7846,"OM":7847,"ständnis":7848,"let":7849,"Entwicklungen":7850,"Heimat":7851,"32":7852,"Landschaft":7853,"Gleichzeitig":7854,"erneuer":7855,"feststellen":7856,"garantiert":7857,"Vielzahl":7858,"ava":7859,"laut":7860,"sicherung":7861,"Debian":7862,"tigte":7863,"Cap":7864,"ude":7865,"genü":7866,"Wün":7867,"dritten":7868,"alog":7869,"haltet":7870,"breite":7871,"Harmon":7872,"FR":7873,"legte":7874,"vollkommen":7875,"profitieren":7876,"verbind":7877,"überprüfen":7878,"Drogen":7879,"bezeichnet":7880,"LAN":7881,"ausgewä":7882,"Dorf":7883,"Einkommen":7884,"Tourismus":7885,"bü":7886,"Bedarf":7887,"Willen":7888,"kr":7889,"Mechan":7890,"erinner":7891,"vernünf":7892,"miteinander":7893,"Nutzer":7894,"Vers":7895,"einsetzen":7896,"französischen":7897,"Identi":7898,"anen":7899,"Polizei":7900,"hingewiesen":7901,"gegenwärtig":7902,"rüst":7903,"Problemen":7904,"sozial":7905,"Verteidigung":7906,"Lab":7907,"Mand":7908,"weiterer":7909,"gegenwärtigen":7910,"fand":7911,"Umfang":7912,"metho":7913,"eingeführt":7914,"Bewertung":7915,"Kan":7916,"einfachen":7917,"Sehr":7918,"mittag":7919,"Diskrimin":7920,"Mutter":7921,"beruf":7922,"Elemente":7923,"Lizenz":7924,"ausgewogen":7925,"Entwurf":7926,"Koso":7927,"DVD":7928,"Chancen":7929,"ated":7930,"IV":7931,"if":7932,"zerstör":7933,"Anlage":7934,"bewahr":7935,"hor":7936,"üben":7937,"ometer":7938,"Schön":7939,"geschützt":7940,"Wür":7941,"derung":7942,"zahlt":7943,"bieter":7944,"Fortschritt":7945,"1998":7946,"sin":7947,"Bedürfnisse":7948,"Globalisierung":7949,"Pas":7950,"Ku":7951,"ych":7952,"breiten":7953,"Jeder":7954,"äden":7955,"normal":7956,"haupts":7957,"Architektur":7958,"geist":7959,"Erst":7960,"höchste":7961,"überall":7962,"Ski":7963,"Mik":7964,"EM":7965,"danach":7966,"gutes":7967,"Europäer":7968,"Asi":7969,"rein":7970,"zwe":7971,"schick":7972,"UR":7973,"king":7974,"Train":7975,"andidaten":7976,"Ratsvorsitz":7977,"Mag":7978,"Vorsitzen":7979,"bedauer":7980,"fg":7981,"kont":7982,"sum":7983,"offensichtlich":7984,"Tal":7985,"Priorität":7986,"itor":7987,"Justiz":7988,"WTO":7989,"nummer":7990,"Rechnungs":7991,"ausschusses":7992,"annt":7993,"leistungs":7994,"windigkeit":7995,"antie":7996,"ibli":7997,"überein":7998,"geg":7999,"demokratische":8000,"Regelungen":8001,"Gott":8002,"ki":8003,"spezielle":8004,"Speicher":8005,"holung":8006,"Seine":8007,"SP":8008,"Beschreibung":8009,"bestätigt":8010,"Ke":8011,"beginnt":8012,"relativ":8013,"Geschäftsordnung":8014,"cy":8015,"umfassende":8016,"Kombin":8017,"sämtliche":8018,"sige":8019,"meist":8020,"größeren":8021,"Offen":8022,"lust":8023,"stabil":8024,"Politiker":8025,"prin":8026,"Märkte":8027,"zustimmen":8028,"beteiligt":8029,"Gerichtshof":8030,"besitzt":8031,"vorliegenden":8032,"cor":8033,"Rad":8034,"ergie":8035,"atte":8036,"greichen":8037,"delle":8038,"istisch":8039,"keinerlei":8040,"unterstütze":8041,"Erhö":8042,"genannte":8043,"same":8044,"Marken":8045,"Monat":8046,"Fenster":8047,"großes":8048,"Mu":8049,"asil":8050,"öder":8051,"World":8052,"ruhigen":8053,"!!":8054,"ausreichend":8055,"ida":8056,"Stein":8057,"suche":8058,"Tool":8059,"einfache":8060,"Todes":8061,"ry":8062,"Links":8063,"Verständnis":8064,"komplett":8065,"arten":8066,"ath":8067,"exter":8068,"klang":8069,"Worten":8070,"Mitteln":8071,"vertei":8072,"AB":8073,"Meiner":8074,"Tisch":8075,"Stock":8076,"nötig":8077,"trenn":8078,"ola":8079,"ffizienz":8080,"event":8081,"Beteiligung":8082,"48":8083,"01":8084,"decken":8085,"Hostels":8086,"solcher":8087,"internationaler":8088,"Typ":8089,"cia":8090,"essi":8091,"personen":8092,"Pil":8093,"örter":8094,"Größe":8095,"hergestellt":8096,"fghan":8097,"gebe":8098,"Off":8099,"umfangreich":8100,"grundsätz":8101,"International":8102,"Defin":8103,"Ti":8104,"ideal":8105,"Studien":8106,"transpar":8107,"gegangen":8108,"ergeben":8109,"Wellness":8110,"streben":8111,"zahlung":8112,"Maße":8113,"Kurz":8114,"verbundenen":8115,"sorgt":8116,"Altstadt":8117,"75":8118,"Experten":8119,"Brow":8120,"Kosovo":8121,"ye":8122,"Mitglieds":8123,"zugän":8124,"drän":8125,"zusätzlich":8126,"starken":8127,"Bio":8128,"arta":8129,"handlungen":8130,"garantieren":8131,"klein":8132,"mittels":8133,"Fotos":8134,"Geor":8135,"wendet":8136,"international":8137,"nam":8138,"öm":8139,"wesentlichen":8140,"Niveau":8141,"ourn":8142,"Kontin":8143,"zö":8144,"bekannten":8145,"Gründe":8146,"és":8147,"reden":8148,"Stadtzentr":8149,"führungen":8150,"Unabhängigkeit":8151,"Eindruck":8152,"Erde":8153,"bert":8154,"ulgar":8155,"Kommissions":8156,"fehlen":8157,"auso":8158,"linge":8159,"beinhaltet":8160,"Such":8161,"Verk":8162,"technik":8163,"üter":8164,"dacht":8165,"Reaktion":8166,"praktisch":8167,"zellen":8168,"verabschie":8169,"Aktionen":8170,"Verbr":8171,"dienste":8172,"produktion":8173,"betrachten":8174,"gebil":8175,"Zahlen":8176,"Städte":8177,"ücken":8178,"partner":8179,"Wald":8180,"Mel":8181,"attform":8182,"gä":8183,"teuer":8184,"passung":8185,"krise":8186,"ICH":8187,"Erzeug":8188,"überw":8189,"Verletz":8190,"stö":8191,"Verbrechen":8192,"Gegensatz":8193,"bequem":8194,"Erklärungen":8195,"material":8196,"Code":8197,"zufolge":8198,"Asyl":8199,"griffe":8200,"pel":8201,"Ton":8202,"britischen":8203,"Risiken":8204,"Komponen":8205,"Gesetzgebung":8206,"dynam":8207,"atoren":8208,"Wiederauf":8209,"Versch":8210,"bewegen":8211,"hlten":8212,"fei":8213,"teilnehmen":8214,"way":8215,"beglück":8216,"gende":8217,"verletz":8218,"Kohä":8219,"multi":8220,"mittelt":8221,"Hinweis":8222,"Gold":8223,"ini":8224,"entre":8225,"Datenbank":8226,"mern":8227,"lus":8228,"wettbewer":8229,"Option":8230,"Inner":8231,"Menü":8232,"Mittelmeer":8233,"vermie":8234,"Ol":8235,"gei":8236,"Methode":8237,"Gedanken":8238,"ktivität":8239,"Kontroll":8240,"erhöht":8241,"vorschlag":8242,"Botschaft":8243,"grie":8244,"Datenschutz":8245,"Studen":8246,"Flexibilität":8247,"lege":8248,"Gebiete":8249,"klusive":8250,"dler":8251,"renov":8252,"lebens":8253,"ots":8254,"lehnt":8255,"uchten":8256,"rechtlichen":8257,"dik":8258,"grei":8259,"Kind":8260,"igte":8261,"Mitgliedern":8262,"wünsche":8263,"Ereignisse":8264,"gas":8265,"this":8266,"old":8267,"sper":8268,"IL":8269,"Farben":8270,"finde":8271,"Gran":8272,"Zugriff":8273,"Friedens":8274,"sult":8275,"räumen":8276,"prise":8277,"benach":8278,"Rezeption":8279,"nationaler":8280,"Beschäftigungs":8281,"urs":8282,"türk":8283,"Hoffnung":8284,"Open":8285,"Ganz":8286,"leun":8287,"Teilen":8288,"chst":8289,"Empfehlungen":8290,"gerufen":8291,"utt":8292,"speziellen":8293,"heits":8294,"Realität":8295,"management":8296,"hauptsächlich":8297,"press":8298,"künst":8299,"jüngsten":8300,"Fit":8301,"were":8302,"fühlen":8303,"Schi":8304,"daraus":8305,"Beob":8306,"strategie":8307,"mas":8308,"Samm":8309,"elev":8310,"auslän":8311,"Beihilfen":8312,"Wirkung":8313,"Booking":8314,"38":8315,"Mess":8316,"pan":8317,"wal":8318,"Drei":8319,"uung":8320,"manchmal":8321,"....":8322,"Nachdem":8323,"deutsche":8324,"regeln":8325,"rik":8326,"Beschluss":8327,"fair":8328,"beachten":8329,"Inseln":8330,"Amsterdam":8331,"roati":8332,"müs":8333,"geöffnet":8334,"lux":8335,"Beim":8336,"ther":8337,"scheinen":8338,"oler":8339,"isiert":8340,"Erwar":8341,"Urs":8342,"Süden":8343,"echte":8344,"züglich":8345,"vertrau":8346,"Häl":8347,"pul":8348,"Weitere":8349,"informiert":8350,"guter":8351,"gesellschaften":8352,"allgemeine":8353,"sal":8354,"cre":8355,"itut":8356,"Arbeitsmarkt":8357,"Liberalisierung":8358,"änge":8359,"Gre":8360,"private":8361,"jungen":8362,"ibliothe":8363,"Roh":8364,"Cre":8365,"ärm":8366,"registr":8367,"ablen":8368,"sorgfäl":8369,"leitung":8370,"mün":8371,"Fraktionen":8372,"Vorteil":8373,"Alter":8374,"ris":8375,"98":8376,"Pake":8377,"erfordert":8378,"räger":8379,"uld":8380,"selten":8381,"Männer":8382,"ymp":8383,"damals":8384,"Pre":8385,"berühmten":8386,"EW":8387,"Il":8388,"Grunde":8389,"kontin":8390,"Betriebs":8391,"cial":8392,"Gegenteil":8393,"Mir":8394,"gewisse":8395,"präsentiert":8396,"Kaffe":8397,"respe":8398,"Prüfung":8399,"einzigen":8400,"gewal":8401,"aben":8402,"fassung":8403,"akzept":8404,"ustr":8405,"einverstanden":8406,"Ebenso":8407,"geschieht":8408,"harmon":8409,"Voraussetzungen":8410,"ese":8411,"Phase":8412,"Agenda":8413,"Lö":8414,"ienen":8415,"nachhaltige":8416,"außerorden":8417,"globale":8418,"wichtigste":8419,"34":8420,"Formular":8421,"norm":8422,"ismen":8423,"Schulden":8424,"York":8425,"\"...":8426,"Grundrechte":8427,"tiken":8428,"Mindest":8429,"Frühstücks":8430,"Minderheiten":8431,"vision":8432,"MP":8433,"rig":8434,"ausführ":8435,"entlich":8436,"festgestellt":8437,"san":8438,"beeinf":8439,"gewählt":8440,"herzlich":8441,"Dig":8442,"unternommen":8443,"ideale":8444,"Meinungs":8445,"Hauptstadt":8446,"Hälfte":8447,"zugleich":8448,"vieler":8449,"strich":8450,"Zoll":8451,"sobald":8452,"gress":8453,"kombin":8454,"Gebrauch":8455,"Nachrichten":8456,"Reich":8457,"etter":8458,"hebung":8459,"ato":8460,"dor":8461,"persönliche":8462,"Tod":8463,"Schrift":8464,"sieben":8465,"Spei":8466,"ategorie":8467,"geschäft":8468,"vorgeschlagenen":8469,"altern":8470,"Akte":8471,"flex":8472,"Rand":8473,"wodurch":8474,"Will":8475,"Poten":8476,"Internationalen":8477,"Teilnahme":8478,"regelmäßig":8479,"This":8480,"übernommen":8481,"ördert":8482,"bindung":8483,"Spiele":8484,"krank":8485,"lieb":8486,"Niederlan":8487,"Top":8488,"jährlich":8489,"ausende":8490,"betroffenen":8491,"ament":8492,"spir":8493,"dir":8494,"igion":8495,"spartner":8496,"betre":8497,"mechan":8498,"Bestandteil":8499,"Anpassung":8500,"lit":8501,"latz":8502,"trifft":8503,"onom":8504,"atis":8505,"Ausnahme":8506,"miss":8507,"Bewegung":8508,"Bud":8509,"Sant":8510,"Center":8511,"Vom":8512,"Kür":8513,"union":8514,"1997":8515,"Gesetze":8516,"vertre":8517,"Jahrzehn":8518,"wid":8519,"Effizienz":8520,"akfast":8521,"lägen":8522,"Angriff":8523,"Erhöhung":8524,"fein":8525,"gre":8526,"Gefühl":8527,"Wachstums":8528,"elles":8529,"Prak":8530,"ernen":8531,"isieren":8532,"have":8533,"cur":8534,"Verfüg":8535,"oker":8536,"traditionellen":8537,"Methoden":8538,"schwe":8539,"Austausch":8540,"City":8541,"zwungen":8542,"andererseits":8543,"gewünsch":8544,"Services":8545,"Betra":8546,"raucher":8547,"anbieten":8548,"Überprüfung":8549,"staff":8550,"ise":8551,"Apparte":8552,"fällen":8553,"basiert":8554,"angeht":8555,"welchen":8556,"kontext":8557,"Lang":8558,"Pool":8559,"Koordinierung":8560,"Wes":8561,"Mac":8562,"Veranstaltungen":8563,"Origin":8564,"fragt":8565,"Publik":8566,"sens":8567,"beschäftigt":8568,"Del":8569,"wann":8570,"erscheinen":8571,"fertigt":8572,"Welche":8573,"Ordnung":8574,"tut":8575,"uver":8576,"anden":8577,"vorschlagen":8578,"richtlinie":8579,"unterschiedlich":8580,"Fähigkeit":8581,"Ziff":8582,"besseren":8583,"meister":8584,"37":8585,"bett":8586,"gegebenen":8587,"sichts":8588,"...\"":8589,"Pflanzen":8590,"Klimaanlage":8591,"ival":8592,"sprachen":8593,"Nichtraucher":8594,"Vorbereitung":8595,"PE":8596,"spezifischen":8597,"IB":8598,"dy":8599,"liefern":8600,"Pflicht":8601,"begri":8602,"luß":8603,"Haup":8604,"):":8605,"beraten":8606,"wan":8607,"Apartments":8608,"maschinen":8609,"märkte":8610,"Diskriminierung":8611,"mlich":8612,"systems":8613,"**":8614,"PH":8615,"werten":8616,"Veröffentlich":8617,"reagieren":8618,"voran":8619,"Einkaufs":8620,"junge":8621,"Geh":8622,"Autor":8623,"diskutiert":8624,"Liebe":8625,"kürzlich":8626,"verste":8627,"Bef":8628,"Ferienwoh":8629,"Feld":8630,"weiteres":8631,"Laufe":8632,"Sprach":8633,"Generation":8634,"Enterprise":8635,"alien":8636,"schafft":8637,"Java":8638,"Angebote":8639,"Tru":8640,"Westen":8641,"begann":8642,"arischen":8643,"Absicht":8644,"Grenze":8645,"grenzüberschreiten":8646,"pport":8647,"ni":8648,"städ":8649,"bezieht":8650,"Format":8651,"situ":8652,"konf":8653,"sprüche":8654,"iode":8655,"angs":8656,"willkommen":8657,"freundliche":8658,"isla":8659,"Vater":8660,"Aufgrund":8661,"ally":8662,"ado":8663,"Rich":8664,"seitens":8665,"langsam":8666,"Rumän":8667,"lebnis":8668,"Zimmern":8669,"wegs":8670,"ling":8671,"entstanden":8672,"Serie":8673,"Beweis":8674,"las":8675,"Bedro":8676,"reibt":8677,"rate":8678,"Hard":8679,"Rund":8680,"entwicklung":8681,"Norden":8682,"stes":8683,"Fluss":8684,"Bildungs":8685,"PD":8686,"schritt":8687,"denk":8688,"Red":8689,"fac":8690,"oo":8691,"Religion":8692,"Morgen":8693,"qualit":8694,"Rein":8695,"Berücksich":8696,"geboren":8697,"Touristen":8698,"Ve":8699,"ahnen":8700,"koordin":8701,"Col":8702,"problem":8703,"betont":8704,"Fälle":8705,"ero":8706,"kret":8707,"DER":8708,"telligen":8709,"überzeugen":8710,"modell":8711,"ruf":8712,"bildet":8713,"bereiche":8714,"präsent":8715,"Schweden":8716,"Massen":8717,"Link":8718,"bestand":8719,"positiven":8720,"akzeptiert":8721,"400":8722,"Gästen":8723,"schauen":8724,"ländlichen":8725,"einzelne":8726,"Cli":8727,"Kooperation":8728,"behandeln":8729,"abhängig":8730,"Dimension":8731,"ain":8732,"Perspe":8733,"IF":8734,"Stadtzentrum":8735,"verstärkt":8736,"kompeten":8737,"Freizeit":8738,"mittlung":8739,"ogle":8740,"Eltern":8741,"relig":8742,"zeß":8743,"150":8744,"//":8745,"Win":8746,"Dokumente":8747,"Haushaltsplan":8748,"obje":8749,"Reserv":8750,"überra":8751,"ästinens":8752,"eff":8753,"Anliegen":8754,"Alli":8755,"eichert":8756,"flächen":8757,"gearbeitet":8758,"Einklang":8759,"Europe":8760,"Glau":8761,"hop":8762,"ohlen":8763,"Registr":8764,"eiden":8765,"spezifische":8766,"fizierung":8767,"letter":8768,"Tiere":8769,"Straf":8770,"Untersuchung":8771,"tor":8772,"Schwar":8773,"Kurs":8774,"täu":8775,"schwar":8776,"omin":8777,"früh":8778,"Tun":8779,"IA":8780,"position":8781,"begonnen":8782,"ichtete":8783,"verlieren":8784,"Kombination":8785,"werfen":8786,"Freunde":8787,"ski":8788,"istenz":8789,"Glas":8790,"Stunde":8791,"vielmehr":8792,"Unterschiede":8793,"Flä":8794,"Gebur":8795,"regionale":8796,"beeindruck":8797,"Wh":8798,"kanischen":8799,"Ten":8800,"39":8801,"Portugal":8802,"Redu":8803,"stellungs":8804,"ehemaligen":8805,"Zahlungs":8806,"unsten":8807,"engen":8808,"Umständen":8809,"KM":8810,"sicherstellen":8811,"geo":8812,"stoffen":8813,"Zustand":8814,"Strategien":8815,"Amerika":8816,"Bri":8817,"seien":8818,"prinzip":8819,"mutz":8820,"nochmals":8821,"Atom":8822,"umgeben":8823,"els":8824,"verlangen":8825,"betrieb":8826,"Berücksichtigung":8827,"straße":8828,"jährige":8829,"rosoft":8830,"zurückzu":8831,"Fitness":8832,"Stück":8833,"ournal":8834,"ktiver":8835,"Antwor":8836,"abl":8837,"Diskussionen":8838,"Kranken":8839,"Einwanderung":8840,"Browser":8841,"zielt":8842,"Mini":8843,"Sem":8844,"bal":8845,"atein":8846,"Sanktionen":8847,"Salz":8848,"Krisen":8849,"Haut":8850,"beschrieben":8851,"Krie":8852,"gebunden":8853,"Var":8854,"grundlage":8855,"Handeln":8856,"flo":8857,"ane":8858,"Dort":8859,"wiederum":8860,"tät":8861,"sah":8862,"Las":8863,"Studie":8864,"amerikanische":8865,"Wegen":8866,"hilf":8867,"gestern":8868,"schlecht":8869,"begrün":8870,"meldung":8871,"Schlafzimmer":8872,"behörden":8873,"Eigenschaften":8874,"derzeitigen":8875,"Bedenken":8876,"streichen":8877,"Dre":8878,"ergriffen":8879,"orgnis":8880,"folgerungen":8881,"telli":8882,"Provin":8883,"Essen":8884,"soweit":8885,"195":8886,"dlicher":8887,"Dadurch":8888,"Englisch":8889,"ark":8890,"olz":8891,"kulturelle":8892,"Übernach":8893,"Dach":8894,"Kollege":8895,"Theater":8896,"agiert":8897,"Autob":8898,"Schwerpunkt":8899,"Bay":8900,"Garantie":8901,"33":8902,"zunehmend":8903,"historische":8904,"Schäden":8905,"fir":8906,"gänge":8907,"Mehrwert":8908,"1996":8909,"allgemein":8910,"Verfügbarkeit":8911,"industr":8912,"spre":8913,"entspannen":8914,"Tauch":8915,"freundlich":8916,"99":8917,"ates":8918,"anerkannt":8919,"altet":8920,"genauso":8921,"weltweiten":8922,"umfassenden":8923,"roh":8924,"Lob":8925,"befassen":8926,"vorgenommen":8927,"Afghan":8928,"Geräte":8929,"teste":8930,"ita":8931,"Freude":8932,"Refer":8933,"ames":8934,"Dol":8935,"Kunde":8936,"ande":8937,"pos":8938,"Badezimmer":8939,"Microsoft":8940,"zo":8941,"Papier":8942,"Erwachsen":8943,"Vielleicht":8944,"Voraussetzung":8945,"regelmäß":8946,"konkreten":8947,"erheblich":8948,"absich":8949,"akten":8950,"bungen":8951,"Strukturfonds":8952,"aktive":8953,"Event":8954,"ied":8955,"Schule":8956,"Grundsätze":8957,"keines":8958,"Dienstleistungs":8959,"Mü":8960,"aill":8961,"bean":8962,"ock":8963,"fertig":8964,"AF":8965,"Nachfrage":8966,"TE":8967,"flüge":8968,"biente":8969,"Antworten":8970,"namen":8971,"außen":8972,"Drit":8973,"Vene":8974,"kurr":8975,"Leitlinien":8976,"jo":8977,"Erwä":8978,"wirt":8979,"höhere":8980,"porte":8981,"Marketing":8982,"Allgemeinen":8983,"Klasse":8984,"Verträge":8985,"spür":8986,"osoph":8987,"herrscht":8988,"ordnungs":8989,"menschlichen":8990,"uliert":8991,"Küste":8992,"Tie":8993,"läs":8994,"spartei":8995,"Signal":8996,"Dam":8997,"extrem":8998,"var":8999,"Lager":9000,"High":9001,"heber":9002,"Empfehlung":9003,"Fein":9004,"hilft":9005,"Bla":9006,"unmittelbar":9007,"Tick":9008,"Google":9009,"Zusatz":9010,"gespielt":9011,"funktionieren":9012,"italienischen":9013,"Szen":9014,"betrieben":9015,"Frü":9016,"beziehung":9017,"schätzen":9018,"hoher":9019,"rüstung":9020,"kommer":9021,"Dauer":9022,"trotzdem":9023,"jemand":9024,"achte":9025,"gyp":9026,"Kamera":9027,"date":9028,"Maßnahme":9029,"wichtiges":9030,"Wahrheit":9031,"pon":9032,"ischung":9033,"modi":9034,"institutionellen":9035,"Ungleich":9036,"Tagung":9037,"niemand":9038,"Blut":9039,"Konsequ":9040,"parla":9041,"orts":9042,"Regional":9043,"Kategorie":9044,"entlang":9045,"herrschen":9046,"Bra":9047,"Gesicht":9048,"bezug":9049,"Frankfur":9050,"Blu":9051,"deiner":9052,"beizu":9053,"stoßen":9054,"hlte":9055,"97":9056,"Regime":9057,"Tatsächlich":9058,"Eis":9059,"Dafür":9060,"schließt":9061,"Genehm":9062,"anda":9063,"ziemlich":9064,"Blog":9065,"außergewöhn":9066,"osition":9067,"entschlossen":9068,"Schnitt":9069,"falsch":9070,"ventionen":9071,"Hor":9072,"IR":9073,"rd":9074,"Rest":9075,"German":9076,"tragung":9077,"amerika":9078,"Bulgar":9079,"Schü":9080,"äume":9081,"Studenten":9082,"wachstum":9083,"Beratung":9084,"zugänglich":9085,"liste":9086,"aufen":9087,"künftig":9088,"träch":9089,"interessante":9090,"Temperatur":9091,"95":9092,"quellen":9093,"Fremden":9094,"Fron":9095,"Verg":9096,"Stabil":9097,"Definition":9098,"Materialien":9099,"Landwirte":9100,"wissenschaftlichen":9101,"Wol":9102,"musik":9103,"Normen":9104,"kurs":9105,"Real":9106,"gs":9107,"Beifall":9108,"Umweltschutz":9109,"wesentliche":9110,"entdecken":9111,"Ep":9112,"eröffnet":9113,"lations":9114,"führende":9115,"Ferner":9116,"respek":9117,"Details":9118,"Oli":9119,"Mc":9120,"Institution":9121,"DA":9122,"Wur":9123,"staatliche":9124,"organisiert":9125,"Viertel":9126,"erhältlich":9127,"gleicher":9128,"Flor":9129,"pack":9130,"ep":9131,"Station":9132,"BIP":9133,"Tsche":9134,"ML":9135,"beträgt":9136,"grundlegenden":9137,"kommerziel":9138,"Ohne":9139,"Anfragen":9140,"besei":9141,"beauftrag":9142,"organisationen":9143,"angebot":9144,"Entwicklungsländern":9145,"Tu":9146,"good":9147,"zwingen":9148,"Ara":9149,"pri":9150,"tot":9151,"hoff":9152,"relev":9153,"Shop":9154,"direkte":9155,"entwickelten":9156,"flexi":9157,"zusätzlichen":9158,"Erwartungen":9159,"Erinner":9160,"eigenes":9161,"Zusätz":9162,"Feuer":9163,"inzwischen":9164,"just":9165,"diesel":9166,"äten":9167,"Herkunft":9168,"nachzu":9169,"berechtigt":9170,"banken":9171,"stärkt":9172,"Hindern":9173,"kontrolle":9174,"gering":9175,"Alb":9176,"sites":9177,"Einstellung":9178,"schü":9179,"kurzem":9180,"zentralen":9181,"Unterschied":9182,"München":9183,"Zug":9184,"asser":9185,"orgt":9186,"Übersetzung":9187,"Wirklichkeit":9188,"Kontinent":9189,"arm":9190,"IG":9191,"religiö":9192,"Val":9193,"Ausgabe":9194,"interessiert":9195,"initi":9196,"Delegation":9197,"auen":9198,"besitzen":9199,"Forum":9200,"natürlichen":9201,"AU":9202,"beabsich":9203,"sprech":9204,"Vorsitz":9205,"drücken":9206,"Kandidaten":9207,"kehren":9208,"Mittelpunkt":9209,"gefördert":9210,"center":9211,"schwierigen":9212,"44":9213,"Vision":9214,"Ungar":9215,"künfte":9216,"Mikro":9217,"Lam":9218,"Fahrzeug":9219,"rief":9220,"Kapaz":9221,"itar":9222,"Fund":9223,"verändert":9224,"Urlau":9225,"standards":9226,"hü":9227,"EZ":9228,"körper":9229,"gerichtet":9230,"österreich":9231,"zweifellos":9232,"offenen":9233,"Spann":9234,"installiert":9235,"schnelle":9236,"niemals":9237,"massi":9238,"verändern":9239,"Arme":9240,"neter":9241,"Nummer":9242,"Genie":9243,"schönsten":9244,"ugnisse":9245,"eignet":9246,"beträcht":9247,"fällig":9248,"sinnvoll":9249,"lim":9250,"over":9251,"Nahen":9252,"Bauern":9253,"Veranstaltung":9254,"08":9255,"96":9256,"Beispiele":9257,"Amts":9258,"cer":9259,"Agrarpolitik":9260,"ichteten":9261,"effektiv":9262,"Berufs":9263,"aufzunehmen":9264,"gewonnen":9265,"Wik":9266,"Küsten":9267,"Verbesserungen":9268,"durchzuführen":9269,"Statist":9270,"Projekten":9271,"änger":9272,"höchsten":9273,"Strukturen":9274,"westlichen":9275,"füllung":9276,"einerseits":9277,"Weiß":9278,"päck":9279,"zuerst":9280,"Ambiente":9281,"sehe":9282,"spanischen":9283,"Aktien":9284,"einrichtungen":9285,"ierend":9286,"verhalten":9287,"Ange":9288,"Bibliothe":9289,"Kann":9290,"Farb":9291,"hervorragende":9292,"Steuern":9293,"block":9294,"weshalb":9295,"SD":9296,"neuesten":9297,"parlamentar":9298,"kna":9299,"erweitert":9300,"ausgezeichnete":9301,"Interne":9302,"Geträn":9303,"amtieren":9304,"grundlegende":9305,"brechen":9306,"umzusetzen":9307,"Eisenbahn":9308,"genden":9309,"cal":9310,"vergleich":9311,"verlangt":9312,"Mangel":9313,"mä":9314,"bemüht":9315,"küm":9316,"Nahrungsmittel":9317,"stab":9318,"liegenden":9319,"stamm":9320,"kul":9321,"buffet":9322,"Mitgliedschaft":9323,"law":9324,"teils":9325,"Anschluss":9326,"dorf":9327,"ico":9328,"Anbieter":9329,"weisung":9330,"doku":9331,"Balkon":9332,"Vorbe":9333,"obile":9334,"kostet":9335,"zulegen":9336,"Abkommens":9337,"ace":9338,"zuge":9339,"sicherungs":9340,"Bucht":9341,"ungefähr":9342,"behörde":9343,"eichern":9344,"Reisen":9345,"Geschle":9346,"betreffenden":9347,"bran":9348,"Opp":9349,"wältigen":9350,"Überzeugung":9351,"Krimin":9352,"richtet":9353,"starten":9354,"eh":9355,"ausgesprochen":9356,"itären":9357,"ditionen":9358,"club":9359,"Dusche":9360,"ausgezeichneten":9361,"NATO":9362,"Boot":9363,"wirkung":9364,"Streit":9365,"entscheidend":9366,"ursprünglichen":9367,"Got":9368,"nischen":9369,"sätzen":9370,"legungen":9371,"chinesischen":9372,"deckt":9373,"Klar":9374,"kurze":9375,"Cha":9376,"cess":9377,"gehoben":9378,"ickt":9379,"para":9380,"Nein":9381,"produziert":9382,"Angst":9383,"Krankheiten":9384,"Last":9385,"Journal":9386,"buchen":9387,"tp":9388,"habt":9389,"Sound":9390,"ham":9391,"Kroati":9392,"dritte":9393,"ktions":9394,"Zentralbank":9395,"günstig":9396,"ype":9397,"musste":9398,"Ausstattung":9399,"Casino":9400,"Jedes":9401,"09":9402,"wirklichen":9403,"Erholung":9404,"SQ":9405,"geprä":9406,"iend":9407,"anstatt":9408,"verursacht":9409,"geboten":9410,"samkeit":9411,"schirm":9412,"64":9413,"col":9414,"detaill":9415,"Vil":9416,"kommunik":9417,"bekämpfen":9418,"wirtschaftlicher":9419,"zentral":9420,"Harmonisierung":9421,"DS":9422,"Ausstellung":9423,"stehende":9424,".-":9425,"Punkten":9426,"abgelehnt":9427,"Direkt":9428,"Element":9429,"Prüf":9430,"UNO":9431,"CO2":9432,"pub":9433,"kas":9434,"teiligen":9435,"Brasil":9436,"Kapitel":9437,"eingeschränkt":9438,"Planung":9439,"ée":9440,"waffen":9441,"anschließen":9442,"deutsch":9443,"Standort":9444,"Fähigkeiten":9445,"KMU":9446,"Also":9447,"Poker":9448,"geräum":9449,"Vermögen":9450,"forschung":9451,"Ausgangspunkt":9452,"wettbewerbs":9453,"iertes":9454,"künftigen":9455,"had":9456,"quis":9457,"Roma":9458,"rist":9459,"zierung":9460,"bene":9461,"Einheit":9462,"lautet":9463,"Ri":9464,"spekt":9465,"dus":9466,"Verrin":9467,"zeichnis":9468,"Schatten":9469,"luxur":9470,"bahnhof":9471,"your":9472,"aktivieren":9473,"Emissionen":9474,"eten":9475,"Halb":9476,"erlauben":9477,"schätzung":9478,"lastung":9479,"Out":9480,"Übereinstimmung":9481,"Trend":9482,"Stahl":9483,"riesigen":9484,"stür":9485,"derartige":9486,"bestimmen":9487,"Verbindungen":9488,"kern":9489,"Gesetzes":9490,"55":9491,"Kal":9492,"Zyp":9493,"minuten":9494,"Sar":9495,"Schloss":9496,"Glauben":9497,"John":9498,"itäre":9499,"kohol":9500,"AV":9501,"ausgeschlossen":9502,"verschiedener":9503,"ungsverfahren":9504,"aufgefordert":9505,"Bru":9506,"Festlegung":9507,"vollständige":9508,"übernimmt":9509,"PT":9510,"Grand":9511,"fehlt":9512,"gratulieren":9513,"reichung":9514,"ax":9515,"angesehen":9516,"Behinder":9517,"aket":9518,"fordere":9519,"Farbe":9520,"Gestaltung":9521,"uier":9522,"wh":9523,"auftreten":9524,"top":9525,"Syn":9526,"Abschnitt":9527,"Rumänien":9528,"schicken":9529,"Entwicklungsländer":9530,"schwä":9531,"konsequ":9532,"Bestellung":9533,"work":9534,"Hän":9535,"Ratspräsidentschaft":9536,"Live":9537,"ziplin":9538,"Zuständigkeit":9539,"Noch":9540,"komme":9541,"book":9542,"annehmen":9543,"Komponenten":9544,"nachhaltigen":9545,"Sy":9546,"Ersatz":9547,"Alternative":9548,"kreis":9549,"Kilometer":9550,"echten":9551,"Vorschlägen":9552,"gefallen":9553,"beschränkt":9554,"Buchung":9555,"TR":9556,"kter":9557,"Anrei":9558,"bezahlen":9559,"Änderungsanträgen":9560,"Ausführungen":9561,"moral":9562,"baut":9563,"klaren":9564,"Afghanistan":9565,"perfekt":9566,"Ausführung":9567,"breit":9568,"Partnern":9569,"erwähn":9570,"maschine":9571,"lands":9572,"zugunsten":9573,"Drittländern":9574,"moment":9575,"Por":9576,"mi":9577,"Kontext":9578,"Urspr":9579,"Arbeitsplätzen":9580,"Sum":9581,"wechs":9582,"Gegend":9583,"din":9584,"sichere":9585,"palästinens":9586,"Mau":9587,"ek":9588,"Umfeld":9589,"Programmen":9590,"notwendige":9591,"location":9592,"hervorheben":9593,"It":9594,"Slo":9595,"Gewinn":9596,"time":9597,"Radio":9598,"schlägt":9599,"HT":9600,"pra":9601,"wirtschaftlich":9602,"Gleichgewicht":9603,"häuser":9604,"Geschäfte":9605,"aktiven":9606,"sidi":9607,"Zah":9608,"ful":9609,"intensiv":9610,"cas":9611,"ausgestat":9612,"ehrgei":9613,"Arbeitsplatz":9614,"gewissen":9615,"Gewicht":9616,"Prinzipien":9617,"GB":9618,"Konto":9619,"beschleun":9620,"Pin":9621,"angemessene":9622,"genehm":9623,"Spaz":9624,"Premier":9625,"früheren":9626,"entz":9627,"kurzen":9628,"lowak":9629,"kontinuier":9630,"Verringerung":9631,"angehen":9632,"07":9633,"Beziehung":9634,"schule":9635,"füllen":9636,"kurzfrist":9637,"Dub":9638,"Är":9639,"zuständigen":9640,"entdeck":9641,"Umgang":9642,"bestätigen":9643,"veränder":9644,"Dra":9645,"wellen":9646,"erstre":9647,"reform":9648,"dauern":9649,"schre":9650,"diver":9651,"Ware":9652,"Power":9653,"stande":9654,"ermu":9655,"1995":9656,"Kampag":9657,"back":9658,"verf":9659,"verabschiedet":9660,"durchführen":9661,"Haft":9662,"Pop":9663,"beglückwünschen":9664,"Aktionsplan":9665,"Wird":9666,"unmöglich":9667,"2020":9668,"Faktoren":9669,"zulassen":9670,"Gemeinde":9671,"dal":9672,"Plattform":9673,"berge":9674,"niedri":9675,"Original":9676,"-/":9677,"Frie":9678,"sodass":9679,"Export":9680,"erreichbar":9681,"anspruchs":9682,"Anwendungs":9683,"Mos":9684,"verbringen":9685,"ausgesetzt":9686,"ju":9687,"tent":9688,"Websites":9689,"Asien":9690,"kore":9691,"05":9692,"kal":9693,"erseits":9694,"aufnehmen":9695,"messen":9696,"verbrauch":9697,"serviert":9698,"sub":9699,"viertel":9700,"Gründung":9701,"haushalt":9702,"Krankheit":9703,"geringer":9704,"Unternehmer":9705,"unbe":9706,"austausch":9707,"dich":9708,"Internets":9709,"eitag":9710,"Panor":9711,"Himm":9712,"Sonne":9713,"Büro":9714,"Automobil":9715,"CE":9716,"Vereinbarungen":9717,"vid":9718,"Abhäng":9719,"Ziffer":9720,"65":9721,"schwei":9722,"Reser":9723,"Aktu":9724,"äumen":9725,"Außenpolitik":9726,"treiben":9727,"Drittens":9728,"Studio":9729,"jetz":9730,"ago":9731,"gespeichert":9732,"Konsens":9733,"verhindert":9734,"Geheim":9735,"other":9736,"angew":9737,"Gesellschaften":9738,"geprüft":9739,"Alles":9740,"sorge":9741,"Costa":9742,"izient":9743,"arab":9744,"Redner":9745,"03":9746,"Werbung":9747,"hörigen":9748,"Führer":9749,"has":9750,"Hohen":9751,"Kohäsion":9752,"Ungarn":9753,"SQL":9754,"Trag":9755,"dge":9756,"einig":9757,"istik":9758,"aka":9759,"Kräfte":9760,"russischen":9761,"pekt":9762,"gezwungen":9763,"israel":9764,"verringern":9765,"Kompetenz":9766,"höchst":9767,"Verbot":9768,"verleihen":9769,"geräte":9770,"produkte":9771,"sbe":9772,"sign":9773,"pas":9774,"http":9775,"Mut":9776,"gestaltet":9777,"Regierungskonferenz":9778,"{{":9779,"definiert":9780,"wollten":9781,"dafri":9782,"Symbol":9783,"hi":9784,"grenzung":9785,"höheren":9786,"Plenum":9787,"liziert":9788,"tau":9789,"Optionen":9790,"einzigartige":9791,"Problems":9792,"telliten":9793,"ethn":9794,"Konvent":9795,"wohnen":9796,"Kaffee":9797,"04":9798,"–,":9799,"Gerichte":9800,"Os":9801,"ausschuß":9802,"telefon":9803,"any":9804,"katastrop":9805,"pres":9806,"Stimmen":9807,"Zypern":9808,"verschw":9809,"Einbeziehung":9810,"trages":9811,"würdigkeit":9812,"Mobilität":9813,"glaub":9814,"sprin":9815,"direkten":9816,"hart":9817,"wje":9818,"steuerung":9819,"Korru":9820,"Veröffentlichung":9821,"Beiträge":9822,"weile":9823,"welchem":9824,"Arz":9825,"wässer":9826,"Institut":9827,"denkt":9828,"scheidet":9829,"rechtliche":9830,"Freiheiten":9831,"hrt":9832,"passiert":9833,"ADS":9834,"Webseiten":9835,"ausgezeichnet":9836,"Fleisch":9837,"Kabel":9838,"dé":9839,"äne":9840,"liber":9841,"Kriegs":9842,"tifiziert":9843,"Einstellungen":9844,"maler":9845,"leichtern":9846,"Fax":9847,"Persön":9848,"melden":9849,"prim":9850,"06":9851,"chron":9852,"gesicher":9853,"Besonders":9854,"entsteht":9855,"Chinas":9856,"ukle":9857,"restauran":9858,"ferner":9859,"Haftung":9860,"Bedien":9861,"ausend":9862,"fahrer":9863,"bildungs":9864,"bindet":9865,"Sorgen":9866,"gebiete":9867,"Identität":9868,"Einwohner":9869,"Pack":9870,"Tari":9871,"Sauna":9872,"letztlich":9873,"Sein":9874,"Gespräche":9875,"Ankunft":9876,"erleichtern":9877,"gemä":9878,"abgestimmt":9879,"Sing":9880,"Verlust":9881,"geäußer":9882,"benutz":9883,"ugh":9884,"EF":9885,"Beam":9886,"begrüßt":9887,"Rob":9888,"Charta":9889,"Luxus":9890,"Bab":9891,"Martin":9892,"ergänzen":9893,"nahezu":9894,"Room":9895,"solange":9896,"Deutschen":9897,"omo":9898,"Werkzeug":9899,"Bemerkungen":9900,"Regen":9901,"ochter":9902,"spannung":9903,"ausgeführt":9904,"Mex":9905,"sorganis":9906,"Verfahrens":9907,"tatsäch":9908,"sensi":9909,"Genau":9910,"Marktes":9911,"tri":9912,"Rechtsstaat":9913,"geltenden":9914,"Wünsche":9915,"sorgfältig":9916,"iser":9917,"sim":9918,"esch":9919,"sph":9920,"bilater":9921,"Milch":9922,"fron":9923,"Säu":9924,"lab":9925,"Jede":9926,"Know":9927,"frem":9928,"Konfigur":9929,"Ap":9930,"Vorschlags":9931,"Back":9932,"Bew":9933,"Führungs":9934,"spf":9935,"hinzufügen":9936,"rooms":9937,"bestehende":9938,"Deswegen":9939,"schweren":9940,"Politiken":9941,"Cam":9942,"Schei":9943,"technologie":9944,"bemühen":9945,"erinnert":9946,"Digital":9947,"ré":9948,"Preisen":9949,"getrenn":9950,"UNG":9951,"drückt":9952,"individuelle":9953,"präsentieren":9954,"arität":9955,"Gefahren":9956,"WLAN":9957,"ausgegeben":9958,"ded":9959,"Best":9960,"Pub":9961,"Alp":9962,"kolle":9963,"wertung":9964,"1990":9965,"enha":9966,"Fei":9967,"niedriger":9968,"Spazier":9969,"pap":9970,"Zielen":9971,"gebrauch":9972,"III":9973,"jegliche":9974,"verehrte":9975,"zureichen":9976,"Block":9977,"air":9978,"vorlegen":9979,"Energien":9980,"dahin":9981,"heutige":9982,"Gepäck":9983,"ars":9984,"band":9985,"uropäischen":9986,"zonen":9987,"ted":9988,"via":9989,"züge":9990,"Anmerk":9991,"rucht":9992,"raten":9993,"ameter":9994,"Provinz":9995,"vorbei":9996,"schaffung":9997,"exklus":9998,"ähler":9999,"kö":10000,"Einschrän":10001,"interessant":10002,"stoß":10003,"dürfte":10004,"traditionelle":10005,"ähnlich":10006,"://":10007,"Ausmaß":10008,"Marke":10009,"Kommunikations":10010,"Vorhaben":10011,"Support":10012,"ntag":10013,"übrigens":10014,"beziehungen":10015,"Nav":10016,"ysi":10017,"Kongress":10018,"Untersuchungen":10019,"47":10020,"Erkennt":10021,"pop":10022,"mission":10023,"Neue":10024,"lokale":10025,"Fi":10026,"mt":10027,"Manager":10028,"Verbreitung":10029,"iendly":10030,"Betre":10031,"Group":10032,"Subsidi":10033,"ziele":10034,"Distribu":10035,"angt":10036,"jenen":10037,"Betrug":10038,"views":10039,"49":10040,"afri":10041,"NG":10042,"later":10043,"USS":10044,"Script":10045,"verurteilt":10046,"britische":10047,"Sur":10048,"allel":10049,"einheitlichen":10050,"Insbesondere":10051,"apie":10052,"tan":10053,"ua":10054,"Ky":10055,"startet":10056,"bemerken":10057,"Zwecke":10058,"stern":10059,"aktieren":10060,"bon":10061,"opti":10062,"verdient":10063,"Schweizer":10064,"akzeptabel":10065,"2011":10066,"plemen":10067,"antwortet":10068,"Gericht":10069,"zugang":10070,"teilungen":10071,"Flo":10072,"MB":10073,"Tim":10074,"bekannte":10075,"geschn":10076,"forma":10077,"verkaufen":10078,"Tochter":10079,"Selbstverständlich":10080,"unent":10081,"werks":10082,"verbinden":10083,"ieller":10084,"gewährt":10085,"organisieren":10086,"Besorgnis":10087,"exp":10088,"beruht":10089,"Sollte":10090,"ersetzt":10091,"lässlich":10092,"Versand":10093,"ußern":10094,"Werke":10095,"Industr":10096,"design":10097,"Balkan":10098,"ME":10099,"wechseln":10100,"Sollten":10101,"Semin":10102,"sm":10103,"verstärken":10104,"jener":10105,"ule":10106,"Wal":10107,"schluß":10108,"außerordentlich":10109,"äußern":10110,"now":10111,"einfacher":10112,"Investitions":10113,"iegel":10114,"Vorstellung":10115,"gescha":10116,"effizient":10117,"niveau":10118,"tagen":10119,"analys":10120,"tzei":10121,"Fas":10122,"Show":10123,"stammen":10124,"strategischen":10125,"beschäftigen":10126,"reduzieren":10127,"spakt":10128,"sag":10129,"entscheidende":10130,"ISO":10131,"ruhig":10132,"wege":10133,"Cook":10134,"dist":10135,"Versionen":10136,"Sektoren":10137,"Audio":10138,"Einw":10139,"}}":10140,"gerät":10141,"Amt":10142,"MO":10143,"einst":10144,"jap":10145,"ansprechen":10146,"verkauft":10147,"fle":10148,"läßt":10149,"nunmehr":10150,"ente":10151,"Wesent":10152,"erfolgreiche":10153,"Wohnung":10154,"grundsätzlich":10155,"Fußball":10156,"ltag":10157,"Städten":10158,"installieren":10159,"Tabak":10160,"erhebliche":10161,"Wandel":10162,"ities":10163,"hundert":10164,"Plug":10165,"vorhandenen":10166,"begrenzt":10167,"ata":10168,"Bedrohung":10169,"bedeutend":10170,"CS":10171,"jur":10172,"individuellen":10173,"46":10174,"Zahlung":10175,"lager":10176,"Grad":10177,"anada":10178,"DR":10179,"vorstellen":10180,"ursprünglich":10181,"Luxem":10182,"dia":10183,"Card":10184,"piel":10185,"zusammenarbeiten":10186,"wesend":10187,"zügigkeit":10188,"Betrag":10189,"02":10190,"nee":10191,"minim":10192,"Erzeugnisse":10193,"dei":10194,"bekräf":10195,"Zuge":10196,"Opposition":10197,"fied":10198,"Schulen":10199,"Urheber":10200,"Mitarbeitern":10201,"deck":10202,"gewor":10203,"sparen":10204,"entwickelte":10205,"Meister":10206,"Bereitstellung":10207,"gol":10208,"Olymp":10209,"schefs":10210,"sicheren":10211,"Player":10212,"ione":10213,"gebieten":10214,"leiste":10215,"==":10216,"inklusive":10217,"gänger":10218,"Freunden":10219,"lehnung":10220,"Nachricht":10221,"Satz":10222,"ael":10223,"Konstru":10224,"digungs":10225,"agno":10226,"aktuell":10227,"Wohlstand":10228,"Mrd":10229,"schi":10230,"iker":10231,"zweit":10232,"neun":10233,"merkt":10234,"Bör":10235,"Güter":10236,"dur":10237,"fuer":10238,"zugreifen":10239,"Kontrollen":10240,"verwaltung":10241,"bestimmter":10242,"berühr":10243,"Oder":10244,"eth":10245,"Auge":10246,"vorbereitet":10247,"Bush":10248,"xi":10249,"zuständig":10250,"unverzüglich":10251,"herzustellen":10252,"version":10253,"Satelliten":10254,"Donner":10255,"Spaß":10256,"Rechnungshof":10257,"fund":10258,"dert":10259,"Verlauf":10260,"innovative":10261,"Letz":10262,"Frankfurt":10263,"Bemerkung":10264,"ony":10265,"separ":10266,"Kopenha":10267,"aussprechen":10268,"Spitzen":10269,"kehrt":10270,"WC":10271,"oli":10272,"französische":10273,"fertigen":10274,"auchen":10275,"wiederholen":10276,"ignor":10277,"Ernähr":10278,"Staates":10279,"bewähr":10280,"ave":10281,"istischer":10282,"gess":10283,"betreiben":10284,"empfohlen":10285,"Schönheit":10286,"Hilfs":10287,"Nachhal":10288,"Belast":10289,"werken":10290,"AKP":10291,"Männern":10292,"Subsidiarität":10293,"vous":10294,"anwen":10295,"Fla":10296,"informationen":10297,"reserv":10298,"Freitag":10299,"zugrund":10300,"Bö":10301,"Arznei":10302,"Bord":10303,"artig":10304,"zielen":10305,"Geschmack":10306,"Medizin":10307,"rechtzei":10308,"beigetragen":10309,"Apartment":10310,"Finn":10311,"Systemen":10312,"Email":10313,"angegebenen":10314,"usern":10315,"Kreis":10316,"alisierten":10317,"zeuger":10318,"Belgien":10319,"Genehmigung":10320,"eingereicht":10321,"ziger":10322,"Parkplatz":10323,"42":10324,"MA":10325,"vermitteln":10326,"betreffend":10327,"Schlussfolgerungen":10328,"erfolgreichen":10329,"SO":10330,"iner":10331,"erhielt":10332,"wissenschaftliche":10333,"Ass":10334,"erlebt":10335,"Beschrän":10336,"Caf":10337,"Erstellung":10338,"virtu":10339,"syste":10340,"entscheidender":10341,"Schüler":10342,"Ehe":10343,"uche":10344,"wahlen":10345,"ders":10346,"Anstieg":10347,"Bars":10348,"auseinander":10349,"verantwortungs":10350,"Autobahn":10351,"cm":10352,"Festpl":10353,"PHP":10354,"verboten":10355,"Glaub":10356,"tigungen":10357,"800":10358,"Ima":10359,"blo":10360,"Wetter":10361,"behandlung":10362,"160":10363,"Gang":10364,"kla":10365,"gäng":10366,"großzüg":10367,"Rub":10368,"ques":10369,"klärung":10370,"kritis":10371,"Erlebnis":10372,"finanziert":10373,"zuver":10374,"unger":10375,"antast":10376,"großem":10377,"ferenzen":10378,"vieles":10379,"sozialer":10380,"%.":10381,"Beweg":10382,"Madri":10383,"Verbraucherschutz":10384,"burger":10385,"new":10386,"Geschwindigkeit":10387,"Katastrophe":10388,"Free":10389,"Ministerp":10390,"rechter":10391,"Tel":10392,"stolz":10393,"Brasilien":10394,"organ":10395,"strafe":10396,"Verfassungs":10397,"herum":10398,"gebildet":10399,"Zusätzlich":10400,"bislang":10401,"elektronischen":10402,"empfangen":10403,"leit":10404,"isol":10405,"Sicherung":10406,"Fernseh":10407,"IE":10408,"beteiligen":10409,"ics":10410,"heißen":10411,"inc":10412,"Übergangs":10413,"ley":10414,"Rechtsgrundlage":10415,"3D":10416,"still":10417,"fernen":10418,"code":10419,"menschliche":10420,"zentren":10421,"gestattet":10422,"600":10423,"chische":10424,"plom":10425,"Liter":10426,"Bos":10427,"weich":10428,"behinder":10429,"Lieferung":10430,"Konsult":10431,"Willkommen":10432,"iegen":10433,"zutage":10434,"berau":10435,"Eurozone":10436,"Glaubwürdigkeit":10437,"Vorder":10438,"Bill":10439,"eingehalten":10440,"machte":10441,"pour":10442,"uverän":10443,"gekenn":10444,"Ansichten":10445,"scheidung":10446,"offiziellen":10447,"grad":10448,"erf":10449,"Schwä":10450,"laufenden":10451,"kostenfrei":10452,"lassung":10453,"PDF":10454,"ud":10455,"ij":10456,"vari":10457,"herz":10458,"Schluß":10459,"Ägyp":10460,"eins":10461,"super":10462,"Quellen":10463,"kompliz":10464,"blau":10465,"Fü":10466,"immen":10467,"belangt":10468,"Bulgarien":10469,"Deutsche":10470,"Wähler":10471,"Peti":10472,"beobachten":10473,"zent":10474,"vorrang":10475,"mess":10476,"Pakete":10477,"weichen":10478,"erzeugt":10479,"förderung":10480,"Laut":10481,"geladen":10482,"anwesend":10483,"Videos":10484,"Beschlüsse":10485,"Konsequenzen":10486,"ision":10487,"Revolution":10488,"well":10489,"nien":10490,"solches":10491,"skrise":10492,"weilen":10493,"Positionen":10494,"Tom":10495,"Korruption":10496,"Spezi":10497,"Mie":10498,"Übersetz":10499,"wunderschönen":10500,"Wäl":10501,"Verarbeitung":10502,"kleines":10503,"konfron":10504,"vertrauen":10505,"ausgerichtet":10506,"Wär":10507,"Gerät":10508,"übt":10509,"einbezogen":10510,"zenten":10511,"isser":10512,"Aufent":10513,"Sohn":10514,"offenbar":10515,"Zivilgesellschaft":10516,"Sau":10517,"ets":10518,"gebühr":10519,"geraten":10520,"Gewährleistung":10521,"Gegenstand":10522,"integriert":10523,"geschichte":10524,"Kroatien":10525,"bereichen":10526,"einzigartigen":10527,"Alpen":10528,"mittleren":10529,"künstler":10530,"ennung":10531,"wiederholt":10532,"Contr":10533,"Pfer":10534,"investieren":10535,"potenziel":10536,"Eigentum":10537,"Client":10538,"liehen":10539,"allzu":10540,"unvergess":10541,"nier":10542,"Überlegungen":10543,"EP":10544,"EZB":10545,"Baum":10546,"verd":10547,"wiegend":10548,"Verhaltens":10549,"dite":10550,"erkennt":10551,"verhältnis":10552,"Residen":10553,"ausschau":10554,"strebt":10555,"Konzep":10556,"Gerech":10557,"Reduzierung":10558,"Transa":10559,"folgung":10560,"verteidigen":10561,"sym":10562,"hört":10563,"bedeutende":10564,"EADS":10565,"68":10566,"Modelle":10567,"weitgehend":10568,"gesetzten":10569,"Verletzung":10570,"geführten":10571,"bereitgestellt":10572,"Darum":10573,"Saison":10574,"begriffen":10575,"verbindet":10576,"voranzu":10577,"hältnisse":10578,"fikation":10579,"letzter":10580,"plus":10581,"Prozesse":10582,"lem":10583,"CC":10584,"anbelangt":10585,"origin":10586,"schnit":10587,"Newsletter":10588,"ory":10589,"Orte":10590,"Vizep":10591,"Anwesen":10592,"internen":10593,"sproble":10594,"demokraten":10595,"urteilung":10596,"vorange":10597,"ranten":10598,"ativer":10599,"Kontakte":10600,"ähnliche":10601,"matischen":10602,"Anlass":10603,"klassi":10604,"Werbe":10605,"HO":10606,"uchte":10607,"Para":10608,"Bor":10609,"Van":10610,"mussten":10611,"beantworten":10612,"schlechter":10613,"Gerechtigkeit":10614,"Widerspruch":10615,"Joh":10616,"häfen":10617,"ump":10618,"letztendlich":10619,"Mission":10620,"Latein":10621,"nör":10622,"Verzö":10623,"genügend":10624,"hinweg":10625,"reicher":10626,"Respekt":10627,"zungen":10628,"gepf":10629,"emp":10630,"schiff":10631,"Schon":10632,"Entfern":10633,"Entlastung":10634,"Alex":10635,"übergreifen":10636,"grosse":10637,"Put":10638,"esien":10639,"Übergang":10640,"Erfüllung":10641,"Modu":10642,"angenehm":10643,"zte":10644,"WF":10645,"Kollegin":10646,"Donnerstag":10647,"einzusetzen":10648,"gründen":10649,"set":10650,"inmitten":10651,"Stoffe":10652,"wirtschaften":10653,"ost":10654,"play":10655,"reduziert":10656,"sträger":10657,"Schwimm":10658,"bekommt":10659,"Armee":10660,"begeg":10661,"ordnungen":10662,"Stei":10663,"Eingang":10664,"Präsent":10665,"ulation":10666,"Traum":10667,"Planeten":10668,"äumt":10669,"Schiffe":10670,"Augenblick":10671,"Übrigen":10672,"Ausschü":10673,"Prag":10674,"islam":10675,"post":10676,"werb":10677,"1994":10678,"individuell":10679,"Praktiken":10680,"steuern":10681,"langfristige":10682,"igner":10683,"schafts":10684,"Nik":10685,"geteilt":10686,"Jur":10687,"Textil":10688,"Übernachtung":10689,"Grünen":10690,"überprüft":10691,"fehler":10692,"strichen":10693,"Sm":10694,"ient":10695,"erstmals":10696,"beeinträch":10697,"ugen":10698,"grös":10699,"ssysteme":10700,"matische":10701,"ssig":10702,"hänomen":10703,"Camping":10704,"usion":10705,"Ebenen":10706,"Wirtschaftswachstum":10707,"eur":10708,"”.":10709,"ernsthaft":10710,"ersetzen":10711,"olo":10712,"worfen":10713,"verteilt":10714,"speichern":10715,"geld":10716,"Islam":10717,"tisches":10718,"GN":10719,"Suiten":10720,"Kulturen":10721,"Bat":10722,"Hardware":10723,"Rati":10724,"vorzulegen":10725,"Trotzdem":10726,"geleitet":10727,"manche":10728,"ward":10729,"breakfast":10730,"Objekt":10731,"geschafft":10732,"Dynam":10733,"gelingt":10734,"Zucker":10735,"Entscheidungs":10736,"Dokumenten":10737,"cs":10738,"forman":10739,"Straß":10740,"behaupten":10741,"oni":10742,"fäng":10743,"intelligen":10744,"Gottes":10745,"uti":10746,"Gemü":10747,"Wählen":10748,"Konzern":10749,"Sonntag":10750,"rot":10751,"Anwender":10752,"steuropa":10753,"programme":10754,"kampf":10755,"Gerade":10756,"erre":10757,"Gefäng":10758,"künftige":10759,"militärischen":10760,"hlung":10761,"Stamm":10762,"Brenn":10763,"dienstleistungen":10764,"Rückkehr":10765,"weisungen":10766,"unterscheiden":10767,"Update":10768,"zukünftigen":10769,"Käufer":10770,"derer":10771,"betten":10772,"gerech":10773,"won":10774,"offene":10775,"institutionelle":10776,"glichkeit":10777,"effizienz":10778,"nel":10779,"prozess":10780,"steigt":10781,"gemeinschaftlichen":10782,"mitglieder":10783,"swerte":10784,"Konver":10785,"kos":10786,"án":10787,"Ker":10788,"England":10789,"fi":10790,"militärische":10791,"ahlt":10792,"herstellung":10793,"Veränderung":10794,"Leiden":10795,"schläge":10796,"gedacht":10797,"oth":10798,"Fahrzeuge":10799,"optimale":10800,"gner":10801,"angepasst":10802,"igungen":10803,"ination":10804,"dauert":10805,"Sammlung":10806,"ika":10807,"day":10808,"Tätigkeiten":10809,"verfügbaren":10810,"irl":10811,"Gleichstellung":10812,"Subst":10813,"willigen":10814,"bedro":10815,"illegalen":10816,"konfrontiert":10817,"fuhr":10818,"kurrenz":10819,"Prozesses":10820,"Gehminuten":10821,"fiel":10822,"gressi":10823,"pu":10824,"enger":10825,"erwähnen":10826,"Cop":10827,"Wä":10828,"nes":10829,"riere":10830,"Santa":10831,"tö":10832,"Perspektive":10833,"aria":10834,"fähigen":10835,"hierbei":10836,"versichern":10837,"Herbst":10838,"Cro":10839,"leiter":10840,"kin":10841,"Transfer":10842,"geprägt":10843,"Situationen":10844,"Hunder":10845,"gericht":10846,"konzentriert":10847,"spreche":10848,"Bestä":10849,"grenze":10850,"Betten":10851,"beendet":10852,"2013":10853,"Passwort":10854,"brochen":10855,"bergen":10856,"prob":10857,"Modul":10858,"Flüchtlinge":10859,"häl":10860,"dans":10861,"geschnitten":10862,".“":10863,"Michael":10864,"Ergän":10865,"Argument":10866,"which":10867,"solid":10868,"unterstreichen":10869,"bestimmungen":10870,"unabhängigen":10871,"Organe":10872,"85":10873,"hervorgehoben":10874,"osophie":10875,"Existenz":10876,"Frist":10877,"optimal":10878,"deswegen":10879,"dring":10880,"vorgesehenen":10881,"tex":10882,"führungs":10883,"Montag":10884,"Alltag":10885,"män":10886,"umfassend":10887,"unterzeichnet":10888,"Branche":10889,"Wall":10890,"Dikt":10891,"web":10892,"USB":10893,"Premierminister":10894,"lah":10895,"wirksame":10896,"strategische":10897,"ION":10898,"sproz":10899,"brachte":10900,"Pu":10901,"oc":10902,"Sind":10903,"ädchen":10904,"Regierungschefs":10905,"Administ":10906,"achsen":10907,"Fahrt":10908,"Schick":10909,"Renten":10910,"ena":10911,"Demon":10912,"Nachbarn":10913,"äle":10914,"kontaktieren":10915,"Genießen":10916,"Statt":10917,"Exe":10918,"zweck":10919,"Peter":10920,"vollständigen":10921,"Freizügigkeit":10922,"erfreut":10923,"zivil":10924,"Ag":10925,"unzureichen":10926,"bern":10927,"Commun":10928,"mitteilen":10929,"Fernsehen":10930,"sprinzip":10931,"Kub":10932,"List":10933,"analy":10934,"Ablehnung":10935,"Lernen":10936,"unterliegen":10937,"Ausflüge":10938,"ugos":10939,"Runde":10940,"läuter":10941,"gelegenen":10942,"erhoben":10943,"angebracht":10944,"günstige":10945,"Pläne":10946,"größeres":10947,"lieber":10948,"ema":10949,"ual":10950,"bisherigen":10951,"stör":10952,"öffnung":10953,"Festival":10954,"Märkten":10955,"Abhängigkeit":10956,"Kas":10957,"Umsatz":10958,"knapp":10959,"kir":10960,"Main":10961,"sc":10962,"Leitung":10963,"Austr":10964,"anzig":10965,"produzieren":10966,"Geburt":10967,"Sachen":10968,"etabl":10969,"Flugzeug":10970,"Föder":10971,"rent":10972,"43":10973,"Vereinfach":10974,"fährt":10975,"flexib":10976,"Madrid":10977,"Weiteren":10978,"Kanada":10979,"staats":10980,"abstimmen":10981,"Profil":10982,"Urlaubs":10983,"garten":10984,"Finanzierungs":10985,"Filter":10986,"aden":10987,"genaue":10988,"Nachhaltigkeit":10989,"erziel":10990,"indire":10991,"mater":10992,"Betreiber":10993,"vorgeschlagene":10994,"sproje":10995,"personenbezogen":10996,"aktiviert":10997,"ai":10998,"wn":10999,"anger":11000,"zir":11001,"omas":11002,"genauer":11003,"Abendessen":11004,"Abschaffung":11005,"fizit":11006,"winden":11007,"ußer":11008,"extra":11009,"itter":11010,"izza":11011,"sogenannten":11012,"Häuser":11013,"Fire":11014,"ergibt":11015,"mitglied":11016,"Street":11017,"Fab":11018,"angekün":11019,"zukünftige":11020,"egal":11021,"Äußer":11022,"arus":11023,"Finanzkrise":11024,"Steuerung":11025,"Komplex":11026,"gewisser":11027,"Volkes":11028,"Lim":11029,"stärk":11030,"verdienen":11031,"Modernis":11032,"werben":11033,"lichten":11034,"Aqu":11035,"achter":11036,"ärten":11037,"unabhängige":11038,"Atlan":11039,"methoden":11040,"ille":11041,"Katastrophen":11042,"ml":11043,"asia":11044,"Vorlage":11045,"eingegangen":11046,"wahren":11047,"anschließend":11048,"veranstal":11049,"Distribution":11050,"anhalten":11051,"Burg":11052,"ossen":11053,"stunde":11054,"bewuß":11055,"House":11056,"Spekt":11057,"Außenminister":11058,"natürliche":11059,"sprogramme":11060,"Verfasser":11061,"elektr":11062,"ole":11063,"Allianz":11064,"inden":11065,"verm":11066,"jahres":11067,"sorganisation":11068,"asy":11069,"enge":11070,"anhand":11071,"Paul":11072,"fleisch":11073,"Aufsichts":11074,"Bevölkerungs":11075,"langfristig":11076,"praktische":11077,"sammeln":11078,"Widerstand":11079,"Lobby":11080,"41":11081,"User":11082,"ugoslaw":11083,"ose":11084,"ical":11085,"könnt":11086,"Erinnerung":11087,"charakter":11088,"Hamburg":11089,"gene":11090,"Arbeiter":11091,"sprozesses":11092,"beur":11093,"Brand":11094,"lehnen":11095,"herunterladen":11096,"hochwertige":11097,"Flash":11098,"hingegen":11099,"Heil":11100,"Komment":11101,"box":11102,"Lehrer":11103,");":11104,"VP":11105,"twicklung":11106,"gewähren":11107,"Entspannung":11108,"angeneh":11109,"gebeten":11110,"wachsenden":11111,"infolge":11112,"behoben":11113,"leidung":11114,"doppel":11115,"agements":11116,"legiti":11117,"Fahrer":11118,"Konflikte":11119,"umfangreiche":11120,"üne":11121,"Frühstücksbuffet":11122,"festzulegen":11123,"Bett":11124,"beschränken":11125,"Andere":11126,"kette":11127,"comp":11128,"ía":11129,"demie":11130,"Attra":11131,"Grundlagen":11132,"spiegelt":11133,"Berichten":11134,"Volksgesundheit":11135,"debat":11136,"Verteilung":11137,"ild":11138,"konvention":11139,"auspiel":11140,"Oliven":11141,"geworfen":11142,"cellen":11143,"enthaltenen":11144,"freu":11145,"clean":11146,"bir":11147,"bestellen":11148,"beschreibung":11149,"Befür":11150,"anzuzeigen":11151,"Kapit":11152,"250":11153,"besonderer":11154,"Master":11155,"komplette":11156,"Lok":11157,"ümer":11158,"iers":11159,"Linien":11160,"PR":11161,"Bern":11162,"korrekt":11163,"zugrunde":11164,"bevölker":11165,"normalerweise":11166,"Himmel":11167,"bring":11168,"Befugnisse":11169,"Kirchen":11170,"fördert":11171,"vot":11172,"Bearbeitung":11173,"Binnenmarktes":11174,"senken":11175,"ICHT":11176,"vereinbart":11177,"lösungen":11178,"gelesen":11179,"riff":11180,"fferenz":11181,"dargestellt":11182,"Vorausschau":11183,"Medikamen":11184,"kontrollieren":11185,"Los":11186,"dankbar":11187,"Fu":11188,"ED":11189,"Cat":11190,"träge":11191,"Generationen":11192,"zurückzuführen":11193,"normalen":11194,"vidu":11195,"Barroso":11196,"Investoren":11197,"Wiederaufbau":11198,"freundlichen":11199,"120":11200,"ausser":11201,"sichtbar":11202,"hte":11203,"klim":11204,"orten":11205,"mittlungs":11206,"arbeitete":11207,"Zy":11208,"erfordern":11209,"hervorragenden":11210,"gefasst":11211,"Schlacht":11212,"jetzigen":11213,"uchs":11214,"schnellen":11215,"Optim":11216,"vorliegende":11217,"geblieben":11218,"hohem":11219,"ape":11220,"perfekte":11221,"Reservierung":11222,"igungs":11223,"arbeits":11224,"griechischen":11225,"Maschine":11226,"unktur":11227,"act":11228,"oppelt":11229,"portug":11230,"Metall":11231,"Ursachen":11232,"reten":11233,"glicher":11234,"Koch":11235,"ökonomischen":11236,"Meines":11237,"Weltkrieg":11238,"aufgebaut":11239,"Parameter":11240,"kunst":11241,"Kohlen":11242,"fantast":11243,"Hof":11244,"onomie":11245,"Leiter":11246,"Verhandlungs":11247,"Gewerk":11248,"Beteiligten":11249,"Tennis":11250,"bek":11251,"Geschen":11252,"nachdrücklich":11253,"Individu":11254,"Passag":11255,"Rechten":11256,"Serbien":11257,"eldungen":11258,"wonach":11259,"Abfall":11260,"einheitliche":11261,"Franz":11262,"erzeug":11263,"umin":11264,"bezahlt":11265,"sem":11266,"TER":11267,"trat":11268,"Applik":11269,"nische":11270,"Zahlungen":11271,"ötz":11272,"entdeckt":11273,"externen":11274,"Kriminalität":11275,"Pic":11276,"Spielen":11277,"aturen":11278,"Heizung":11279,"froh":11280,"Möbel":11281,"rechnen":11282,"Bereitschaft":11283,"Registrierung":11284,"uth":11285,"partei":11286,"enorme":11287,"Faktor":11288,"Jahrzehnten":11289,"Ps":11290,"Zul":11291,"sorgungs":11292,"Gefangen":11293,"geplant":11294,"Johann":11295,"gewünschten":11296,"een":11297,"ipp":11298,"junktur":11299,"spolitischen":11300,"Wochenende":11301,"alisierte":11302,"Internationale":11303,"Kab":11304,"gestaltung":11305,"nügen":11306,"beauftragten":11307,"niederlän":11308,"Stärke":11309,"konfigur":11310,"mot":11311,"zusammenzu":11312,"Galer":11313,"hro":11314,"korrig":11315,"Schuld":11316,"steigern":11317,"fakt":11318,"aku":11319,"humanitäre":11320,"überaus":11321,"Ruf":11322,"ias":11323,"bewe":11324,"Korre":11325,"EB":11326,"IK":11327,"aux":11328,"Dreh":11329,"Eli":11330,"ada":11331,"bewältigen":11332,"Resort":11333,"utzutage":11334,"ctor":11335,"TS":11336,"existiert":11337,"Dass":11338,"Alkohol":11339,"Zeitung":11340,"ights":11341,"Verzeichnis":11342,"festgelegten":11343,"Wissens":11344,"Media":11345,"hard":11346,"Großteil":11347,"hoffentlich":11348,"Quelle":11349,"Entwickler":11350,"Diplom":11351,"klassischen":11352,"Würde":11353,"Vertrages":11354,"Darstellung":11355,"gefragt":11356,"technisch":11357,"Vertrieb":11358,"Agenturen":11359,"radik":11360,"umsetzen":11361,"Öffnung":11362,"qualitativ":11363,"tifizierung":11364,"Spar":11365,"linken":11366,"Weih":11367,"Schreiben":11368,"Denken":11369,"Seele":11370,"arbeitungs":11371,"ING":11372,"atlan":11373,"Zugangs":11374,"Gemeinsame":11375,"Roy":11376,"Rechtsstaatlichkeit":11377,"Euch":11378,"Tausende":11379,"Truppen":11380,"ausgaben":11381,"Vari":11382,"untersucht":11383,"einzuführen":11384,"exzellen":11385,"Assozi":11386,"mittlerweile":11387,"Zone":11388,"bedanken":11389,"erkannt":11390,"erweitern":11391,"Innenstadt":11392,"effiziente":11393,"eingestellt":11394,"berichten":11395,"deln":11396,"Phänomen":11397,"mutzung":11398,"Album":11399,"kamer":11400,"komfortable":11401,"Beide":11402,"stammt":11403,"hiel":11404,"vide":11405,"Armen":11406,"Auseinander":11407,"organisation":11408,"Speisen":11409,"Stiftung":11410,"Bewusst":11411,"tial":11412,"gefügt":11413,"wärts":11414,"Währungsunion":11415,"unentgelt":11416,"Französ":11417,"arma":11418,"klasse":11419,"Soft":11420,"Museen":11421,"portugies":11422,"arische":11423,"kapital":11424,"ästinenser":11425,"Quali":11426,"yle":11427,"Palästinenser":11428,"beruhen":11429,"verhandlungen":11430,"ney":11431,"roman":11432,"türkischen":11433,"Anreise":11434,"eilung":11435,"gek":11436,"begleitet":11437,"1000":11438,"wald":11439,"bela":11440,"verwende":11441,"beeinflus":11442,"Immer":11443,"Fahrrad":11444,"reiten":11445,"zugelassen":11446,"Bibliothek":11447,"Kreditkarte":11448,"überwinden":11449,"diskrimin":11450,"Dritte":11451,"hierfür":11452,"nord":11453,"film":11454,"Via":11455,"frühen":11456,"TP":11457,"Debatten":11458,"Pakistan":11459,"Kategorien":11460,"gemel":11461,"diterr":11462,"gebäu":11463,"stay":11464,"Bücher":11465,"wehr":11466,"Amerikaner":11467,"natur":11468,"verweisen":11469,"software":11470,"graben":11471,"grossen":11472,"besorgt":11473,"Quad":11474,"SA":11475,"Besei":11476,"Präsen":11477,"stud":11478,"nützlich":11479,"tifik":11480,"Fehl":11481,"Versorgung":11482,"enttäu":11483,"armen":11484,"statist":11485,"plomati":11486,"Tha":11487,"kons":11488,"angewendet":11489,"Gelder":11490,"tir":11491,"Reihen":11492,"fähige":11493,"Maria":11494,"stattfindet":11495,"dafrika":11496,"Mi":11497,"anzun":11498,"politisches":11499,"Zut":11500,"märkten":11501,"luxuriö":11502,"syn":11503,"Revision":11504,"Gei":11505,"Erhaltung":11506,"Ausblick":11507,"vorschläge":11508,"Gal":11509,"PPE":11510,"gestärkt":11511,"orte":11512,"Karl":11513,"Kopenhagen":11514,"Vereinfachung":11515,"leute":11516,"Autos":11517,"Arbeitgeber":11518,"Wärme":11519,"irischen":11520,"Andre":11521,"schte":11522,"Berliner":11523,"Cal":11524,"Wichtig":11525,"Mädchen":11526,"keinem":11527,"Zür":11528,"ior":11529,"trieben":11530,"festen":11531,"qui":11532,"uft":11533,"Luxemburg":11534,"Bestimmung":11535,"vornehmen":11536,"stärkere":11537,"Spr":11538,"Rechner":11539,"beenden":11540,"Slowak":11541,"Impul":11542,"Haben":11543,"Filme":11544,"Belarus":11545,"gegenwärtige":11546,"Überblick":11547,"Handlungs":11548,"kapaz":11549,"stimmungs":11550,"gast":11551,"kämpft":11552,"Kühl":11553,"Branchen":11554,"zerstört":11555,"erleichter":11556,"andelt":11557,"umzu":11558,"begeister":11559,"haftet":11560,"Drittel":11561,"geäußert":11562,"900":11563,"bedeut":11564,"kro":11565,"erzeugen":11566,"zeige":11567,"ty":11568,"ike":11569,"frischen":11570,"Kreuz":11571,"lädt":11572,"rec":11573,"Nachbarschaft":11574,"Straßburg":11575,"Rh":11576,"arn":11577,"Effekt":11578,"überlassen":11579,"Kampagne":11580,"ziehung":11581,"Fotograf":11582,"digitalen":11583,"Potenzial":11584,"Somit":11585,"Katalog":11586,"Schlag":11587,"Archiv":11588,"Niederlanden":11589,"mord":11590,"opol":11591,"board":11592,"Schauspiel":11593,"A5":11594,"Tonnen":11595,"spräsidenten":11596,"hafter":11597,"1992":11598,"gesetzlichen":11599,"herrlichen":11600,"Elektro":11601,"valu":11602,"Strecke":11603,"Suite":11604,"ologisch":11605,"merz":11606,"Wirtschaftskrise":11607,"ool":11608,"recher":11609,"sonsten":11610,"geeignete":11611,"archite":11612,"Wesentlichen":11613,"Sob":11614,"urm":11615,"Beseitigung":11616,"alem":11617,"mangeln":11618,"angemessenen":11619,"behält":11620,"sichergestellt":11621,"Energieeffizienz":11622,"Job":11623,"äter":11624,"Hauptbahnhof":11625,"boden":11626,"ves":11627,"faszin":11628,"lichem":11629,"bares":11630,"Parti":11631,"selber":11632,"Minist":11633,"muse":11634,"zuverläss":11635,"herauszu":11636,"modified":11637,"Teams":11638,"itent":11639,"dos":11640,"hersteller":11641,"Berichterstatters":11642,"Doppelzimmer":11643,"Aufenthalts":11644,"Pflege":11645,"gentin":11646,"Telekommunik":11647,"anzeigen":11648,"eigener":11649,"Mandat":11650,"Varian":11651,"ams":11652,"Mexiko":11653,"Parkplätze":11654,"Corpor":11655,"verschär":11656,"Mechanismen":11657,"Ferienwohnung":11658,"gleichermaßen":11659,"eiler":11660,"ragend":11661,"staun":11662,"Mes":11663,"uel":11664,"integrierten":11665,"Regulierung":11666,"Wissenschaftler":11667,"TEN":11668,"untersuchen":11669,"kontrolliert":11670,"avec":11671,"erraum":11672,"Parlamente":11673,"zeichnungen":11674,"schulen":11675,"greift":11676,"imming":11677,"ones":11678,"diplomati":11679,"bedeutenden":11680,"negativen":11681,"()":11682,"Zauber":11683,"quer":11684,"Extre":11685,"anerkann":11686,"verlän":11687,"ahme":11688,"Investition":11689,"Bewusstsein":11690,"kol":11691,"sterben":11692,"Länge":11693,"Sieg":11694,"psych":11695,"TH":11696,"sts":11697,"gebühren":11698,"lingen":11699,"hierzu":11700,"spät":11701,"zukommen":11702,"spezialisiert":11703,"Lohn":11704,"aßt":11705,"diesbezüglich":11706,"Verhandlung":11707,"Eigentums":11708,"ergänzt":11709,"rechtzeitig":11710,"Tsch":11711,"Bildschirm":11712,"leger":11713,"Andererseits":11714,"VER":11715,"hast":11716,"schalten":11717,"konkret":11718,"Jean":11719,"ст":11720,"sprechend":11721,"Zins":11722,"ili":11723,"Übertragung":11724,"Works":11725,"gesichert":11726,"langfristigen":11727,"Dingen":11728,"zuzu":11729,"Schnell":11730,"unmittelbarer":11731,"terrasse":11732,"verwei":11733,"zweitens":11734,"kretär":11735,"territ":11736,"atem":11737,"anzubieten":11738,"verknü":11739,"Däne":11740,"fizi":11741,"Souverän":11742,"offizielle":11743,"errichtet":11744,"Benutzung":11745,"besucht":11746,"ador":11747,"gefühl":11748,"loser":11749,"ländliche":11750,"ermutigen":11751,"Zusammenhalt":11752,"IWF":11753,"ras":11754,"agentur":11755,"Journalisten":11756,"langer":11757,"regionen":11758,"(\"":11759,"Hat":11760,"VO":11761,"Mängel":11762,"strom":11763,"Projekts":11764,"schla":11765,"denjenigen":11766,"Et":11767,"termin":11768,"halle":11769,"Verteidigungs":11770,"müsste":11771,"Est":11772,"rechtlich":11773,"Urteil":11774,"wirklichung":11775,"Oberfläche":11776,"Tests":11777,"Ereignis":11778,"erg":11779,"telle":11780,"bewahren":11781,"Muster":11782,"baus":11783,"Senkung":11784,"auffordern":11785,"Ausgleich":11786,"rink":11787,"Wand":11788,"unglaub":11789,"tragt":11790,"Dör":11791,"Ägypten":11792,"count":11793,"Gebühren":11794,"gekennzeichnet":11795,"Modernisierung":11796,"Gegner":11797,"bio":11798,"lationen":11799,"exper":11800,"Trek":11801,"alender":11802,"Sicherheitspolitik":11803,"Jose":11804,"unterbrochen":11805,"Samstag":11806,"Jugendlichen":11807,"Präsenz":11808,"desto":11809,"motiv":11810,"Sozi":11811,"Lesen":11812,"lanz":11813,"lässig":11814,"Todesstrafe":11815,"Gent":11816,"Syr":11817,"nehmlichkeiten":11818,"Berge":11819,"Box":11820,"Office":11821,"Appartements":11822,"Fül":11823,"trau":11824,"ès":11825,"aufs":11826,"Schwellen":11827,"gültig":11828,"Emissions":11829,"Schengen":11830,"Engine":11831,"Betracht":11832,"schreck":11833,"But":11834,"there":11835,"erklärte":11836,"Dialogs":11837,"beinhalten":11838,"derzeitige":11839,"landschaft":11840,"gehende":11841,"Metro":11842,"Klaus":11843,"Höchst":11844,"66":11845,"arium":11846,"kümmern":11847,"däm":11848,"entscheidenden":11849,"Mem":11850,"ista":11851,"mehrfach":11852,"pression":11853,"Bedürfnissen":11854,"Hindernisse":11855,"Minute":11856,"rt":11857,"Frühjahr":11858,"kompati":11859,"effektive":11860,"finanzieren":11861,"Profession":11862,"Brief":11863,"Gaz":11864,"Result":11865,"schlechte":11866,"anischer":11867,"Berech":11868,"Stör":11869,"leihen":11870,"Vertretern":11871,"Konzent":11872,"seher":11873,"luste":11874,"CP":11875,"mäßige":11876,"Wohnzimmer":11877,"typischen":11878,"Hohe":11879,"city":11880,"rest":11881,"Rock":11882,"SV":11883,"ura":11884,"hrase":11885,"quenz":11886,"Umweltfragen":11887,"erwor":11888,"Venedig":11889,"rats":11890,"läufig":11891,"Gemeinschaften":11892,"eventuell":11893,"verg":11894,"comfort":11895,"Innovationen":11896,"Begrün":11897,"aktivitäten":11898,"mitzu":11899,"Ausbau":11900,"kostenlose":11901,"angenehmen":11902,"Mechanismus":11903,"grünen":11904,"Benutzern":11905,"ausgewählt":11906,"hielten":11907,"terie":11908,"vorgestellt":11909,"Ablauf":11910,"Haar":11911,"\")":11912,"nice":11913,"Weil":11914,"getreten":11915,"Anhör":11916,"Beachtung":11917,"Versammlung":11918,"festzustellen":11919,"Zuverläss":11920,"professionelle":11921,"zwanzig":11922,"Fuss":11923,"Handy":11924,"unentgeltlich":11925,"anzunehmen":11926,"lings":11927,"verletzt":11928,"Bereits":11929,"verletzungen":11930,"Green":11931,"setzte":11932,"Ergebnissen":11933,"Dir":11934,"aktion":11935,"Werten":11936,"kauft":11937,"gefährdet":11938,"Mül":11939,"nachts":11940,"Ratifizierung":11941,"Bir":11942,"inhalt":11943,"Wirksamkeit":11944,"branche":11945,"amin":11946,"wartet":11947,"praktischen":11948,"versammlung":11949,"gewid":11950,"Fläche":11951,"more":11952,"paket":11953,"Roll":11954,"funk":11955,"1993":11956,"plant":11957,"Veranstaltungs":11958,"Dokumentation":11959,"müssten":11960,"müß":11961,"Resol":11962,"Vizepräsident":11963,"berechnet":11964,"Verwirklichung":11965,"Sied":11966,"Schalt":11967,"wesentlicher":11968,"heil":11969,"Ansprüche":11970,"befasst":11971,"Hinweise":11972,"tisierung":11973,"Sobald":11974,"ehrten":11975,"Spezialitäten":11976,"Sat":11977,"bö":11978,"beeinflussen":11979,"ôtel":11980,"Betreuung":11981,"formance":11982,"beun":11983,"älteren":11984,"realer":11985,"FA":11986,"integrierte":11987,"GAP":11988,"verank":11989,"Errichtung":11990,"Inflation":11991,"Ech":11992,"ev":11993,"Aussage":11994,"Finnland":11995,"beabsichtigt":11996,"beding":11997,"läuf":11998,"Schwarz":11999,"Vorrang":12000,"geschickt":12001,"Ram":12002,"Zerstör":12003,"weltweite":12004,"gewählten":12005,"Obst":12006,"cour":12007,"gebau":12008,"sichert":12009,"Training":12010,"Kommand":12011,"nehme":12012,"günstigen":12013,"Zuverlässigkeit":12014,"niedrig":12015,"Quar":12016,"free":12017,"Lieferanten":12018,"Anmeldung":12019,"Alters":12020,"Datum":12021,"häuf":12022,"regelung":12023,"angewandt":12024,"hinein":12025,"fic":12026,"itionen":12027,"republik":12028,"geregelt":12029,"terror":12030,"Georgien":12031,"Mitent":12032,"Treib":12033,"Nachmittag":12034,"illegale":12035,"palästinensischen":12036,"oftmals":12037,"dates":12038,"Besuchen":12039,"reichhal":12040,"Entfernung":12041,"geführte":12042,"like":12043,"Airport":12044,"acher":12045,"Repar":12046,"iums":12047,"stem":12048,"Sex":12049,"verfolg":12050,"Auftrags":12051,"Zeitplan":12052,"Wirtschaftspolitik":12053,"humanitären":12054,"ausüben":12055,"Lounge":12056,"chinesische":12057,"gerechte":12058,"Köl":12059,"jedenfalls":12060,"Holl":12061,"übersch":12062,"gäste":12063,"einstimm":12064,"bezeichnen":12065,"konzip":12066,"Kohäsionspolitik":12067,"Hall":12068,"wi":12069,"europäisches":12070,"wirkliche":12071,"Mall":12072,"Trau":12073,"soeben":12074,"begleiten":12075,"bewerten":12076,"blen":12077,"renoviert":12078,"gewiss":12079,"Gespräch":12080,"anzuwenden":12081,"rolle":12082,"ère":12083,"Stimm":12084,"schwere":12085,"erwiesen":12086,"gebnis":12087,"David":12088,"resul":12089,"LT":12090,"regierung":12091,"genz":12092,"Räume":12093,"isation":12094,"längst":12095,"Patent":12096,"Lou":12097,"Beach":12098,"Entwicklungshilfe":12099,"tlicher":12100,"Check":12101,"Gö":12102,"RA":12103,"VI":12104,"becken":12105,"schwierige":12106,"ause":12107,"Saint":12108,"restaurant":12109,"Jack":12110,"Einen":12111,"Vorstellungen":12112,"wohn":12113,"demon":12114,"gton":12115,"chester":12116,"Jes":12117,"kn":12118,"aufzubauen":12119,"Mehrwertsteuer":12120,"BM":12121,"face":12122,"phe":12123,"inger":12124,"autor":12125,"sprodu":12126,"öhnen":12127,"Aufzug":12128,"Navig":12129,"Jung":12130,"italienische":12131,"lenken":12132,"ansehen":12133,"Ausarbeitung":12134,"wart":12135,"Strände":12136,"berauben":12137,"77":12138,"fugen":12139,"festlegen":12140,"haltungs":12141,"grafischen":12142,"Empfänger":12143,"gal":12144,"mäßigen":12145,"Gipf":12146,"plötz":12147,"Betriebe":12148,"weitung":12149,"verbreitet":12150,"Rechen":12151,"Philosophie":12152,"multilater":12153,"Wunder":12154,"vorzunehmen":12155,"gefährlich":12156,"Sektors":12157,"JavaScript":12158,"deckung":12159,"utung":12160,"belg":12161,"existieren":12162,"instrument":12163,"Komplett":12164,"Bol":12165,"Spitze":12166,"Erfordern":12167,"geschmack":12168,"momentan":12169,"Fang":12170,"berühmte":12171,"ious":12172,"Dring":12173,"Chem":12174,"legisla":12175,"Beschluß":12176,"Kolon":12177,"Wohnungen":12178,"Hügel":12179,"Rab":12180,"andal":12181,"GU":12182,"übung":12183,"88":12184,"Graf":12185,"Luftfahrt":12186,"ji":12187,"helpf":12188,"Referend":12189,"PRO":12190,"Traditionen":12191,"appell":12192,"christ":12193,"700":12194,"Wi":12195,"Beste":12196,"Jer":12197,"bab":12198,"erneu":12199,"Akteure":12200,"geliefert":12201,"kost":12202,"Zü":12203,"Arbeitnehmern":12204,"chern":12205,"ECU":12206,"Fast":12207,"Flughäfen":12208,"Visa":12209,"iven":12210,"zicht":12211,"Weiterentwicklung":12212,"(*":12213,"hoh":12214,"Vermittlungs":12215,"ochen":12216,"stätten":12217,"Normal":12218,"verringert":12219,"Garan":12220,"zahler":12221,"Migration":12222,"Bele":12223,"m2":12224,"Bewert":12225,"anner":12226,"gelö":12227,"tiere":12228,"cos":12229,"foto":12230,"pg":12231,"inspir":12232,"steckt":12233,"hervorragend":12234,"Bonus":12235,"Florenz":12236,"Prim":12237,"Auflösung":12238,"täglichen":12239,"Zwar":12240,"card":12241,"jor":12242,"küste":12243,"Argumente":12244,"Regul":12245,"ehemalige":12246,"Prozeß":12247,"uminium":12248,"Sowje":12249,"Verkaufs":12250,"angeschlossen":12251,"entfernen":12252,"etr":12253,"Werden":12254,"Jedoch":12255,"ahe":12256,"Ticket":12257,"KOM":12258,"Interess":12259,"Fremdenverkehr":12260,"domin":12261,"stellern":12262,"kompliziert":12263,"Konzert":12264,"Rü":12265,"ited":12266,"stechnik":12267,"Anhän":12268,"würdigen":12269,"systemen":12270,"versteht":12271,"Finde":12272,"ungew":12273,"gesellschaftlichen":12274,"europa":12275,"Bildern":12276,"füllt":12277,"Volkswirtschaften":12278,"Cle":12279,"Konkurrenz":12280,"tsche":12281,"Rie":12282,"röm":12283,"sentwurf":12284,"Krieges":12285,"NL":12286,"durchschnitt":12287,"Mass":12288,"ileg":12289,"Nizza":12290,"Ausweitung":12291,"betracht":12292,"beseitigen":12293,"ão":12294,"Konjunktur":12295,"Weltwirtschaft":12296,"ology":12297,"Cookies":12298,"Tenden":12299,"beschä":12300,"Ratschlag":12301,"bot":12302,"Orten":12303,"interne":12304,"ograph":12305,"schreibt":12306,"schm":12307,"urlaub":12308,"Press":12309,"Histor":12310,"erteilt":12311,"Bevor":12312,"entral":12313,"Monte":12314,"überwachen":12315,"ela":12316,"Mode":12317,"Vorsitzenden":12318,"tert":12319,"bearbeiten":12320,"Versicherungs":12321,"Übernahme":12322,"ölf":12323,"loster":12324,"geschütz":12325,"Dänemark":12326,"Tieren":12327,"ito":12328,"vorn":12329,"NICHT":12330,"umgehen":12331,"kurse":12332,"transpor":12333,"Souveränität":12334,"Meilen":12335,"manchen":12336,"Erzeuger":12337,"anwenden":12338,"impor":12339,"Laden":12340,"Pension":12341,"Etik":12342,"NS":12343,"',":12344,"national":12345,"administ":12346,"ido":12347,"Händler":12348,"Einer":12349,"Sternen":12350,"strand":12351,"Richter":12352,"effizienter":12353,"symbol":12354,"Obama":12355,"schlossenheit":12356,"Legiti":12357,"Cast":12358,"friendly":12359,"EIN":12360,"Maus":12361,"unterbrei":12362,"Vordergrund":12363,"Bom":12364,"Nutzungs":12365,"abend":12366,"Gesam":12367,"Soldaten":12368,"Kreativ":12369,"Ros":12370,"Demokraten":12371,"rates":12372,"oblig":12373,"strö":12374,"findung":12375,"…..":12376,"entstand":12377,"landes":12378,"tifizieren":12379,"überraschen":12380,"Div":12381,"only":12382,"verla":12383,"digungen":12384,"Kä":12385,"vorgelegten":12386,"angebote":12387,"Volkspartei":12388,"südlichen":12389,"Objekte":12390,"cellent":12391,"gno":12392,"krimin":12393,"tzeit":12394,"einsei":12395,"Bier":12396,"grammatisch":12397,"drucks":12398,"Dublin":12399,"Mosk":12400,"%,":12401,"Lau":12402,"grav":12403,"krie":12404,"Champ":12405,"Unterkünfte":12406,"Umstruktur":12407,"Publikum":12408,"Zürich":12409,"Jac":12410,"ader":12411,"aufbauen":12412,"vorbe":12413,"verwendeten":12414,"media":12415,"gekehrt":12416,"Sekunden":12417,"verbindung":12418,"Designer":12419,"Bestätigung":12420,"Anbetracht":12421,"Schätz":12422,"Roman":12423,"Tö":12424,"mate":12425,"mangel":12426,"gemeinsames":12427,"DEN":12428,"safe":12429,"Play":12430,"ées":12431,"abschließen":12432,"geschwindigkeit":12433,"eingeleitet":12434,"essel":12435,"Rennen":12436,"enormen":12437,"nehmbar":12438,"fanden":12439,"non":12440,"eingebracht":12441,"arier":12442,"Unions":12443,"sektors":12444,"berichterstat":12445,"omm":12446,"mittelalter":12447,"Model":12448,"mutlich":12449,"gesucht":12450,"landwirtschaftlichen":12451,"expor":12452,"geniessen":12453,"herstellen":12454,"örtern":12455,"Annehmlichkeiten":12456,"nutzt":12457,"phrase":12458,"unn":12459,"öss":12460,"verpflichten":12461,"\"-":12462,"ience":12463,"Sour":12464,"Danach":12465,"67":12466,"Len":12467,"TA":12468,"zweif":12469,"Zin":12470,"unab":12471,"herbei":12472,"Rahmenprogramm":12473,"Niederlande":12474,"östlichen":12475,"sti":12476,"rip":12477,"fikationen":12478,"lässigen":12479,"Dynamik":12480,"Kla":12481,"reagiert":12482,"Wasch":12483,"keineswegs":12484,"zahlungen":12485,"standes":12486,"digitale":12487,"Black":12488,"Mur":12489,"klin":12490,"dere":12491,"gleichheit":12492,"hilfreich":12493,"A3":12494,"Grem":12495,"Wen":12496,"Verab":12497,"dad":12498,"Bezeichnung":12499,"planen":12500,"instrumente":12501,"konsequent":12502,"Ehre":12503,"Ed":12504,"arbeiter":12505,"gefangen":12506,"schlimm":12507,"Universitäten":12508,"kontextuellen":12509,"UM":12510,"Internetzugang":12511,"Wild":12512,"gewidmet":12513,"gegebenenfalls":12514,"gewachsen":12515,"wohnern":12516,"Russlands":12517,"definieren":12518,"entdeckst":12519,"great":12520,"LO":12521,"Seg":12522,"Grafik":12523,"Airbus":12524,"sho":12525,"itute":12526,"zeichnete":12527,"tail":12528,"bevölkerung":12529,"house":12530,"Profess":12531,"Global":12532,"Deutschlands":12533,"Einfu":12534,"Front":12535,"Getränke":12536,"Listings":12537,"Befehl":12538,"vorteil":12539,"Nehmen":12540,"Zweiten":12541,"empfän":12542,"Fassung":12543,"Wett":12544,"Appartement":12545,"befrie":12546,"artiger":12547,"beantwortet":12548,"Minim":12549,"spüren":12550,"verträ":12551,"datum":12552,"gehe":12553,"sichtig":12554,"leiben":12555,"PA":12556,"Wesen":12557,"otos":12558,"Können":12559,"veröffentlichen":12560,"heimischen":12561,"erheben":12562,"verstehe":12563,"hinzufugen":12564,"kontextuell":12565,"Mont":12566,"ae":12567,"einigt":12568,"Konvention":12569,"Tools":12570,",/":12571,"Image":12572,"nächster":12573,"ford":12574,"Poly":12575,"Dringlichkeit":12576,"famili":12577,"utes":12578,"ökologischen":12579,"Rent":12580,"zza":12581,"Erfolge":12582,"information":12583,"CR":12584,"Human":12585,"aufrecht":12586,"Schlusselwort":12587,"Schlusselphrase":12588,"mig":12589,"…\"...":12590,"Übersicht":12591,"aufgezahlt":12592,"Adri":12593,"professionellen":12594,"formular":12595,"Sowohl":12596,"dunk":12597,"zession":12598,"aming":12599,"Prodi":12600,"ologischer":12601,"regul":12602,"place":12603,"Ausbildungs":12604,"moderner":12605,"ora":12606,"Neuer":12607,"volles":12608,"parlamentarischen":12609,"vorüber":12610,"Vereinigte":12611,"Verbrauchern":12612,"Erwachsene":12613,"A4":12614,"side":12615,"hinzugefügt":12616,"Western":12617,"rations":12618,"ais":12619,"Skype":12620,"verfahrens":12621,"anerkennen":12622,"oche":12623,"quote":12624,"verständnis":12625,"sekretär":12626,"ruhige":12627,"bour":12628,"fluss":12629,"hochwertigen":12630,"Reinigung":12631,"Gibt":12632,"projekt":12633,"Entschlossenheit":12634,"ablehnen":12635,"effektiver":12636,"hu":12637,"Gefängnis":12638,"Ken":12639,"Klassen":12640,"basis":12641,"äder":12642,"ario":12643,"üblichen":12644,"innovativen":12645,"zustande":12646,"Ausrichtung":12647,"stattgefunden":12648,"Key":12649,"erworben":12650,"Gewässer":12651,"Montage":12652,"löschen":12653,"HD":12654,"Abbau":12655,"Spaziergang":12656,"undern":12657,"stärksten":12658,"Fünf":12659,"Ruß":12660,"ischt":12661,"zige":12662,"front":12663,"Kyoto":12664,"beteiligten":12665,"Kompetenzen":12666,"Beamten":12667,"Hong":12668,"Merkm":12669,"cus":12670,"besonderes":12671,"fig":12672,"zise":12673,"Aspekten":12674,"echt":12675,"Besatz":12676,"Orien":12677,"gestatten":12678,"mität":12679,"quelle":12680,"Dü":12681,"vollem":12682,"ios":12683,"Anzeige":12684,"bewußt":12685,"Erreichung":12686,"Express":12687,"put":12688,"Angel":12689,"Eines":12690,"Kernel":12691,"ausländischen":12692,"Ausrüstung":12693,"Budget":12694,"erkunden":12695,"hotels":12696,"alp":12697,"betriebe":12698,"Pia":12699,"Korrektur":12700,"helpful":12701,"zufügen":12702,"Kennzeichnung":12703,"sphase":12704,"erstes":12705,"Brut":12706,"negative":12707,"öch":12708,"Abteilung":12709,"Lateinamerika":12710,"close":12711,"iano":12712,"lieferung":12713,"Versprechen":12714,"gehenden":12715,"grenzüberschreitenden":12716,"Slowakei":12717,"Entw":12718,"generell":12719,"verurteilen":12720,"Plaza":12721,"bedroht":12722,"tigem":12723,"Unterricht":12724,"möglichkeit":12725,"bten":12726,"rock":12727,"Prote":12728,"Inkraft":12729,"atemberauben":12730,"Garantien":12731,"1989":12732,"komplexe":12733,"Schö":12734,"bewegt":12735,"erwerben":12736,"Referenz":12737,"wicklung":12738,"Durchsetzung":12739,"elegante":12740,"arabischen":12741,"ith":12742,"befürworten":12743,"berichtet":12744,"Bürokratie":12745,"widmen":12746,"ktop":12747,"twoch":12748,"finanzierung":12749,"Abenteuer":12750,"elektronische":12751,"Stern":12752,"beibehalten":12753,"öffentlicher":12754,"größter":12755,"opping":12756,"BR":12757,"bedürf":12758,"Insgesamt":12759,"gross":12760,"Modus":12761,"vertraut":12762,"Nichtraucherzimmer":12763,"eisen":12764,"lizen":12765,"1991":12766,"ando":12767,"ulkan":12768,"klaus":12769,"fan":12770,"sches":12771,"dän":12772,"eto":12773,"Hilf":12774,"zweiter":12775,"feier":12776,"Anmerkungen":12777,"Kommentare":12778,"Ball":12779,"innere":12780,"schwedischen":12781,"nötigen":12782,"Schicksal":12783,"uneingeschränkt":12784,"schar":12785,"Behör":12786,"itiert":12787,"wächst":12788,"schriftliche":12789,"verursachen":12790,"Hände":12791,"Saal":12792,"Tanz":12793,"Quoten":12794,"Gemeinden":12795,"Plus":12796,"Av":12797,"Si":12798,"sprochen":12799,"hörige":12800,"Steigerung":12801,"EX":12802,"erlassen":12803,"einher":12804,"Workshop":12805,"Robert":12806,"wältigung":12807,"bürokra":12808,"wunderschöne":12809,"hohes":12810,"gerichts":12811,"Behörde":12812,"Uns":12813,"Ausbe":12814,"dios":12815,"welle":12816,"Baby":12817,"Gelt":12818,"krankungen":12819,"Schie":12820,"Marok":12821,"Brücke":12822,"Australien":12823,"gebrachten":12824,"Pilot":12825,"pret":12826,"Tipp":12827,"aufnahme":12828,"Ingenie":12829,"Häfen":12830,"maximal":12831,"unternehmer":12832,"flexibel":12833,"Klarheit":12834,"ault":12835,"ähnlichen":12836,"Reicht":12837,"Set":12838,"auswählen":12839,"Betroffen":12840,"gelegene":12841,"offiziell":12842,"iehen":12843,"fenster":12844,"Kommissionspräsident":12845,"Weine":12846,"saal":12847,"maßgeb":12848,"wärtige":12849,"afrikanischen":12850,"erer":12851,"erteilen":12852,"Freihandels":12853,"basieren":12854,"kleinere":12855,"Empfang":12856,"fizite":12857,"fahrzeuge":12858,"kräften":12859,"Menschheit":12860,"hie":12861,"Max":12862,"waff":12863,"reibungs":12864,"Wurzel":12865,"korea":12866,"Arzneimittel":12867,"NI":12868,"sä":12869,"gemütliche":12870,"Ursprungs":12871,"spanische":12872,"Ursache":12873,"Fundament":12874,"KW":12875,"Safe":12876,"Integr":12877,"Rotary":12878,"You":12879,"GNU":12880,"name":12881,"anträge":12882,"Edition":12883,"Fans":12884,"Riv":12885,"üstet":12886,"Tee":12887,"unterschiedlicher":12888,"artiges":12889,"Featur":12890,"falsche":12891,"Massage":12892,"ión":12893,"derart":12894,"Anim":12895,"Fortsetzung":12896,"vermittelt":12897,"yo":12898,"yon":12899,"option":12900,"frecht":12901,"Statistiken":12902,"Anpass":12903,"Buda":12904,"andten":12905,"Klassi":12906,"Spiegel":12907,"kostenlosen":12908,"MySQL":12909,"behinderten":12910,"Bit":12911,"flu":12912,"wachsende":12913,"Fan":12914,"zz":12915,"zeigte":12916,"Tai":12917,"normen":12918,"Swimming":12919,"Ministerr":12920,"vergeben":12921,"Elektron":12922,"obligator":12923,"Kali":12924,"Aussagen":12925,"anzupassen":12926,"behauptet":12927,"überrascht":12928,"langem":12929,"vertritt":12930,"entspann":12931,"kurzer":12932,"typisch":12933,"lines":12934,"solch":12935,"stätigkeit":12936,"mediterr":12937,"Funktionieren":12938,"Missbrauch":12939,"Wünschen":12940,"territori":12941,"server":12942,"Begl":12943,"erstens":12944,"einladen":12945,"Solar":12946,"Kaiser":12947,"Wichtigkeit":12948,"gebäude":12949,"geringen":12950,"bewertet":12951,"holz":12952,"jährlichen":12953,"Bün":12954,"gio":12955,"Nachdruck":12956,"Platten":12957,"produkten":12958,"Logistik":12959,"lüssen":12960,"Taten":12961,"beweg":12962,"Dienstleistung":12963,"Zurück":12964,"Erschein":12965,"Ministerpräsident":12966,"BA":12967,"erarbeitet":12968,"Unterhaltung":12969,"Grünbuch":12970,"Ehr":12971,"Vie":12972,"disziplin":12973,"Bug":12974,"riter":12975,"zugeben":12976,"Einnahmen":12977,"könne":12978,"gebnisse":12979,"inneren":12980,"personal":12981,"asien":12982,"umgehend":12983,"gelern":12984,"Netze":12985,"Cock":12986,"Bin":12987,"Hör":12988,"Lü":12989,"Minderheit":12990,"Vorgehensweise":12991,"SL":12992,"gelang":12993,"timent":12994,"beweisen":12995,"Werkzeuge":12996,"Pod":12997,"tausend":12998,"isa":12999,"späte":13000,"Lebensmittelsicherheit":13001,"retten":13002,"aktualisiert":13003,"train":13004,"Größen":13005,"schafter":13006,"Felder":13007,"Futter":13008,"Puer":13009,"zä":13010,"fertigung":13011,"präzise":13012,"erheblichen":13013,"Tragö":13014,"Plätze":13015,"Problematik":13016,"Tief":13017,"bringung":13018,"Keine":13019,"Kenntnisse":13020,"cham":13021,"Beschränkungen":13022,"zigen":13023,"Aluminium":13024,"klären":13025,"Wahrung":13026,"respektieren":13027,"begegnen":13028,"Rollen":13029,"Ufer":13030,"Fehlen":13031,"Ferienwohnungen":13032,"stor":13033,"felder":13034,"Protokolls":13035,"Festplatte":13036,"Liberalen":13037,"Bestellungen":13038,"Alternativen":13039,"Autonomie":13040,"eingetragen":13041,"Malt":13042,"erörter":13043,"Mittwoch":13044,"Maga":13045,"herausragen":13046,"UND":13047,"Mittelmeerraum":13048,"Ach":13049,"big":13050,"2012":13051,"beln":13052,"funktionen":13053,"komplexen":13054,"én":13055,"institu":13056,"schür":13057,"1980":13058,"Terroristen":13059,"drängt":13060,"Pres":13061,"Syrien":13062,"Aufhebung":13063,"Intervention":13064,"Palette":13065,"oleranz":13066,"SCH":13067,"versehen":13068,"benachteil":13069,"zurichten":13070,"perman":13071,"wall":13072,"bestra":13073,"auswirken":13074,"Denk":13075,"strukturen":13076,"gy":13077,"kombiniert":13078,"niedrigen":13079,"verteilung":13080,"rufe":13081,"Theorie":13082,"pest":13083,"klärt":13084,"Arbeitslosen":13085,"bevorzu":13086,"bsp":13087,"arbeiteten":13088,"sebene":13089,"Inhalten":13090,"Labor":13091,"emm":13092,"Thomas":13093,"Stabilitäts":13094,"Zielsetzungen":13095,"Kein":13096,"drängen":13097,"drau":13098,"Gemeinsam":13099,"umfangreichen":13100,"Renn":13101,"beider":13102,"osen":13103,"damal":13104,"Offenheit":13105,"sprozesse":13106,"Mischung":13107,"erstklassi":13108,"Kürze":13109,"ausgestattete":13110,"72":13111,"Pir":13112,"Vorre":13113,"Produktivität":13114,"Einzelheiten":13115,"58":13116,"Kos":13117,"Zahn":13118,"ausgestellt":13119,"inclu":13120,"78":13121,"Weiterhin":13122,"Chancengleichheit":13123,"verarbeitung":13124,"Repräsent":13125,"Bilanz":13126,"reibungen":13127,"begründet":13128,"centre":13129,"wirft":13130,"davor":13131,"Eröffnung":13132,"planung":13133,"orca":13134,"Stau":13135,"Ordner":13136,"lebenden":13137,"verabschieden":13138,"tatsächlichen":13139,"imes":13140,"sogenannte":13141,"kampag":13142,"endgültige":13143,"angekündigt":13144,"но":13145,"”,":13146,"Diesen":13147,"zwölf":13148,"chemische":13149,"Föderation":13150,"Hu":13151,"vermögen":13152,"Gipfelt":13153,"Feed":13154,"fortsetzen":13155,"aubern":13156,"irn":13157,"Südafrika":13158,"träger":13159,"regionaler":13160,"Inkrafttreten":13161,"Ce":13162,"derselben":13163,"Argentin":13164,"zentraler":13165,"ressourcen":13166,"geehrte":13167,"formuliert":13168,"medizinische":13169,"Geschlechter":13170,"Klim":13171,"Colle":13172,"vorliegt":13173,"Zerstörung":13174,"OK":13175,"schrank":13176,"abgesehen":13177,"Entschä":13178,"ved":13179,"liger":13180,"genöss":13181,"isierten":13182,"verbindlich":13183,"Mengen":13184,"erforderliche":13185,"vorsieht":13186,"Käm":13187,"sthe":13188,"demokratisch":13189,"schwieriger":13190,"erwähnten":13191,"tätigen":13192,"gefährden":13193,"angenehme":13194,"Edel":13195,"Logik":13196,"&#":13197,"umm":13198,"jüngste":13199,"Operation":13200,"Verkäufer":13201,"ros":13202,"erleichtert":13203,"Jugoslaw":13204,"Wat":13205,"deutliche":13206,"Source":13207,"vermutlich":13208,"main":13209,"izont":13210,"Rats":13211,"Gipfeltreffen":13212,"Nichts":13213,"Rau":13214,"Schnee":13215,"Direktor":13216,"gemütlichen":13217,"Vic":13218,"Erarbeitung":13219,"mere":13220,"Dampf":13221,"kömm":13222,"Händen":13223,"Zeich":13224,"übermitteln":13225,"Großen":13226,"Literatur":13227,"Bosnien":13228,"Wiederherstellung":13229,"George":13230,"mechanismen":13231,"UK":13232,"Washin":13233,"verwiesen":13234,"technischer":13235,"österreichischen":13236,"elbe":13237,"about":13238,"Ausnahmen":13239,"Zimmerbeschreibung":13240,"stücke":13241,"Buchsta":13242,"villa":13243,"abgegeben":13244,"Betriebssystem":13245,"erweisen":13246,"angenommenen":13247,"Ul":13248,"Index":13249,"konzept":13250,"Konvergenz":13251,"gingen":13252,"unzäh":13253,"sele":13254,"ception":13255,"russische":13256,"realisiert":13257,"begünst":13258,"fairen":13259,"52":13260,"Klin":13261,"menge":13262,"bres":13263,"aro":13264,"verbindungen":13265,"hause":13266,"HTML":13267,"fix":13268,"BSE":13269,"mäh":13270,"Гј":13271,"Verpack":13272,"freier":13273,"Katal":13274,"getrennt":13275,"gestartet":13276,"sofor":13277,"produkt":13278,"popul":13279,"Demonstra":13280,"tho":13281,"arat":13282,"imp":13283,"eleganten":13284,"inken":13285,"Gute":13286,"Strei":13287,"religiösen":13288,"verhe":13289,"Marina":13290,"Welthandel":13291,"schwerwie":13292,"anpassen":13293,"Diagno":13294,"Hen":13295,"seg":13296,"Rauch":13297,"bahnen":13298,"diesbezü":13299,"bach":13300,"Late":13301,"Maler":13302,"ichtigen":13303,"lässige":13304,"rigen":13305,"Rooms":13306,"ierer":13307,"günstiger":13308,"kunde":13309,"Feder":13310,"Brun":13311,"Gebir":13312,"verzichten":13313,"NRO":13314,"spiegeln":13315,"на":13316,"Auffor":13317,"drast":13318,"Anton":13319,"Betrifft":13320,"Rückgang":13321,"range":13322,"relevanten":13323,"administra":13324,"autom":13325,"zugestimmt":13326,"comfortable":13327,"Centre":13328,"PO":13329,"fun":13330,"gehabt":13331,"Verordnungen":13332,"lip":13333,"Konsum":13334,"hül":13335,"verarbeitet":13336,"Inhaber":13337,"Erfolgs":13338,"Eri":13339,"Performance":13340,"56":13341,"sicherer":13342,"Desktop":13343,"ökonomische":13344,"Aff":13345,"find":13346,"anforderungen":13347,"zugute":13348,"erstreckt":13349,"Hon":13350,"USD":13351,"verstärkte":13352,"Kapazität":13353,"Edit":13354,"spielte":13355,"erarbeiten":13356,"grafische":13357,"mechanismus":13358,"pat":13359,"aussehen":13360,"Zunahme":13361,"eröffnen":13362,"berufen":13363,"cts":13364,"Steuerzahler":13365,"stik":13366,"Umstände":13367,"empfängt":13368,"assungen":13369,"ska":13370,"gestiegen":13371,"Hostelsclub":13372,"bor":13373,"bekämpfung":13374,"händler":13375,"Privatsphäre":13376,"Begründung":13377,"cc":13378,"frag":13379,"gemeinsamer":13380,"ursprüngliche":13381,"dens":13382,"verbr":13383,"irak":13384,"sprozeß":13385,"Isol":13386,"Bewohner":13387,"saison":13388,"zeichneten":13389,"Formulierung":13390,"51":13391,"steil":13392,"emis":13393,"amo":13394,"musikal":13395,"umso":13396,"Inspe":13397,"Million":13398,"Events":13399,"gerechnet":13400,"dh":13401,"Derzeit":13402,"Finanzen":13403,"beinahe":13404,"Dor":13405,"Ausgrenzung":13406,"schenken":13407,"wahre":13408,"interessanten":13409,"eindeutige":13410,"dieselben":13411,"Slowen":13412,"Ausbeutung":13413,"punkten":13414,"gebill":13415,"Visum":13416,"Klimawandels":13417,"ausländische":13418,"eintreten":13419,"medizinischen":13420,"Mach":13421,"vas":13422,"tiker":13423,"negativ":13424,"verschaffen":13425,"verliehen":13426,"Portal":13427,"Präsentation":13428,"rochen":13429,"Unterdrück":13430,"would":13431,"integrieren":13432,"schränken":13433,"methode":13434,"sach":13435,"Berater":13436,"Dia":13437,"flie":13438,"aufgeführt":13439,"Ausflug":13440,"kooper":13441,"Lasten":13442,"vereint":13443,"gelernt":13444,"mult":13445,"sendung":13446,"hedr":13447,"Konserv":13448,"genießt":13449,"ietnam":13450,"Einkommens":13451,"Anreize":13452,"vergangen":13453,"cket":13454,"raums":13455,"dieselbe":13456,"Geschenk":13457,"Royal":13458,"Washington":13459,"iehlt":13460,"änderungen":13461,"Raums":13462,"stecken":13463,"glaubt":13464,"argu":13465,"transparent":13466,"Klick":13467,"vorge":13468,"Verabschie":13469,"eigentliche":13470,"gemeldet":13471,"einiges":13472,"präz":13473,"farben":13474,"DB":13475,"GR":13476,"Klang":13477,"jeglicher":13478,"schneiden":13479,"Fal":13480,"bewegung":13481,"Verfolgung":13482,"Zertifik":13483,"curity":13484,"zugs":13485,"vermieden":13486,"Einwanderer":13487,"92":13488,"IX":13489,"Moun":13490,"parallel":13491,"Karriere":13492,"verzerr":13493,"gegenseitigen":13494,"industriellen":13495,"leichte":13496,"Updates":13497,"Blumen":13498,"Fakten":13499,"Lern":13500,"kritischen":13501,"Clubs":13502,"zurzeit":13503,"feste":13504,"läufe":13505,"beruflichen":13506,"pake":13507,"dasselbe":13508,"Handlungen":13509,"Verabschiedung":13510,"gelangt":13511,"vertie":13512,"komfortablen":13513,"Kloster":13514,"Touren":13515,"berührt":13516,"Rö":13517,"parks":13518,"Gewinner":13519,"blieb":13520,"regen":13521,"fahrten":13522,"57":13523,"té":13524,"Erhalt":13525,"klick":13526,"Adressen":13527,"Amerikas":13528,"plätzen":13529,"Schm":13530,"frisch":13531,"gg":13532,"üste":13533,"ни":13534,"durchzusetzen":13535,"suchte":13536,"Verbind":13537,"versicherung":13538,"Menschenrechtsverletzungen":13539,"befürwortet":13540,"Gemüse":13541,"Chat":13542,"wöch":13543,"Pflichten":13544,"vertreter":13545,"Kuba":13546,"einstellen":13547,"bestände":13548,"Mails":13549,"lar":13550,"iga":13551,"Spam":13552,"town":13553,"azz":13554,"Miß":13555,"Rass":13556,"kä":13557,"geringe":13558,"Serien":13559,"zedon":13560,"oppen":13561,"Govern":13562,"geeigneten":13563,"Ged":13564,"Private":13565,"Legisla":13566,"Belastung":13567,"häusern":13568,"theore":13569,"Stufe":13570,"Kooperations":13571,"Seen":13572,"agd":13573,"zusammenarbeit":13574,"Köln":13575,"Ferr":13576,"erlangen":13577,"Küchen":13578,"ips":13579,"lassungen":13580,"Flächen":13581,"aufgestellt":13582,"Board":13583,"Automati":13584,"sonstige":13585,"ité":13586,"het":13587,"they":13588,"Vertriebs":13589,"kleineren":13590,"situation":13591,"Module":13592,"some":13593,"Straft":13594,"yout":13595,"organisierten":13596,"andid":13597,"adr":13598,"Spezialisten":13599,"Wälder":13600,"Flag":13601,"iso":13602,"Abgeordneter":13603,"absolute":13604,"jü":13605,"mentiert":13606,"Autoren":13607,"Summe":13608,"Konstruktion":13609,"Maast":13610,"ladung":13611,"organisierte":13612,"Präsi":13613,"quare":13614,"University":13615,"Jugendliche":13616,"erläuter":13617,"Verlän":13618,"höchster":13619,"jpg":13620,"Party":13621,"gemütlich":13622,"gewünschte":13623,"museum":13624,"Word":13625,"paten":13626,"Tabelle":13627,"Versuche":13628,"Alban":13629,"späteren":13630,"86":13631,"Kontra":13632,"fahrts":13633,"renomm":13634,"Charme":13635,"Bühne":13636,"problemlos":13637,"European":13638,"Nu":13639,"onic":13640,"brü":13641,"Fremd":13642,"Herkunfts":13643,"Gau":13644,"abgeben":13645,"Produzenten":13646,"beschleunigen":13647,"bedauerlich":13648,"aff":13649,"Rezession":13650,"Meinungen":13651,"Statut":13652,"Nichtraucherzonen":13653,"Französisch":13654,"Angabe":13655,"Arbeitszeit":13656,"automatische":13657,"strä":13658,"zusagen":13659,"heutzutage":13660,"Still":13661,"Panorama":13662,"Transpor":13663,"Hekt":13664,"inos":13665,"ungsbereich":13666,"uest":13667,"getö":13668,"Michel":13669,"Rus":13670,"Tam":13671,"Erzeugung":13672,"ova":13673,"ugnis":13674,"Türen":13675,"cop":13676,"menü":13677,"Finger":13678,"gerechtfertigt":13679,"Marokko":13680,"Genuss":13681,"technologische":13682,"wünscht":13683,"Drittstaaten":13684,"Bürgerbeauftragten":13685,"Anträge":13686,"Spektrum":13687,"staatlicher":13688,"nukle":13689,"bedienen":13690,"Schreib":13691,"tikeln":13692,"endgültigen":13693,"fab":13694,"besetz":13695,"Kommissionsvorschlag":13696,"Han":13697,"fließen":13698,"erhol":13699,"Minibar":13700,"gor":13701,"ttern":13702,"Zusammensetzung":13703,"total":13704,"lusst":13705,"Vermittlung":13706,"Gewinne":13707,"Sensor":13708,"Verlängerung":13709,"mobile":13710,"sagten":13711,"bisschen":13712,"ehrlich":13713,"Konfiguration":13714,"Life":13715,"Funktionalität":13716,"passieren":13717,"ighl":13718,"Lärm":13719,"cent":13720,"wies":13721,"höhe":13722,"mittlere":13723,"ungewöhn":13724,"Vel":13725,"eb":13726,"gigen":13727,"Anfän":13728,"Data":13729,"ruhiger":13730,"Rin":13731,"ental":13732,"leidet":13733,"familien":13734,"aufeinander":13735,"ways":13736,"Liebl":13737,"Kunststoff":13738,"reisende":13739,"Gentoo":13740,"Fischereipolitik":13741,"Gebäuden":13742,"unterscheidet":13743,"eingeladen":13744,"Loc":13745,"DC":13746,"Osteuropa":13747,"verne":13748,"kriterien":13749,"gesteuer":13750,"vergleichen":13751,"Beurteilung":13752,"Mittag":13753,"Spannungen":13754,"Eingabe":13755,"hole":13756,"door":13757,"israelischen":13758,"SC":13759,"etschen":13760,"Kanal":13761,"tum":13762,"lehr":13763,"versprechen":13764,"eingereich":13765,"pi":13766,"ervice":13767,"Anbindung":13768,"Bergen":13769,"Phone":13770,"era":13771,"packung":13772,"Wertpap":13773,"Kernkraft":13774,"schwung":13775,"phys":13776,"datei":13777,"Ausübung":13778,"Messen":13779,"schten":13780,"glas":13781,"erschienen":13782,"54":13783,"Sei":13784,"Gü":13785,"eistungen":13786,"polnischen":13787,"tru":13788,"spunkte":13789,"wertvolle":13790,"Prävention":13791,"Menschenrechten":13792,"suite":13793,"Erwägung":13794,"Putin":13795,"Ergänzung":13796,"Versorgungs":13797,"bischen":13798,"dargelegt":13799,"Haupts":13800,"handlungs":13801,"beschließen":13802,"fliegen":13803,"projekte":13804,"Cy":13805,"einführen":13806,"Konsu":13807,"eignen":13808,"Beobachter":13809,"staur":13810,"empfiehlt":13811,"Eigentümer":13812,"Reparatur":13813,"einstimmig":13814,"leid":13815,"beschreibt":13816,"ausreichende":13817,"überwacht":13818,"beher":13819,"verschle":13820,"Erdbe":13821,"messer":13822,"erven":13823,"fühle":13824,"Schutzes":13825,"zunehmende":13826,"schöner":13827,"angebotenen":13828,"Beratungen":13829,"externe":13830,"Heiligen":13831,"beliebt":13832,"Anwesenheit":13833,"Note":13834,"geachtet":13835,"stützen":13836,"Miner":13837,"Feststellung":13838,"büro":13839,"geplanten":13840,"Konzentration":13841,"Kle":13842,"team":13843,"gelingen":13844,"Energiequellen":13845,"Referendum":13846,"unterst":13847,"Haushalte":13848,"neutr":13849,"Swiss":13850,"Gül":13851,"Treiber":13852,"list":13853,"holfen":13854,"schicht":13855,"qualifizierte":13856,"überlegen":13857,"luft":13858,"gründete":13859,"Found":13860,"asi":13861,"Ankün":13862,"oller":13863,"verbleiben":13864,"Work":13865,"Gebühr":13866,"maximale":13867,"ärmsten":13868,"Schauspieler":13869,"einnehmen":13870,"gler":13871,"acion":13872,"technologischen":13873,"freundschaft":13874,"Island":13875,"nachhaltig":13876,"Schnittstelle":13877,"melt":13878,"status":13879,"vereinbarten":13880,"ausdrück":13881,"konzer":13882,"Vit":13883,"Deck":13884,"namens":13885,"Inhalts":13886,"Vertretung":13887,"Schle":13888,"gewinnt":13889,"Commer":13890,"beeinflusst":13891,"klimatis":13892,"GE":13893,"tauchen":13894,"aufer":13895,"excellent":13896,"freiwill":13897,"englischen":13898,"ungere":13899,"Heim":13900,"Geschäften":13901,"Instrumenten":13902,"brech":13903,"ernsthafte":13904,"geistigen":13905,"tü":13906,"Herrschaft":13907,"Verletzungen":13908,"hten":13909,"kg":13910,"Zustell":13911,"wood":13912,"velop":13913,"Einschränkungen":13914,"listen":13915,"Laser":13916,"allmäh":13917,"geschritten":13918,"größt":13919,"cat":13920,"derjenigen":13921,"blicken":13922,"bewahrt":13923,"Hauptz":13924,"übergeben":13925,"eigentlichen":13926,"istall":13927,"reihe":13928,"Rahmenbedingungen":13929,"ouble":13930,"Shutt":13931,"demonstr":13932,"Hit":13933,"benannt":13934,"Bouti":13935,"Börse":13936,"höre":13937,"sprüchen":13938,"read":13939,"Fok":13940,"Opf":13941,"Prei":13942,"diff":13943,"eigenem":13944,"Kohle":13945,"stunden":13946,"Unsicherheit":13947,"ixel":13948,"verzeichnen":13949,"ami":13950,"ries":13951,"Beratungs":13952,"ordnungsgemäß":13953,"leitungen":13954,"HR":13955,"Mauer":13956,"spieler":13957,"Verbün":13958,"Beschwerden":13959,"Ostsee":13960,"'.":13961,"Evalu":13962,"Tank":13963,"della":13964,"ZE":13965,"geräten":13966,"orientiert":13967,"energie":13968,"gebrochen":13969,"Arbeitsgruppe":13970,"geograph":13971,"kommerziellen":13972,"ausgede":13973,"stattdessen":13974,"James":13975,"dlichkeit":13976,"reformen":13977,"Stich":13978,"altungen":13979,"Sony":13980,"Rhein":13981,"investiert":13982,"Verluste":13983,"sonstigen":13984,"plo":13985,"verwirklichen":13986,"annte":13987,"ungsweise":13988,"Que":13989,"angelegt":13990,"eingeräumt":13991,"Gärten":13992,"Lad":13993,"Besteller":13994,"Abschluß":13995,"Maxim":13996,"bilder":13997,"Professor":13998,"gewalt":13999,"Breakfast":14000,"Medikamente":14001,"realen":14002,"lokaler":14003,"starkes":14004,"71":14005,"Einschätzung":14006,"Rußland":14007,"Vulkan":14008,"revolution":14009,"demokratischer":14010,"Chef":14011,"vielfältigen":14012,"vorbehalten":14013,"Rassismus":14014,"Za":14015,"isierte":14016,"Arzt":14017,"Grundsätzen":14018,"schönes":14019,"dateien":14020,"(„":14021,"Erbe":14022,"Leuten":14023,"Verteidigungspolitik":14024,"Dev":14025,"Bananen":14026,"Vorstand":14027,"vielsei":14028,"dingung":14029,"Quark":14030,"frucht":14031,"Millen":14032,"Besitzer":14033,"Ado":14034,"discher":14035,"insofern":14036,"bewiesen":14037,"oma":14038,"ausstattung":14039,"vorgehen":14040,"Beschäftigten":14041,"SAP":14042,"Anbau":14043,"Konferenzen":14044,"periode":14045,"quar":14046,"Südtir":14047,"gebraucht":14048,"iland":14049,"passende":14050,"Plenar":14051,"Treibhaus":14052,"spätestens":14053,"Hot":14054,"sperr":14055,"komfortabel":14056,"zon":14057,"trennen":14058,"meldungen":14059,"teilzunehmen":14060,"bewirken":14061,"Storn":14062,"Anhang":14063,"soci":14064,"rägt":14065,"abkommens":14066,"forderte":14067,"bilanz":14068,"gesammelt":14069,"unken":14070,"zulässig":14071,"aufgerufen":14072,"Extra":14073,"bewus":14074,"Swimmingpool":14075,"Pie":14076,"brä":14077,"speicher":14078,"sive":14079,"Geben":14080,"Zufrieden":14081,"Stoff":14082,"Kra":14083,"cis":14084,"tat":14085,"Quell":14086,"modul":14087,"Community":14088,"DO":14089,"Lot":14090,"betrag":14091,"Rücken":14092,"jemals":14093,"hell":14094,"irische":14095,"folio":14096,"Register":14097,"Geräten":14098,"Juden":14099,"Krebs":14100,"word":14101,"unterwegs":14102,"Allein":14103,"kritisch":14104,"open":14105,"Spir":14106,"feren":14107,"Büros":14108,"most":14109,"Konsultation":14110,"chtern":14111,"Taxi":14112,"stufen":14113,"erbaut":14114,"Implemen":14115,"Ökonom":14116,"inakzeptabel":14117,"globaler":14118,"Pay":14119,"wirtschaftung":14120,"Paläst":14121,"süd":14122,"erneuerbaren":14123,"zog":14124,"mengen":14125,"brig":14126,"Aufnahmen":14127,"beliebigen":14128,"gesprä":14129,"Liban":14130,"Kreativität":14131,"One":14132,"ures":14133,"Entste":14134,"wirkungs":14135,"probieren":14136,"onte":14137,"örtlichen":14138,"strasse":14139,"blatt":14140,"Glä":14141,"sech":14142,"Motiv":14143,"ttung":14144,"stige":14145,"aga":14146,"live":14147,"Generalsekretär":14148,"ausführlich":14149,"respektiert":14150,"zweier":14151,"Einfach":14152,"transatlan":14153,"beizutragen":14154,"Wellen":14155,"Europol":14156,"Solche":14157,"basierte":14158,"Wolf":14159,"erfasst":14160,"Anhörung":14161,"plötzlich":14162,"Südo":14163,"oberen":14164,"terin":14165,"come":14166,"strecken":14167,"Etw":14168,"elease":14169,"erkenn":14170,"Merkmale":14171,"did":14172,"tellekt":14173,"ugt":14174,"zeitgenöss":14175,"intensive":14176,"Anders":14177,"freundlicher":14178,"nehmung":14179,"Mul":14180,"Mobile":14181,"NE":14182,"bte":14183,"Bed":14184,"herkömm":14185,"aktiver":14186,"bereitung":14187,"Rubrik":14188,"FC":14189,"ypen":14190,"Ausschüsse":14191,"Cour":14192,"ican":14193,"Unterlagen":14194,"angewiesen":14195,"weitaus":14196,"automatis":14197,"igem":14198,"zes":14199,"menade":14200,"vorbereiten":14201,"streit":14202,"area":14203,"Sitzungen":14204,"erweiterten":14205,"DIE":14206,"Konzepte":14207,"Optimierung":14208,"Adobe":14209,"ра":14210,"Höhen":14211,"Halte":14212,"Angriffe":14213,"Besteuerung":14214,"Innerhalb":14215,"aufwand":14216,"lohnt":14217,"93":14218,"verkün":14219,"ronom":14220,"kontinuierlich":14221,"wig":14222,"ruft":14223,"größe":14224,"Content":14225,"feiern":14226,"Halle":14227,"Kräften":14228,"Schwimmbad":14229,"Bezir":14230,"selb":14231,"Rind":14232,"vit":14233,"unterbreiten":14234,"Unterzeichnung":14235,"wirksamen":14236,"Gerichten":14237,"Techniken":14238,"schlimmer":14239,"Alexander":14240,"View":14241,"folglich":14242,"ausgewählten":14243,"Regionalpolitik":14244,"Zo":14245,"ices":14246,"Kapazitäten":14247,"getötet":14248,"teilte":14249,"ENT":14250,"verschmutzung":14251,"Bewältigung":14252,"]],":14253,"Fernseher":14254,"Gelände":14255,"Fertigung":14256,"ohnt":14257,"Weltbank":14258,"alleine":14259,"änderung":14260,"obel":14261,"Übereinkommens":14262,"Hum":14263,"SM":14264,"Tir":14265,"Tos":14266,"Patri":14267,"Äußerungen":14268,"berichte":14269,"Mazedon":14270,"fortgesetzt":14271,"Hann":14272,"eindrucks":14273,"tritts":14274,"deutlichen":14275,"Galerie":14276,"Freuen":14277,"Wartung":14278,"Norm":14279,"Psych":14280,"erörtert":14281,"gestellte":14282,"hebt":14283,"gipfel":14284,"mäßigkeit":14285,"Mitt":14286,"Scheitern":14287,"53":14288,"CL":14289,"tungs":14290,"verarbeiten":14291,"Vermarkt":14292,"Zuständig":14293,"Immun":14294,"flexible":14295,"Drucker":14296,"Interpret":14297,"Leid":14298,"effizienten":14299,"Experi":14300,"Bedienung":14301,"bestens":14302,"angeblich":14303,"strengen":14304,"Virus":14305,"Vergnügen":14306,"Weißbuch":14307,"info":14308,"mentieren":14309,"elemente":14310,"realistisch":14311,"Foundation":14312,"bec":14313,"Einblick":14314,"ohnehin":14315,"einzugehen":14316,"Aktivität":14317,"normale":14318,"entworfen":14319,"bedauere":14320,"speriode":14321,"Line":14322,"befr":14323,"gesonder":14324,"beschreiben":14325,"plor":14326,"Fähr":14327,"gehandelt":14328,"übermittelt":14329,"stimmte":14330,"Kore":14331,"konserv":14332,"ausgeht":14333,"Palace":14334,"nbsp":14335,"voneinander":14336,"Studium":14337,"Mountain":14338,"netze":14339,"Gitar":14340,"dün":14341,"Vogel":14342,"FL":14343,"urcht":14344,"Host":14345,"Eigenschaft":14346,"geschätzt":14347,"erstaun":14348,"nächst":14349,"kanische":14350,"kritische":14351,"Jazz":14352,"NO":14353,"modernes":14354,"Vorfeld":14355,"Strecken":14356,"ella":14357,"Vorgaben":14358,"Bewerber":14359,"bearbeitet":14360,"nötige":14361,"Reserve":14362,"Base":14363,"kontrollen":14364,"Subventionen":14365,"konstruktive":14366,"geschoss":14367,"quid":14368,"schließe":14369,"Gemäß":14370,"verwalten":14371,"Vorredner":14372,"multination":14373,"swerten":14374,"rechtfertigen":14375,"faire":14376,"Fair":14377,"schrittweise":14378,"Tit":14379,"TEL":14380,"unch":14381,"anschluss":14382,"Hochzeit":14383,"bilateralen":14384,"geziel":14385,"Ann":14386,"vorkommen":14387,"Zubehör":14388,"Schiffs":14389,"SK":14390,"inbegriffen":14391,"aufgaben":14392,"typische":14393,"Verstär":14394,"ruhe":14395,"nachdenken":14396,"hant":14397,"Vertrauens":14398,"ents":14399,"andern":14400,"benutzer":14401,"Sorg":14402,"zern":14403,"fühlt":14404,"ärenz":14405,"Mol":14406,"dein":14407,"Ähn":14408,"erreichte":14409,"erwähnte":14410,"Null":14411,"häuse":14412,"bist":14413,"Erneuer":14414,"look":14415,"Level":14416,"verzö":14417,"76":14418,"vierten":14419,"bedenken":14420,"tene":14421,"Unfall":14422,"mert":14423,"dachte":14424,"stritten":14425,"opfer":14426,"Porto":14427,"irgendwo":14428,"detaillierte":14429,"Tar":14430,"versel":14431,"ckte":14432,"Lehren":14433,"Energiepolitik":14434,"basierten":14435,"läutern":14436,"Ali":14437,"Blan":14438,"einhalten":14439,"schrieb":14440,"tit":14441,"itiv":14442,"Liby":14443,"systematisch":14444,"Hektar":14445,"ältere":14446,"Motto":14447,"Getrei":14448,"sexuellen":14449,"Zuständigkeiten":14450,"ollt":14451,"Music":14452,"alternative":14453,"Kö":14454,"Mund":14455,"UT":14456,"grüne":14457,"Kün":14458,"ables":14459,"brut":14460,"Folter":14461,"Fluggesellschaften":14462,"Gegenwart":14463,"Oberflächen":14464,"schulden":14465,"Regulierungs":14466,"dicht":14467,"Kindes":14468,"Budapest":14469,"drich":14470,"allgemeiner":14471,"Neues":14472,"spflicht":14473,"Bewegungen":14474,"leister":14475,"ueber":14476,"than":14477,"konto":14478,"Regimes":14479,"teilten":14480,"vernünftige":14481,"Ev":14482,"too":14483,"Kathedr":14484,"Lehre":14485,"ville":14486,"Kalender":14487,"länen":14488,"Puerto":14489,"bewaff":14490,"Inc":14491,"beiträgt":14492,"trop":14493,"Wille":14494,"Dritter":14495,"By":14496,"Ring":14497,"sia":14498,"Eintritt":14499,"Territor":14500,"konzipiert":14501,"eingebunden":14502,"beque":14503,"ating":14504,"geschen":14505,"Apple":14506,"endgültig":14507,"WE":14508,"erörtern":14509,"rüger":14510,"womit":14511,"derartigen":14512,"weib":14513,"zehnt":14514,"Kirk":14515,"Attraktionen":14516,"med":14517,"Weiterbildung":14518,"begrenzte":14519,"59":14520,"change":14521,"Bezahlung":14522,"grade":14523,"unterbreitet":14524,"bun":14525,"every":14526,"runde":14527,"spa":14528,"Monitor":14529,"schrau":14530,"been":14531,"Ideal":14532,"hälter":14533,"Resolution":14534,"Johannes":14535,"avi":14536,"lad":14537,"größerer":14538,"Nahrungs":14539,"Canon":14540,"Aka":14541,"billig":14542,"Strasse":14543,"kenntnis":14544,"Disziplin":14545,"Hans":14546,"Flugzeuge":14547,"erfolgte":14548,"befind":14549,"ро":14550,"erläutern":14551,"geheim":14552,"verbesserte":14553,"zunehmenden":14554,"südlich":14555,"Cu":14556,"anter":14557,"abschließend":14558,"Arm":14559,"grenzüberschreitende":14560,"kritisiert":14561,"anzei":14562,"physi":14563,"schutzes":14564,"gin":14565,"xy":14566,"teln":14567,"fähiger":14568,"Einwander":14569,"dic":14570,"aktualisieren":14571,"bese":14572,"erinnere":14573,"Transaktionen":14574,"beurteilen":14575,"begangen":14576,"beruh":14577,"Aktualisierung":14578,"Pul":14579,"eure":14580,"Diam":14581,"Stockhol":14582,"spläne":14583,"handelte":14584,"ssektor":14585,"Buchungs":14586,"Pharma":14587,"falschen":14588,"Ministerrat":14589,"Elektronik":14590,"Sä":14591,"blä":14592,"Vermei":14593,"hef":14594,"angefangen":14595,"würdige":14596,"Arbeitsbedingungen":14597,"Verantwortlichen":14598,"Ecke":14599,"Mah":14600,"mithilfe":14601,"Stutt":14602,"Vorsitzender":14603,"Atlantik":14604,"tiz":14605,"straßen":14606,"andte":14607,"gratis":14608,"Überwachungs":14609,"located":14610,"))":14611,"mens":14612,"Indon":14613,"Tech":14614,"Segel":14615,"gefährlichen":14616,"Abstimmungen":14617,"gutem":14618,"Mallorca":14619,"Gestalt":14620,"Innovations":14621,"Tickets":14622,"Feier":14623,"Benz":14624,"tika":14625,"Hamas":14626,"uneingeschrän":14627,"Whirl":14628,"ausführen":14629,"überwach":14630,"Stä":14631,"Schau":14632,"hilfs":14633,"Darin":14634,"Verträgen":14635,"Emp":14636,"trocken":14637,"Anhänger":14638,"Betroffenen":14639,"Road":14640,"Kreditkarten":14641,"Tau":14642,"Erwachsenen":14643,"Import":14644,"Israels":14645,"Beobacht":14646,"olf":14647,"bereite":14648,"umb":14649,"Prov":14650,"izieren":14651,"gesetzte":14652,"Blue":14653,"Café":14654,"zukunft":14655,"ratifiziert":14656,"ritz":14657,"Wart":14658,"igar":14659,"Flu":14660,"messe":14661,"Entspannen":14662,"Sad":14663,"weckt":14664,"try":14665,"nament":14666,"schlechten":14667,"Tempo":14668,"strenge":14669,"Vereinigung":14670,"spolitische":14671,"registriert":14672,"exklusiven":14673,"Fru":14674,"FOR":14675,"Realisierung":14676,"Aufwand":14677,"regungen":14678,"conom":14679,"eingerichtete":14680,"qualifizierten":14681,"alth":14682,"kurzfristig":14683,"night":14684,"Überarbeitung":14685,"ausenden":14686,"vernünftig":14687,"diger":14688,"sparungen":14689,"berufliche":14690,"BE":14691,"Kau":14692,"_mar":14693,"Tempel":14694,"Wiener":14695,"Seminar":14696,"zuverlässig":14697,"verse":14698,"ruhen":14699,"Orts":14700,"lebte":14701,"Ursprung":14702,"Chal":14703,"Hyp":14704,"biegen":14705,"bedauern":14706,"gefährliche":14707,"Unterdrückung":14708,"Griff":14709,"realisieren":14710,"merzen":14711,"begab":14712,"Besuchern":14713,"Beton":14714,"probleme":14715,"Zufriedenheit":14716,"Dich":14717,"Loch":14718,"Pakt":14719,"einzuhalten":14720,"angeben":14721,"unverzicht":14722,"resultieren":14723,"VIS":14724,"ief":14725,"Ernährung":14726,"grundlegender":14727,"Cocktail":14728,"liegende":14729,"interessieren":14730,"Red_mar":14731,"Red_marquis":14732,"Reaktionen":14733,"Niger":14734,"gelaufen":14735,"Gipfels":14736,"Ei":14737,"num":14738,"Anweisungen":14739,"Soweit":14740,"Quart":14741,"regierungs":14742,"Libanon":14743,"iera":14744,"schieben":14745,"Mega":14746,"Demokratisierung":14747,"wuchs":14748,"atom":14749,"aker":14750,"Kompromiß":14751,"ansonsten":14752,"onie":14753,"schir":14754,"geschnei":14755,"Entdecken":14756,"initiative":14757,"katastrophen":14758,"erzielten":14759,"Ga":14760,"ко":14761,"intern":14762,"schlage":14763,"solide":14764,"Plat":14765,"bevorstehenden":14766,"unerlässlich":14767,"gewünscht":14768,"Bang":14769,"vorhin":14770,"Spuren":14771,"XP":14772,"wärmung":14773,"herrliche":14774,"Stabilitätspakt":14775,"Rec":14776,"Auftraggeber":14777,"facil":14778,"bekräftigt":14779,"Tragödie":14780,"vereinfachen":14781,"Eintrag":14782,"EURO":14783,"verlust":14784,"ethnischen":14785,"Snow":14786,"itra":14787,"schaden":14788,"ordan":14789,"abzielen":14790,"ación":14791,"C5":14792,"ckten":14793,"Moskau":14794,"Vietnam":14795,"oter":14796,"aufrechter":14797,"subst":14798,"kulin":14799,"enttäuscht":14800,"prüf":14801,"pot":14802,"arme":14803,"fiziert":14804,"engagiert":14805,"Kolum":14806,"Abstand":14807,"Hub":14808,"schan":14809,"iler":14810,"Metern":14811,"sslich":14812,"could":14813,"verwaltet":14814,"Domain":14815,"Kommando":14816,"PSE":14817,"Tabellen":14818,"Donau":14819,"mündlichen":14820,"Dolom":14821,"ausgelöst":14822,"Err":14823,"unterhalten":14824,"deutscher":14825,"Zusammenbruch":14826,"interpre":14827,"Zimmerservice":14828,"unzureichend":14829,"Mix":14830,"ás":14831,"apart":14832,"ungeachtet":14833,"Gesundheitswesen":14834,"ols":14835,"verband":14836,"Monats":14837,"droht":14838,"Maastricht":14839,".\"":14840,"weißen":14841,"Willi":14842,"Gesprächen":14843,"älter":14844,"Litauen":14845,"ordnungsgemä":14846,"Taiwan":14847,"kord":14848,"machten":14849,"ignoriert":14850,"Mittler":14851,"schauer":14852,"Lebensqualität":14853,"Flüchtlings":14854,"Dres":14855,"Arbeitskräfte":14856,"Aufforderung":14857,"Gewerkschaften":14858,"Echtzeit":14859,"Label":14860,"kodex":14861,"idealer":14862,"Lebensmitteln":14863,"erneuerbare":14864,"erläutert":14865,"berat":14866,"entf":14867,"digte":14868,"Kurse":14869,"üblich":14870,"Analysen":14871,"Thermal":14872,"Governance":14873,"Nukle":14874,"Rande":14875,"teur":14876,"Gestatten":14877,"ausgearbeitet":14878,"gängen":14879,"rechnung":14880,"Präz":14881,"Captain":14882,"Py":14883,"här":14884,"Gepäckraum":14885,"Ehren":14886,"Nic":14887,"Pad":14888,"ula":14889,"onne":14890,"deutet":14891,"chtnis":14892,"zeigten":14893,"Staatsan":14894,"attraktiv":14895,"Tschechischen":14896,"Amtszeit":14897,"Einschränkung":14898,"Bewertungen":14899,"entscheidet":14900,"agon":14901,"teilgenommen":14902,"IDS":14903,"Devisen":14904,"einsatz":14905,
[...]
