{"version":"1.0","truncation":null,"padding":null,"added_tokens":[{"id":0,"special":true,"content":"[UNK]","single_word":false,"lstrip":false,"rstrip":false,"normalized":false},{"id":1,"special":true,"content":"[PAD]","single_word":false,"lstrip":false,"rstrip":false,"normalized":false},{"id":2,"special":true,"content":"[BOS]","single_word":false,"lstrip":false,"rstrip":false,"normalized":false},{"id":3,"special":true,"content":"[EOS]","single_word":false,"lstrip":false,"rstrip":false,"normalized":false}],"normalizer":null,"pre_tokenizer":{"type":"Whitespace"},"post_processor":null,"decoder":null,"model":{"type":"BPE","dropout":null,"unk_token":"[UNK]","continuing_subword_prefix":null,"end_of_word_suffix":null,"fuse_unk":false,"vocab":{"[UNK]":0,"[PAD]":1,"[BOS]":2,"[EOS]":3,"!":4,"\"":5,"#":6,"$":7,"%":8,"&":9,"'":10,"(":11,")":12,"*":13,"+":14,",":15,"-":16,".":17,"/":18,"0":19,"1":20,"2":21,"3":22,"4":23,"5":24,"6":25,"7":26,"8":27,"9":28,":":29,";":30,"<":31,"=":32,">":33,"?":34,"@":35,"A":36,"B":37,"C":38,"D":39,"E":40,"F":41,"G":42,"H":43,"I":44,"J":45,"K":46,"L":47,"M":48,"N":49,"O":50,"P":51,"Q":52,"R":53,"S":54,"T":55,"U":56,"V":57,"W":58,"X":59,"Y":60,"Z":61,"[":62,"\\":63,"]":64,"^":65,"_":66,"`":67,"a":68,"b":69,"c":70,"d":71,"e":72,"f":73,"g":74,"h":75,"i":76,"j":77,"k":78,"l":79,"m":80,"n":81,"o":82,"p":83,"q":84,"r":85,"s":86,"t":87,"u":88,"v":89,"w":90,"x":91,"y":92,"z":93,"{":94,"|":95,"}":96,"~":97,"":98,"":99,"":100,"":101,"":102,"":103,"":104,"":105,"":106,"":107,"":108,"":109,"":110,"":111,"":112,"":113,"":114,"":115,"":116,"":117,"":118,"":119,"":120,"":121,"":122,"¡":123,"¢":124,"£":125,"¤":126,"¥":127,"¦":128,"§":129,"¨":130,"©":131,"ª":132,"«":133,"¬":134,"­":135,"®":136,"¯":137,"°":138,"±":139,"²":140,"³":141,"´":142,"µ":143,"¶":144,"·":145,"¸":146,"¹":147,"º":148,"»":149,"¼":150,"½":151,"¾":152,"¿":153,"À":154,"Á":155,"Â":156,"Ã":157,"Ä":158,"Å":159,"Æ":160,"Ç":161,"È":162,"É":163,"Ê":164,"Ë":165,"Ì":166,"Í":167,"Î":168,"Ï":169,"Ð":170,"Ñ":171,"Ò":172,"Ó":173,"Ô":174,"Õ":175,"Ö":176,"×":177,"Ø":178,"Ù":179,"Ú":180,"Û":181,"Ü":182,"Ý":183,"Þ":184,"ß":185,"à":186,"á":187,"â":188,"ã":189,"ä":190,"å":191,"æ":192,"ç":193,"è":194,"é":195,"ê":196,"ë":197,"ì":198,"í":199,"î":200,"ï":201,"ð":202,"ñ":203,"ò":204,"ó":205,"ô":206,"õ":207,"ö":208,"÷":209,"ø":210,"ù":211,"ú":212,"û":213,"ü":214,"ý":215,"þ":216,"ÿ":217,"Ā":218,"ā":219,"Ă":220,"ă":221,"Ą":222,"ą":223,"Ć":224,"ć":225,"Ĉ":226,"ĉ":227,"Ċ":228,"Č":229,"č":230,"Ď":231,"ď":232,"Đ":233,"đ":234,"Ē":235,"ē":236,"ĕ":237,"Ė":238,"ė":239,"Ę":240,"ę":241,"Ě":242,"ě":243,"ĝ":244,"Ğ":245,"ğ":246,"Ġ":247,"ġ":248,"Ģ":249,"ģ":250,"ĥ":251,"Ħ":252,"ħ":253,"ĩ":254,"Ī":255,"ī":256,"ĭ":257,"Į":258,"į":259,"İ":260,"ı":261,"ĵ":262,"ķ":263,"ĸ":264,"ĺ":265,"Ļ":266,"ļ":267,"Ľ":268,"ľ":269,"Ł":270,"ł":271,"Ń":272,"ń":273,"Ņ":274,"ņ":275,"Ň":276,"ň":277,"ŋ":278,"Ō":279,"ō":280,"ŏ":281,"Ő":282,"ő":283,"Œ":284,"œ":285,"ŕ":286,"Ř":287,"ř":288,"Ś":289,"ś":290,"ŝ":291,"Ş":292,"ş":293,"Š":294,"š":295,"Ţ":296,"ţ":297,"Ť":298,"ť":299,"ũ":300,"Ū":301,"ū":302,"ŭ":303,"Ů":304,"ů":305,"Ű":306,"ű":307,"Ų":308,"ų":309,"ŵ":310,"ŷ":311,"Ÿ":312,"Ź":313,"ź":314,"Ż":315,"ż":316,"Ž":317,"ž":318,"ſ":319,"Ɔ":320,"Ƒ":321,"ƒ":322,"Ɠ":323,"Ɩ":324,"Ƙ":325,"ƛ":326,"Ɲ":327,"Ơ":328,"ơ":329,"Ʀ":330,"Ƭ":331,"ư":332,"ǎ":333,"ǐ":334,"ǒ":335,"ǔ":336,"ǟ":337,"ǣ":338,"ǫ":339,"Ǵ":340,"ǵ":341,"Ǻ":342,"ȃ":343,"ș":344,"ț":345,"Ȣ":346,"Ȥ":347,"ɐ":348,"ɑ":349,"ɒ":350,"ɔ":351,"ɕ":352,"ə":353,"ɚ":354,"ɛ":355,"ɡ":356,"ɣ":357,"ɤ":358,"ɨ":359,"ɪ":360,"ɫ":361,"ɬ":362,"ɴ":363,"ɵ":364,"ɹ":365,"ɾ":366,"ʀ":367,"ʁ":368,"ʃ":369,"ʊ":370,"ʋ":371,"ʌ":372,"ʐ":373,"ʒ":374,"ʔ":375,"ʦ":376,"ʲ":377,"ʻ":378,"ʼ":379,"ʾ":380,"ʿ":381,"ˆ":382,"ˈ":383,"ˌ":384,"ː":385,"ˑ":386,"˙":387,"˚":388,"˛":389,"˜":390,"˝":391,"ˤ":392,"̀":393,"́":394,"̂":395,"̃":396,"̄":397,"̆":398,"̇":399,"̈":400,"̍":401,"̡":402,"̣":403,"̤":404,"̧":405,"̱":406,"͘":407,"͡":408,"΄":409,"Ά":410,"Έ":411,"Ό":412,"Ώ":413,"ΐ":414,"Α":415,"Β":416,"Γ":417,"Δ":418,"Ε":419,"Ζ":420,"Η":421,"Θ":422,"Ι":423,"Κ":424,"Λ":425,"Μ":426,"Ν":427,"Ο":428,"Π":429,"Ρ":430,"Σ":431,"Τ":432,"Υ":433,"Φ":434,"Χ":435,"Ω":436,"ά":437,"έ":438,"ή":439,"ί":440,"α":441,"β":442,"γ":443,"δ":444,"ε":445,"ζ":446,"η":447,"θ":448,"ι":449,"κ":450,"λ":451,"μ":452,"ν":453,"ξ":454,"ο":455,"π":456,"ρ":457,"ς":458,"σ":459,"τ":460,"υ":461,"φ":462,"χ":463,"ψ":464,"ω":465,"ϊ":466,"ό":467,"ύ":468,"ώ":469,"Ё":470,"Ђ":471,"Ѓ":472,"Є":473,"Ѕ":474,"І":475,"Ј":476,"Љ":477,"Њ":478,"Ћ":479,"Ќ":480,"Ў":481,"Џ":482,"А":483,"Б":484,"В":485,"Г":486,"Д":487,"Е":488,"Ж":489,"З":490,"И":491,"Й":492,"К":493,"Л":494,"М":495,"Н":496,"О":497,"П":498,"Р":499,"С":500,"Т":501,"У":502,"Ф":503,"Х":504,"Ц":505,"Ч":506,"Ш":507,"Щ":508,"Ы":509,"Ь":510,"Э":511,"Ю":512,"Я":513,"а":514,"б":515,"в":516,"г":517,"д":518,"е":519,"ж":520,"з":521,"и":522,"й":523,"к":524,"л":525,"м":526,"н":527,"о":528,"п":529,"р":530,"с":531,"т":532,"у":533,"ф":534,"х":535,"ц":536,"ч":537,"ш":538,"щ":539,"ъ":540,"ы":541,"ь":542,"э":543,"ю":544,"я":545,"ё":546,"ђ":547,"ѓ":548,"є":549,"ѕ":550,"і":551,"ї":552,"ј":553,"љ":554,"њ":555,"ћ":556,"ќ":557,"ў":558,"Ѳ":559,"ѳ":560,"Ґ":561,"ґ":562,"ғ":563,"ҙ":564,"қ":565,"Ҡ":566,"ҡ":567,"ң":568,"ү":569,"ұ":570,"Ҳ":571,"ҳ":572,"һ":573,"ә":574,"ө":575,"ӳ":576,"ְ":577,"ֲ":578,"ִ":579,"ֵ":580,"ֶ":581,"ַ":582,"ָ":583,"ֹ":584,"ּ":585,"ֿ":586,"ׁ":587,"א":588,"ב":589,"ג":590,"ד":591,"ה":592,"ו":593,"ז":594,"ח":595,"ט":596,"י":597,"כ":598,"ל":599,"ם":600,"מ":601,"ן":602,"נ":603,"ס":604,"ע":605,"פ":606,"ץ":607,"צ":608,"ק":609,"ר":610,"ש":611,"ת":612,"،":613,"؛":614,"ء":615,"آ":616,"أ":617,"إ":618,"ئ":619,"ا":620,"ب":621,"ة":622,"ت":623,"ث":624,"ج":625,"ح":626,"خ":627,"د":628,"ذ":629,"ر":630,"ز":631,"س":632,"ش":633,"ص":634,"ض":635,"ط":636,"ظ":637,"ع":638,"غ":639,"ف":640,"ق":641,"ك":642,"ل":643,"م":644,"ن":645,"ه":646,"و":647,"ى":648,"ي":649,"ً":650,"ٍ":651,"َ":652,"ُ":653,"ِ":654,"ّ":655,"ْ":656,"ٹ":657,"ټ":658,"پ":659,"ځ":660,"چ":661,"ڠ":662,"ڤ":663,"ک":664,"ڬ":665,"ڭ":666,"گ":667,"ھ":668,"ہ":669,"ۂ":670,"ۇ":671,"ی":672,"ې":673,"ە":674,"۞":675,"۩":676,"۰":677,"۱":678,"۲":679,"۴":680,"۵":681,"۷":682,"۸":683,"۹":684,"ރ":685,"ކ":686,"އ":687,"މ":688,"ާ":689,"ި":690,"ެ":691,"ߧ":692,"ँ":693,"ं":694,"ः":695,"अ":696,"आ":697,"इ":698,"ई":699,"उ":700,"ऊ":701,"ऋ":702,"ए":703,"ऐ":704,"ऑ":705,"ओ":706,"औ":707,"क":708,"ख":709,"ग":710,"घ":711,"च":712,"छ":713,"ज":714,"झ":715,"ञ":716,"ट":717,"ठ":718,"ड":719,"ढ":720,"ण":721,"त":722,"थ":723,"द":724,"ध":725,"न":726,"प":727,"फ":728,"ब":729,"भ":730,"म":731,"य":732,"र":733,"ल":734,"व":735,"श":736,"ष":737,"स":738,"ह":739,"़":740,"ा":741,"ि":742,"ी":743,"ु":744,"ू":745,"ृ":746,"े":747,"ै":748,"ॉ":749,"ो":750,"ौ":751,"्":752,"ॐ":753,"ज़":754,"ड़":755,"ढ़":756,"फ़":757,"।":758,"०":759,"१":760,"२":761,"३":762,"५":763,"९":764,"আ":765,"ই":766,"এ":767,"ক":768,"গ":769,"চ":770,"ট":771,"ত":772,"ন":773,"প":774,"ব":775,"ম":776,"য":777,"র":778,"ল":779,"ষ":780,"হ":781,"়":782,"া":783,"ি":784,"ু":785,"ো":786,"্":787,"ৰ":788,"ં":789,"અ":790,"ક":791,"જ":792,"ત":793,"મ":794,"ય":795,"ર":796,"સ":797,"ા":798,"િ":799,"ુ":800,"ે":801,"્":802,"૦":803,"૧":804,"૨":805,"க":806,"ங":807,"ச":808,"ட":809,"த":810,"ன":811,"ப":812,"ம":813,"ய":814,"ர":815,"ல":816,"வ":817,"ஷ":818,"ா":819,"ி":820,"ு":821,"ூ":822,"ெ":823,"ை":824,"ோ":825,"்":826,"ం":827,"ఆ":828,"క":829,"గ":830,"జ":831,"డ":832,"ద":833,"ధ":834,"న":835,"ప":836,"ర":837,"శ":838,"ా":839,"ు":840,"ే":841,"ొ":842,"్":843,"ಐ":844,"ಯ":845,"ರ":846,"ವ":847,"ಶ":848,"ಾ":849,"ೈ":850,"್":851,"೦":852,"೧":853,"೨":854,"೩":855,"೫":856,"೬":857,"೮":858,"೯":859,"അ":860,"എ":861,"ക":862,"ത":863,"ദ":864,"ന":865,"പ":866,"മ":867,"യ":868,"ല":869,"വ":870,"ഷ":871,"സ":872,"ി":873,"ീ":874,"ു":875,"ോ":876,"്":877,"ก":878,"ข":879,"ค":880,"ง":881,"จ":882,"ฉ":883,"ช":884,"ซ":885,"ญ":886,"ฎ":887,"ฏ":888,"ฐ":889,"ฑ":890,"ฒ":891,"ณ":892,"ด":893,"ต":894,"ถ":895,"ท":896,"ธ":897,"น":898,"บ":899,"ป":900,"ผ":901,"ฝ":902,"พ":903,"ฟ":904,"ภ":905,"ม":906,"ย":907,"ร":908,"ฤ":909,"ล":910,"ว":911,"ศ":912,"ษ":913,"ส":914,"ห":915,"อ":916,"ะ":917,"ั":918,"า":919,"ำ":920,"ิ":921,"ี":922,"ึ":923,"ื":924,"ุ":925,"ู":926,"฿":927,"เ":928,"แ":929,"โ":930,"ใ":931,"ไ":932,"ๆ":933,"็":934,"่":935,"้":936,"๊":937,"๋":938,"์":939,"๑":940,"ຂ":941,"ຄ":942,"ງ":943,"ຈ":944,"ດ":945,"ຖ":946,"ນ":947,"ບ":948,"ມ":949,"ລ":950,"ວ":951,"ັ":952,"າ":953,"ຸ":954,"ົ":955,"ຽ":956,"ເ":957,"້":958,"ໜ":959,"་":960,"ཏ":961,"ད":962,"ན":963,"བ":964,"མ":965,"ཚ":966,"འ":967,"ལ":968,"ས":969,"ཱ":970,"ི":971,"ོ":972,"ྔ":973,"ླ":974,"န":975,"ရ":976,"ဝ":977,"သ":978,"ဟ":979,"ေ":980,"္":981,"ა":982,"ბ":983,"გ":984,"დ":985,"ე":986,"ვ":987,"ზ":988,"თ":989,"ი":990,"კ":991,"ლ":992,"მ":993,"ნ":994,"ო":995,"პ":996,"რ":997,"ს":998,"ტ":999,"უ":1000,"ქ":1001,"ღ":1002,"შ":1003,"ც":1004,"ძ":1005,"წ":1006,"ხ":1007,"ჯ":1008,"ህ":1009,"ሊ":1010,"ል":1011,"ሓ":1012,"ሕ":1013,"መ":1014,"ሙ":1015,"ሜ":1016,"ም":1017,"ሥ":1018,"ረ":1019,"ሪ":1020,"ራ":1021,"ር":1022,"ሰ":1023,"ሴ":1024,"ሻ":1025,"ሽ":1026,"ቀ":1027,"ቐ":1028,"በ":1029,"ቢ":1030,"ባ":1031,"ተ":1032,"ት":1033,"ቶ":1034,"ነ":1035,"ን":1036,"አ":1037,"ኣ":1038,"እ":1039,"ኦ":1040,"ካ":1041,"ክ":1042,"ዋ":1043,"ው":1044,"ዓ":1045,"ዕ":1046,"የ":1047,"ይ":1048,"ደ":1049,"ዲ":1050,"ድ":1051,"ገ":1052,"ጋ":1053,"ጨ":1054,"ጽ":1055,"ፅ":1056,"ፈ":1057,"ፍ":1058,"፣":1059,"ᐃ":1060,"ᐊ":1061,"ᑦ":1062,"ᑲ":1063,"ᒃ":1064,"ᒥ":1065,"ᓄ":1066,"ᓕ":1067,"ḇ":1068,"ḏ":1069,"ḗ":1070,"Ḥ":1071,"ḥ":1072,"Ḫ":1073,"ḫ":1074,"ḳ":1075,"ṃ":1076,"ṇ":1077,"ṛ":1078,"ṭ":1079,"ṳ":1080,"ẋ":1081,"ạ":1082,"ả":1083,"ấ":1084,"ầ":1085,"ậ":1086,"ắ":1087,"ằ":1088,"Ẳ":1089,"ặ":1090,"ẻ":1091,"ẽ":1092,"ế":1093,"ề":1094,"ể":1095,"ễ":1096,"ệ":1097,"ỉ":1098,"ị":1099,"Ọ":1100,"ọ":1101,"ỏ":1102,"ố":1103,"ồ":1104,"ổ":1105,"ộ":1106,"ớ":1107,"ờ":1108,"ỡ":1109,"ợ":1110,"ụ":1111,"ủ":1112,"ứ":1113,"ừ":1114,"ử":1115,"ữ":1116,"ự":1117,"ỹ":1118,"ἀ":1119,"ἁ":1120,"ἄ":1121,"Ἀ":1122,"ἐ":1123,"ἑ":1124,"Ἔ":1125,"ἠ":1126,"ἡ":1127,"ἦ":1128,"Ἡ":1129,"ἰ":1130,"Ἱ":1131,"Ὑ":1132,"ά":1133,"ὶ":1134,"ῆ":1135,"ῖ":1136,"ῥ":1137,"​":1138,"‌":1139,"‍":1140,"‎":1141,"‏":1142,"‐":1143,"‑":1144,"‒":1145,"–":1146,"—":1147,"―":1148,"‖":1149,"‘":1150,"’":1151,"‚":1152,"‛":1153,"“":1154,"”":1155,"„":1156,"‟":1157,"†":1158,"‡":1159,"•":1160,"…":1161,"‪":1162,"‬":1163,"‭":1164,"‰":1165,"′":1166,"″":1167,"‶":1168,"‹":1169,"›":1170,"※":1171,"‼":1172,"‽":1173,"⁄":1174,"ⁿ":1175,"₁":1176,"₂":1177,"₠":1178,"₣":1179,"₤":1180,"₩":1181,"₪":1182,"€":1183,"₴":1184,"₵":1185,"⃛":1186,"℃":1187,"ℓ":1188,"℔":1189,"№":1190,"™":1191,"Ω":1192,"℮":1193,"⅓":1194,"⅔":1195,"⅛":1196,"Ⅱ":1197,"←":1198,"↑":1199,"→":1200,"↓":1201,"↔":1202,"↧":1203,"⇒":1204,"⇔":1205,"⇗":1206,"⇢":1207,"∀":1208,"∃":1209,"∈":1210,"∑":1211,"−":1212,"√":1213,"∞":1214,"∴":1215,"∶":1216,"∼":1217,"≈":1218,"≠":1219,"≡":1220,"≤":1221,"≥":1222,"⋅":1223,"⌃":1224,"⌘":1225,"①":1226,"②":1227,"③":1228,"─":1229,"│":1230,"┌":1231,"┐":1232,"└":1233,"┘":1234,"┬":1235,"┴":1236,"╚":1237,"╞":1238,"╩":1239,"█":1240,"░":1241,"▒":1242,"■":1243,"□":1244,"▪":1245,"▲":1246,"▸":1247,"►":1248,"▼":1249,"◆":1250,"◇":1251,"◈":1252,"◊":1253,"○":1254,"◎":1255,"●":1256,"◙":1257,"◦":1258,"★":1259,"☆":1260,"☎":1261,"☏":1262,"☑":1263,"☯":1264,"☺":1265,"☻":1266,"☼":1267,"♀":1268,"♂":1269,"♠":1270,"♣":1271,"♥":1272,"♦":1273,"♪":1274,"♫":1275,"✿":1276,"➔":1277,"➚":1278,"➲":1279,"Ⰶ":1280,"、":1281,"。":1282,"々":1283,"《":1284,"》":1285,"「":1286,"」":1287,"『":1288,"』":1289,"【":1290,"】":1291,"〔":1292,"〕":1293,"〜":1294,"ぁ":1295,"あ":1296,"ぃ":1297,"い":1298,"う":1299,"ぇ":1300,"え":1301,"お":1302,"か":1303,"が":1304,"き":1305,"ぎ":1306,"く":1307,"ぐ":1308,"け":1309,"げ":1310,"こ":1311,"ご":1312,"さ":1313,"ざ":1314,"し":1315,"じ":1316,"す":1317,"ず":1318,"せ":1319,"ぜ":1320,"そ":1321,"ぞ":1322,"た":1323,"だ":1324,"ち":1325,"ぢ":1326,"っ":1327,"つ":1328,"づ":1329,"て":1330,"で":1331,"と":1332,"ど":1333,"な":1334,"に":1335,"ぬ":1336,"ね":1337,"の":1338,"は":1339,"ば":1340,"ひ":1341,"び":1342,"ふ":1343,"ぶ":1344,"ぷ":1345,"へ":1346,"べ":1347,"ほ":1348,"ぼ":1349,"ま":1350,"み":1351,"む":1352,"め":1353,"も":1354,"ゃ":1355,"や":1356,"ゅ":1357,"ゆ":1358,"ょ":1359,"よ":1360,"ら":1361,"り":1362,"る":1363,"れ":1364,"ろ":1365,"わ":1366,"ゐ":1367,"ゑ":1368,"を":1369,"ん":1370,"ゔ":1371,"゛":1372,"゜":1373,"ァ":1374,"ア":1375,"ィ":1376,"イ":1377,"ゥ":1378,"ウ":1379,"ェ":1380,"エ":1381,"ォ":1382,"オ":1383,"カ":1384,"ガ":1385,"キ":1386,"ギ":1387,"ク":1388,"グ":1389,"ケ":1390,"ゲ":1391,"コ":1392,"ゴ":1393,"サ":1394,"ザ":1395,"シ":1396,"ジ":1397,"ス":1398,"ズ":1399,"セ":1400,"ゼ":1401,"ソ":1402,"ゾ":1403,"タ":1404,"ダ":1405,"チ":1406,"ッ":1407,"ツ":1408,"テ":1409,"デ":1410,"ト":1411,"ド":1412,"ナ":1413,"ニ":1414,"ヌ":1415,"ネ":1416,"ノ":1417,"ハ":1418,"バ":1419,"パ":1420,"ヒ":1421,"ビ":1422,"ピ":1423,"フ":1424,"ブ":1425,"プ":1426,"ヘ":1427,"ベ":1428,"ペ":1429,"ホ":1430,"マ":1431,"ミ":1432,"ム":1433,"メ":1434,"モ":1435,"ャ":1436,"ュ":1437,"ユ":1438,"ョ":1439,"ヨ":1440,"ラ":1441,"リ":1442,"ル":1443,"レ":1444,"ロ":1445,"ワ":1446,"ン":1447,"ヴ":1448,"・":1449,"ー":1450,"ㄅ":1451,"ㄆ":1452,"ㄇ":1453,"ㄈ":1454,"ㄤ":1455,"㎡":1456,"一":1457,"七":1458,"万":1459,"三":1460,"上":1461,"下":1462,"不":1463,"与":1464,"专":1465,"世":1466,"丘":1467,"业":1468,"东":1469,"两":1470,"丨":1471,"个":1472,"中":1473,"临":1474,"丸":1475,"丹":1476,"为":1477,"主":1478,"丽":1479,"举":1480,"久":1481,"义":1482,"之":1483,"乌":1484,"乎":1485,"乏":1486,"乐":1487,"乗":1488,"乘":1489,"乙":1490,"九":1491,"也":1492,"乡":1493,"书":1494,"乱":1495,"乾":1496,"了":1497,"争":1498,"事":1499,"二":1500,"于":1501,"云":1502,"五":1503,"井":1504,"亚":1505,"些":1506,"亜":1507,"交":1508,"产":1509,"京":1510,"人":1511,"亿":1512,"什":1513,"仁":1514,"仅":1515,"今":1516,"介":1517,"仍":1518,"从":1519,"他":1520,"付":1521,"仙":1522,"仝":1523,"代":1524,"以":1525,"仪":1526,"仮":1527,"仲":1528,"件":1529,"价":1530,"任":1531,"伊":1532,"伏":1533,"伐":1534,"休":1535,"众":1536,"会":1537,"伝":1538,"伟":1539,"传":1540,"伯":1541,"估":1542,"伴":1543,"伸":1544,"但":1545,"位":1546,"低":1547,"住":1548,"佐":1549,"佑":1550,"体":1551,"何":1552,"余":1553,"作":1554,"你":1555,"佰":1556,"使":1557,"侍":1558,"依":1559,"便":1560,"俄":1561,"俊":1562,"保":1563,"信":1564,"修":1565,"倉":1566,"個":1567,"倒":1568,"值":1569,"假":1570,"做":1571,"健":1572,"側":1573,"備":1574,"储":1575,"傳":1576,"像":1577,"僕":1578,"儀":1579,"元":1580,"先":1581,"光":1582,"克":1583,"免":1584,"入":1585,"內":1586,"全":1587,"兩":1588,"八":1589,"公":1590,"六":1591,"共":1592,"关":1593,"兴":1594,"兵":1595,"其":1596,"具":1597,"内":1598,"円":1599,"冊":1600,"农":1601,"冤":1602,"冰":1603,"决":1604,"况":1605,"冷":1606,"净":1607,"凄":1608,"准":1609,"凍":1610,"减":1611,"几":1612,"出":1613,"刀":1614,"分":1615,"切":1616,"刑":1617,"列":1618,"刘":1619,"则":1620,"刚":1621,"判":1622,"別":1623,"利":1624,"别":1625,"到":1626,"制":1627,"刺":1628,"則":1629,"前":1630,"剑":1631,"剣":1632,"剥":1633,"剧":1634,"割":1635,"劇":1636,"劉":1637,"力":1638,"功":1639,"加":1640,"务":1641,"动":1642,"助":1643,"動":1644,"勝":1645,"勞":1646,"勢":1647,"勿":1648,"包":1649,"化":1650,"北":1651,"匡":1652,"区":1653,"医":1654,"匿":1655,"區":1656,"十":1657,"千":1658,"升":1659,"半":1660,"卍":1661,"华":1662,"协":1663,"卐":1664,"卓":1665,"单":1666,"卖":1667,"南":1668,"博":1669,"卡":1670,"卦":1671,"印":1672,"危":1673,"即":1674,"却":1675,"厂":1676,"原":1677,"去":1678,"参":1679,"及":1680,"友":1681,"双":1682,"反":1683,"发":1684,"取":1685,"受":1686,"变":1687,"叡":1688,"口":1689,"古":1690,"只":1691,"叫":1692,"可":1693,"台":1694,"史":1695,"右":1696,"号":1697,"司":1698,"吃":1699,"合":1700,"吉":1701,"同":1702,"名":1703,"后":1704,"向":1705,"吗":1706,"君":1707,"否":1708,"吧":1709,"含":1710,"听":1711,"吳":1712,"吴":1713,"吹":1714,"吾":1715,"呀":1716,"呂":1717,"呆":1718,"呉":1719,"告":1720,"呑":1721,"员":1722,"周":1723,"味":1724,"呼":1725,"命":1726,"和":1727,"咬":1728,"哈":1729,"哥":1730,"唐":1731,"售":1732,"唸":1733,"商":1734,"問":1735,"啦":1736,"喂":1737,"喇":1738,"喜":1739,"喫":1740,"嘉":1741,"嘛":1742,"嘟":1743,"噌":1744,"噛":1745,"器":1746,"嚴":1747,"四":1748,"回":1749,"因":1750,"囧":1751,"园":1752,"国":1753,"图":1754,"圆":1755,"國":1756,"圍":1757,"園":1758,"圓":1759,"圖":1760,"土":1761,"在":1762,"地":1763,"圳":1764,"场":1765,"坂":1766,"均":1767,"坐":1768,"块":1769,"坝":1770,"坡":1771,"坤":1772,"坪":1773,"型":1774,"垣":1775,"城":1776,"埔":1777,"域":1778,"基":1779,"堂":1780,"堆":1781,"堤":1782,"堰":1783,"報":1784,"場":1785,"塊":1786,"塗":1787,"塩":1788,"塾":1789,"増":1790,"壊":1791,"士":1792,"売":1793,"壳":1794,"壹":1795,"壽":1796,"处":1797,"备":1798,"変":1799,"复":1800,"夕":1801,"外":1802,"多":1803,"夛":1804,"夜":1805,"夢":1806,"大":1807,"天":1808,"太":1809,"夫":1810,"央":1811,"头":1812,"夷":1813,"夹":1814,"奇":1815,"奈":1816,"套":1817,"奚":1818,"女":1819,"奶":1820,"如":1821,"妖":1822,"妤":1823,"妻":1824,"始":1825,"委":1826,"姦":1827,"威":1828,"娃":1829,"娜":1830,"娣":1831,"娱":1832,"婁":1833,"婦":1834,"婷":1835,"媛":1836,"嫌":1837,"子":1838,"字":1839,"存":1840,"季":1841,"学":1842,"學":1843,"宁":1844,"安":1845,"完":1846,"宏":1847,"宗":1848,"官":1849,"定":1850,"宜":1851,"宝":1852,"实":1853,"実":1854,"客":1855,"宣":1856,"室":1857,"宫":1858,"宮":1859,"家":1860,"容":1861,"宿":1862,"寄":1863,"密":1864,"寧":1865,"寳":1866,"寶":1867,"寸":1868,"对":1869,"寺":1870,"寻":1871,"寿":1872,"将":1873,"小":1874,"少":1875,"尔":1876,"尘":1877,"就":1878,"尽":1879,"尾":1880,"尿":1881,"局":1882,"屄":1883,"居":1884,"屈":1885,"届":1886,"屋":1887,"屏":1888,"展":1889,"属":1890,"屯":1891,"山":1892,"屿":1893,"岐":1894,"岗":1895,"岡":1896,"岩":1897,"岭":1898,"岳":1899,"岸":1900,"島":1901,"峽":1902,"崎":1903,"崔":1904,"崖":1905,"崩":1906,"嶺":1907,"嶼":1908,"川":1909,"州":1910,"工":1911,"左":1912,"巧":1913,"巨":1914,"己":1915,"已":1916,"巴":1917,"巻":1918,"市":1919,"布":1920,"师":1921,"希":1922,"帝":1923,"帥":1924,"師":1925,"帯":1926,"常":1927,"幌":1928,"幡":1929,"幣":1930,"干":1931,"平":1932,"年":1933,"并":1934,"幸":1935,"幹":1936,"幾":1937,"广":1938,"庁":1939,"広":1940,"庄":1941,"庆":1942,"序":1943,"库":1944,"应":1945,"底":1946,"店":1947,"庚":1948,"府":1949,"度":1950,"庫":1951,"庭":1952,"康":1953,"廃":1954,"廣":1955,"建":1956,"开":1957,"弁":1958,"弄":1959,"式":1960,"弔":1961,"引":1962,"张":1963,"張":1964,"强":1965,"当":1966,"形":1967,"彩":1968,"影":1969,"役":1970,"彻":1971,"彼":1972,"征":1973,"待":1974,"很":1975,"律":1976,"後":1977,"徐":1978,"徒":1979,"得":1980,"復":1981,"微":1982,"徳":1983,"德":1984,"徽":1985,"心":1986,"必":1987,"志":1988,"忘":1989,"応":1990,"忠":1991,"快":1992,"念":1993,"忻":1994,"怒":1995,"思":1996,"怡":1997,"急":1998,"性":1999,"怪":2000,"恋":2001,"恢":2002,"息":2003,"悟":2004,"患":2005,"您":2006,"悩":2007,"悬":2008,"情":2009,"惠":2010,"惧":2011,"想":2012,"意":2013,"愛":2014,"慈":2015,"態":2016,"慎":2017,"慢":2018,"慣":2019,"慶":2020,"憎":2021,"憨":2022,"憩":2023,"憶":2024,"憾":2025,"應":2026,"成":2027,"我":2028,"戒":2029,"或":2030,"截":2031,"戴":2032,"戸":2033,"戻":2034,"所":2035,"扈":2036,"手":2037,"才":2038,"打":2039,"払":2040,"找":2041,"承":2042,"技":2043,"投":2044,"折":2045,"抜":2046,"护":2047,"报":2048,"抹":2049,"押":2050,"担":2051,"拉":2052,"拒":2053,"拓":2054,"招":2055,"拟":2056,"择":2057,"括":2058,"拳":2059,"拼":2060,"拿":2061,"持":2062,"指":2063,"按":2064,"挑":2065,"挡":2066,"振":2067,"据":2068,"捷":2069,"排":2070,"掛":2071,"採":2072,"探":2073,"接":2074,"控":2075,"推":2076,"掻":2077,"揂":2078,"揃":2079,"提":2080,"揚":2081,"換":2082,"握":2083,"援":2084,"搅":2085,"損":2086,"搜":2087,"搞":2088,"携":2089,"摂":2090,"摇":2091,"摩":2092,"撤":2093,"撫":2094,"撮":2095,"操":2096,"支":2097,"收":2098,"改":2099,"攻":2100,"放":2101,"政":2102,"故":2103,"敏":2104,"救":2105,"教":2106,"散":2107,"敬":2108,"数":2109,"整":2110,"文":2111,"斗":2112,"料":2113,"斯":2114,"新":2115,"方":2116,"施":2117,"旅":2118,"旋":2119,"族":2120,"无":2121,"日":2122,"旧":2123,"旭":2124,"时":2125,"昌":2126,"明":2127,"易":2128,"星":2129,"映":2130,"春":2131,"昭":2132,"是":2133,"显":2134,"時":2135,"晏":2136,"晨":2137,"普":2138,"景":2139,"智":2140,"暨":2141,"暫":2142,"曌":2143,"更":2144,"書":2145,"曹":2146,"曾":2147,"最":2148,"月":2149,"有":2150,"朔":2151,"朗":2152,"望":2153,"朝":2154,"期":2155,"木":2156,"末":2157,"本":2158,"札":2159,"术":2160,"朱":2161,"机":2162,"李":2163,"杏":2164,"材":2165,"村":2166,"条":2167,"来":2168,"杨":2169,"杭":2170,"東":2171,"松":2172,"板":2173,"极":2174,"构":2175,"析":2176,"林":2177,"枚":2178,"果":2179,"枡":2180,"架":2181,"某":2182,"染":2183,"柔":2184,"查":2185,"柱":2186,"柴":2187,"标":2188,"校":2189,"株":2190,"样":2191,"核":2192,"根":2193,"格":2194,"栽":2195,"桃":2196,"框":2197,"案":2198,"桜":2199,"桥":2200,"桩":2201,"桶":2202,"梁":2203,"梅":2204,"检":2205,"棲":2206,"植":2207,"検":2208,"楠":2209,"業":2210,"極":2211,"楼":2212,"楽":2213,"樓":2214,"標":2215,"模":2216,"横":2217,"樹":2218,"橋":2219,"機":2220,"檀":2221,"次":2222,"欢":2223,"款":2224,"歌":2225,"止":2226,"正":2227,"此":2228,"步":2229,"武":2230,"歩":2231,"歸":2232,"死":2233,"殊":2234,"段":2235,"殻":2236,"母":2237,"毎":2238,"每":2239,"毓":2240,"比":2241,"毛":2242,"氏":2243,"民":2244,"气":2245,"気":2246,"氣":2247,"水":2248,"氷":2249,"永":2250,"汁":2251,"求":2252,"汇":2253,"汉":2254,"江":2255,"池":2256,"汴":2257,"決":2258,"沈":2259,"沌":2260,"沙":2261,"沛":2262,"没":2263,"沢":2264,"沪":2265,"油":2266,"治":2267,"沿":2268,"況":2269,"泉":2270,"泊":2271,"法":2272,"波":2273,"泥":2274,"注":2275,"泰":2276,"洋":2277,"洒":2278,"洗":2279,"洛":2280,"洞":2281,"洪":2282,"派":2283,"流":2284,"测":2285,"济":2286,"浙":2287,"浜":2288,"浦":2289,"浮":2290,"浴":2291,"海":2292,"消":2293,"涩":2294,"淡":2295,"深":2296,"混":2297,"淹":2298,"清":2299,"済":2300,"渋":2301,"減":2302,"渝":2303,"渡":2304,"温":2305,"港":2306,"渲":2307,"湖":2308,"湘":2309,"湯":2310,"湾":2311,"満":2312,"溜":2313,"溝":2314,"溢":2315,"溥":2316,"溪":2317,"溶":2318,"滇":2319,"滞":2320,"滨":2321,"漢":2322,"漫":2323,"潢":2324,"潭":2325,"潮":2326,"澄":2327,"澎":2328,"澤":2329,"澳":2330,"濟":2331,"濱":2332,"灣":2333,"火":2334,"灯":2335,"灰":2336,"灾":2337,"炎":2338,"炯":2339,"点":2340,"為":2341,"烈":2342,"烏":2343,"烧":2344,"热":2345,"無":2346,"然":2347,"焼":2348,"煙":2349,"照":2350,"煩":2351,"煮":2352,"熊":2353,"熟":2354,"熨":2355,"熱":2356,"燕":2357,"燗":2358,"爛":2359,"爪":2360,"爱":2361,"父":2362,"爻":2363,"爾":2364,"片":2365,"版":2366,"牌":2367,"牙":2368,"牛":2369,"物":2370,"特":2371,"状":2372,"独":2373,"狭":2374,"献":2375,"獲":2376,"玄":2377,"玉":2378,"王":2379,"环":2380,"珈":2381,"珍":2382,"珠":2383,"班":2384,"球":2385,"理":2386,"琢":2387,"琲":2388,"璐":2389,"環":2390,"瓊":2391,"瓶":2392,"甜":2393,"生":2394,"用":2395,"田":2396,"申":2397,"电":2398,"男":2399,"町":2400,"画":2401,"界":2402,"留":2403,"番":2404,"畿":2405,"疆":2406,"疑":2407,"疗":2408,"疫":2409,"病":2410,"痛":2411,"痴":2412,"癌":2413,"癪":2414,"発":2415,"登":2416,"白":2417,"百":2418,"的":2419,"皇":2420,"皮":2421,"盆":2422,"益":2423,"监":2424,"盛":2425,"監":2426,"盧":2427,"目":2428,"直":2429,"相":2430,"省":2431,"看":2432,"県":2433,"真":2434,"眩":2435,"眼":2436,"着":2437,"睛":2438,"瞎":2439,"瞳":2440,"瞻":2441,"知":2442,"石":2443,"码":2444,"砂":2445,"砕":2446,"破":2447,"硝":2448,"硬":2449,"确":2450,"碁":2451,"碧":2452,"磁":2453,"磨":2454,"示":2455,"礼":2456,"社":2457,"祖":2458,"神":2459,"票":2460,"祭":2461,"祸":2462,"祿":2463,"禁":2464,"禅":2465,"福":2466,"禪":2467,"禹":2468,"秀":2469,"私":2470,"秉":2471,"秋":2472,"种":2473,"科":2474,"租":2475,"秦":2476,"积":2477,"称":2478,"移":2479,"稅":2480,"程":2481,"税":2482,"稲":2483,"稼":2484,"稿":2485,"空":2486,"立":2487,"站":2488,"竜":2489,"章":2490,"竹":2491,"第":2492,"筆":2493,"等":2494,"筑":2495,"答":2496,"签":2497,"简":2498,"箍":2499,"箕":2500,"管":2501,"箱":2502,"節":2503,"篇":2504,"簡":2505,"米":2506,"粉":2507,"粤":2508,"粵":2509,"精":2510,"糖":2511,"糸":2512,"系":2513,"紀":2514,"紂":2515,"紅":2516,"紋":2517,"納":2518,"純":2519,"紙":2520,"級":2521,"素":2522,"索":2523,"紧":2524,"細":2525,"紹":2526,"終":2527,"経":2528,"絞":2529,"統":2530,"經":2531,"継":2532,"続":2533,"網":2534,"総":2535,"線":2536,"縣":2537,"繁":2538,"織":2539,"红":2540,"约":2541,"纽":2542,"线":2543,"细":2544,"终":2545,"绍":2546,"经":2547,"绝":2548,"统":2549,"绪":2550,"维":2551,"网":2552,"罗":2553,"罪":2554,"置":2555,"署":2556,"羅":2557,"美":2558,"群":2559,"義":2560,"羲":2561,"羽":2562,"翁":2563,"習":2564,"翻":2565,"翼":2566,"耀":2567,"老":2568,"考":2569,"者":2570,"而":2571,"耐":2572,"耳":2573,"耶":2574,"耸":2575,"联":2576,"聖":2577,"聞":2578,"聼":2579,"肉":2580,"股":2581,"肥":2582,"育":2583,"背":2584,"胖":2585,"胞":2586,"胡":2587,"能":2588,"脑":2589,"脖":2590,"脚":2591,"脱":2592,"腔":2593,"腕":2594,"腰":2595,"腹":2596,"膚":2597,"臂":2598,"臓":2599,"臣":2600,"臨":2601,"自":2602,"至":2603,"致":2604,"臺":2605,"興":2606,"舊":2607,"舞":2608,"航":2609,"舫":2610,"般":2611,"艮":2612,"良":2613,"色":2614,"艳":2615,"节":2616,"芋":2617,"芝":2618,"芦":2619,"花":2620,"若":2621,"英":2622,"茂":2623,"茜":2624,"茨":2625,"茶":2626,"草":2627,"荣":2628,"荷":2629,"莨":2630,"莲":2631,"获":2632,"莹":2633,"菜":2634,"菩":2635,"華":2636,"萄":2637,"萧":2638,"萬":2639,"落":2640,"葉":2641,"葡":2642,"董":2643,"蒋":2644,"蒸":2645,"蓋":2646,"蓟":2647,"蓮":2648,"蔓":2649,"蔚":2650,"蔣":2651,"蕭":2652,"薊":2653,"薬":2654,"藍":2655,"藏":2656,"藕":2657,"藤":2658,"蘇":2659,"虑":2660,"號":2661,"蛋":2662,"螨":2663,"螳":2664,"螺":2665,"蟲":2666,"血":2667,"衆":2668,"行":2669,"術":2670,"街":2671,"衡":2672,"表":2673,"裂":2674,"装":2675,"裕":2676,"製":2677,"西":2678,"要":2679,"見":2680,"視":2681,"覧":2682,"親":2683,"観":2684,"见":2685,"观":2686,"视":2687,"角":2688,"解":2689,"言":2690,"訃":2691,"訊":2692,"討":2693,"訓":2694,"記":2695,"設":2696,"許":2697,"訳":2698,"詠":2699,"試":2700,"詩":2701,"詰":2702,"話":2703,"詳":2704,"詹":2705,"誓":2706,"語":2707,"說":2708,"説":2709,"読":2710,"調":2711,"談":2712,"請":2713,"論":2714,"警":2715,"譯":2716,"護":2717,"讃":2718,"變":2719,"计":2720,"讨":2721,"议":2722,"讯":2723,"许":2724,"论":2725,"讼":2726,"设":2727,"证":2728,"评":2729,"识":2730,"诉":2731,"译":2732,"试":2733,"该":2734,"详":2735,"语":2736,"说":2737,"请":2738,"课":2739,"调":2740,"谈":2741,"谋":2742,"谢":2743,"谷":2744,"豆":2745,"豊":2746,"豐":2747,"豫":2748,"貌":2749,"負":2750,"財":2751,"貢":2752,"販":2753,"貮":2754,"貰":2755,"貴":2756,"貸":2757,"費":2758,"賀":2759,"資":2760,"賈":2761,"賢":2762,"贊":2763,"贞":2764,"货":2765,"购":2766,"贱":2767,"贷":2768,"资":2769,"赌":2770,"赖":2771,"赛":2772,"赞":2773,"赤":2774,"赵":2775,"赶":2776,"起":2777,"超":2778,"越":2779,"足":2780,"跆":2781,"跋":2782,"跟":2783,"跨":2784,"路":2785,"蹟":2786,"躇":2787,"躊":2788,"身":2789,"車":2790,"転":2791,"較":2792,"載":2793,"輪":2794,"车":2795,"转":2796,"载":2797,"较":2798,"辑":2799,"辛":2800,"辞":2801,"辭":2802,"辱":2803,"農":2804,"込":2805,"达":2806,"迅":2807,"过":2808,"迎":2809,"运":2810,"近":2811,"返":2812,"这":2813,"进":2814,"述":2815,"送":2816,"适":2817,"逃":2818,"逆":2819,"选":2820,"透":2821,"途":2822,"通":2823,"速":2824,"造":2825,"逢":2826,"連":2827,"逸":2828,"遇":2829,"遊":2830,"運":2831,"過":2832,"道":2833,"達":2834,"遗":2835,"遠":2836,"適":2837,"遷":2838,"遽":2839,"還":2840,"邊":2841,"邑":2842,"那":2843,"邱":2844,"郎":2845,"郑":2846,"郝":2847,"郡":2848,"部":2849,"郷":2850,"都":2851,"鄂":2852,"鄉":2853,"鄭":2854,"配":2855,"酎":2856,"酒":2857,"采":2858,"釉":2859,"里":2860,"重":2861,"野":2862,"量":2863,"金":2864,"釣":2865,"鈍":2866,"鈴":2867,"鉄":2868,"鉋":2869,"銀":2870,"銭":2871,"録":2872,"鍋":2873,"鎚":2874,"鏡":2875,"鐵":2876,"针":2877,"钟":2878,"钢":2879,"钦":2880,"钧":2881,"钱":2882,"铁":2883,"铭":2884,"银":2885,"销":2886,"锈":2887,"锋":2888,"错":2889,"锦":2890,"键":2891,"長":2892,"长":2893,"門":2894,"開":2895,"間":2896,"関":2897,"閥":2898,"關":2899,"门":2900,"问":2901,"间":2902,"闻":2903,"队":2904,"阪":2905,"防":2906,"阳":2907,"阶":2908,"阿":2909,"陀":2910,"际":2911,"陈":2912,"降":2913,"限":2914,"院":2915,"除":2916,"陰":2917,"陳":2918,"陵":2919,"陶":2920,"陽":2921,"隆":2922,"隊":2923,"階":2924,"際":2925,"障":2926,"难":2927,"雄":2928,"雙":2929,"雛":2930,"離":2931,"難":2932,"雨":2933,"雪":2934,"雲":2935,"雷":2936,"電":2937,"需":2938,"霊":2939,"霖":2940,"霜":2941,"露":2942,"青":2943,"静":2944,"非":2945,"面":2946,"革":2947,"靳":2948,"韓":2949,"音":2950,"韻":2951,"頂":2952,"項":2953,"順":2954,"須":2955,"頑":2956,"領":2957,"頭":2958,"題":2959,"顯":2960,"页":2961,"顾":2962,"预":2963,"颐":2964,"颖":2965,"题":2966,"颜":2967,"额":2968,"風":2969,"风":2970,"飛":2971,"食":2972,"飲":2973,"飼":2974,"館":2975,"馆":2976,"首":2977,"香":2978,"馬":2979,"駄":2980,"駅":2981,"騙":2982,"騜":2983,"驗":2984,"马":2985,"验":2986,"骨":2987,"體":2988,"高":2989,"鬼":2990,"鮨":2991,"鮮":2992,"鯨":2993,"鱲":2994,"鳩":2995,"鵜":2996,"鷹":2997,"鸡":2998,"鸭":2999,"鸯":3000,"鸳":3001,"鹅":3002,"麗":3003,"麩":3004,"黃":3005,"黄":3006,"黎":3007,"黒":3008,"點":3009,"黨":3010,"鼻":3011,"齋":3012,"龍":3013,"龙":3014,"겜":3015,"경":3016,"계":3017,"고":3018,"곡":3019,"구":3020,"국":3021,"권":3022,"글":3023,"김":3024,"뀌":3025,"나":3026,"녀":3027,"년":3028,"노":3029,"누":3030,"는":3031,"니":3032,"닌":3033,"다":3034,"단":3035,"대":3036,"도":3037,"동":3038,"드":3039,"디":3040,"딘":3041,"딩":3042,"라":3043,"레":3044,"려":3045,"령":3046,"로":3047,"루":3048,"르":3049,"린":3050,"마":3051,"막":3052,"맨":3053,"면":3054,"목":3055,"무":3056,"문":3057,"미":3058,"바":3059,"백":3060,"뱅":3061,"번":3062,"벌":3063,"베":3064,"변":3065,"보":3066,"블":3067,"비":3068,"빅":3069,"빌":3070,"사":3071,"산":3072,"서":3073,"선":3074,"성":3075,"세":3076,"셀":3077,"셔":3078,"수":3079,"스":3080,"습":3081,"승":3082,"시":3083,"신":3084,"싱":3085,"아":3086,"알":3087,"압":3088,"야":3089,"양":3090,"어":3091,"었":3092,"에":3093,"엠":3094,"영":3095,"오":3096,"요":3097,"울":3098,"웅":3099,"워":3100,"월":3101,"웨":3102,"위":3103,"유":3104,"율":3105,"으":3106,"을":3107,"읍":3108,"이":3109,"인":3110,"일":3111,"전":3112,"정":3113,"제":3114,"조":3115,"종":3116,"주":3117,"지":3118,"천":3119,"체":3120,"충":3121,"치":3122,"클":3123,"키":3124,"태":3125,"터":3126,"턴":3127,"퇴":3128,"트":3129,"티":3130,"퍼":3131,"피":3132,"한":3133,"호":3134,"":3135,"":3136,"":3137,"":3138,"":3139,"":3140,"":3141,"":3142,"":3143,"":3144,"":3145,"":3146,"":3147,"":3148,"":3149,"":3150,"":3151,"金":3152,"ﬁ":3153,"ﬂ":3154,"︰":3155,"ﺍ":3156,"ﺏ":3157,"ﺤ":3158,"ﺩ":3159,"ﻁ":3160,"ﻙ":3161,"ﻫ":3162,"﻿":3163,"！":3164,"＄":3165,"（":3166,"）":3167,"＊":3168,"，":3169,"－":3170,"．":3171,"１":3172,"２":3173,"７":3174,"９":3175,"：":3176,"；":3177,"？":3178,"Ｉ":3179,"Ｐ":3180,"Ｓ":3181,"Ｖ":3182,"［":3183,"］":3184,"ｂ":3185,"ｄ":3186,"ｅ":3187,"ｈ":3188,"ｌ":3189,"ｏ":3190,"ｓ":3191,"ｕ":3192,"､":3193,"･":3194,"ｫ":3195,"ｻ":3196,"ｿ":3197,"￠":3198,"￥":3199,"￼":3200,"�":3201,"th":3202,"in":3203,"the":3204,"an":3205,"re":3206,"on":3207,"er":3208,"at":3209,"en":3210,"is":3211,"or":3212,"al":3213,"es":3214,"ou":3215,"of":3216,"to":3217,"and":3218,"it":3219,"ion":3220,"ar":3221,"ed":3222,"ing":3223,"as":3224,"ic":3225,"ro":3226,"st":3227,"ent":3228,"le":3229,"om":3230,"il":3231,"el":3232,"ct":3233,"for":3234,"be":3235,"se":3236,"he":3237,"ation":3238,"ve":3239,"de":3240,"ch":3241,"ly":3242,"that":3243,"pe":3244,"ot":3245,"con":3246,"am":3247,"pro":3248,"im":3249,"ol":3250,"are":3251,"su":3252,"ce":3253,"ad":3254,"we":3255,"wh":3256,"res":3257,"our":3258,"wi":3259,"ver":3260,"ig":3261,"ment":3262,"un":3263,"ut":3264,"ab":3265,"with":3266,"tr":3267,"com":3268,"ur":3269,"ag":3270,"The":3271,"id":3272,"ow":3273,"ter":3274,"ay":3275,"us":3276,"ir":3277,"op":3278,"et":3279,"ul":3280,"ac":3281,"ex":3282,"ill":3283,"all":3284,"ort":3285,"ha":3286,"mo":3287,"ies":3288,"ne":3289,"oun":3290,"em":3291,"this":3292,"ers":3293,"pl":3294,"ld":3295,"ity":3296,"not":3297,"so":3298,"ate":3299,"ess":3300,"po":3301,"if":3302,"port":3303,"qu":3304,"ain":3305,"ap":3306,"by":3307,"te":3308,"est":3309,"ak":3310,"have":3311,"ich":3312,"sh":3313,"art":3314,"ive":3315,"ant":3316,"iv":3317,"lo":3318,"igh":3319,"you":3320,"ther":3321,"act":3322,"ould":3323,"uro":3324,"will":3325,"rom":3326,"which":3327,"Euro":3328,"ial":3329,"Europe":3330,"li":3331,"fe":3332,"wor":3333,"out":3334,"from":3335,"ust":3336,"ist":3337,"has":3338,"can":3339,"end":3340,"man":3341,"pr":3342,"ions":3343,"me":3344,"In":3345,"ard":3346,"one":3347,"ib":3348,"able":3349,"per":3350,"ight":3351,"co":3352,"Th":3353,"ge":3354,"Com":3355,"gr":3356,"ren":3357,"pos":3358,"00":3359,"sion":3360,"der":3361,"ure":3362,"was":3363,"cl":3364,"ie":3365,"do":3366,"European":3367,"Comm":3368,"ind":3369,"its":3370,"du":3371,"od":3372,"ber":3373,"part":3374,"ical":3375,"ke":3376,"age":3377,"ated":3378,"au":3379,"ell":3380,"ous":3381,"um":3382,"ans":3383,"ple":3384,"also":3385,"very":3386,"form":3387,"go":3388,"ish":3389,"ast":3390,"fo":3391,"ach":3392,"cr":3393,"ire":3394,"av":3395,"coun":3396,"ations":3397,"cess":3398,"your":3399,"str":3400,"work":3401,"ission":3402,"af":3403,"We":3404,"ction":3405,"ice":3406,"cial":3407,"ia":3408,"cont":3409,"ser":3410,"ip":3411,"up":3412,"ree":3413,"reg":3414,"dis":3415,"ud":3416,"but":3417,"ake":3418,"there":3419,"pres":3420,"int":3421,"cre":3422,"other":3423,"ine":3424,"more":3425,"It":3426,"gh":3427,"tim":3428,"ary":3429,"Mr":3430,"ide":3431,"ear":3432,"Commission":3433,"pre":3434,"now":3435,"vel":3436,"no":3437,"ments":3438,"pol":3439,"would":3440,"St":3441,"ance":3442,"iz":3443,"ident":3444,"their":3445,"ates":3446,"ong":3447,"ition":3448,"comm":3449,"ail":3450,"ome":3451,"any":3452,"been":3453,"ough":3454,"Un":3455,"ely":3456,"tern":3457,"ace":3458,"new":3459,"here":3460,"ark":3461,"This":3462,"spe":3463,"..":3464,"ally":3465,"way":3466,"ack":3467,"should":3468,"ame":3469,"ite":3470,"bl":3471,"ign":3472,"ound":3473,"ev":3474,"gu":3475,"who":3476,"Pres":3477,"ful":3478,"prov":3479,"off":3480,"countr":3481,"fore":3482,"ass":3483,"bo":3484,"ence":3485,"ade":3486,"ef":3487,"cent":3488,"ase":3489,"pt":3490,"ament":3491,"reat":3492,"ens":3493,"ho":3494,"must":3495,"ext":3496,"red":3497,"ational":3498,"je":3499,"own":3500,"200":3501,"ities":3502,"ult":3503,"produ":3504,"they":3505,"need":3506,"ci":3507,"year":3508,"comp":3509,"sp":3510,"otel":3511,"like":3512,"over":3513,"day":3514,"time":3515,"only":3516,"fr":3517,"President":3518,"sup":3519,"ok":3520,"cer":3521,"cur":3522,"right":3523,"than":3524,"sy":3525,"ian":3526,"about":3527,"sib":3528,"ts":3529,"ject":3530,"aw":3531,"get":3532,"enc":3533,"ember":3534,"min":3535,"some":3536,"fin":3537,"bet":3538,"use":3539,"velop":3540,"serv":3541,"fir":3542,"rel":3543,"Par":3544,"ob":3545,"ms":3546,"ious":3547,"liament":3548,"these":3549,"dr":3550,"cor":3551,"rent":3552,"des":3553,"mark":3554,"ise":3555,"tw":3556,"most":3557,"ution":3558,"tain":3559,"import":3560,"ility":3561,"report":3562,"ck":3563,"develop":3564,"br":3565,"ople":3566,"my":3567,"cus":3568,"Union":3569,"ener":3570,"19":3571,"many":3572,"gy":3573,"stem":3574,"trans":3575,"ue":3576,"rest":3577,"leg":3578,"ors":3579,"under":3580,"dif":3581,"ause":3582,"ings":3583,"Parliament":3584,"und":3585,"into":3586,"EU":3587,"come":3588,"well":3589,"air":3590,"econ":3591,"ular":3592,"people":3593,"sub":3594,"what":3595,"ced":3596,"chan":3597,"ied":3598,"mat":3599,"ile":3600,"ures":3601,"ating":3602,"fect":3603,"Al":3604,"ose":3605,"iew":3606,"add":3607,"room":3608,"ific":3609,"cle":3610,"ink":3611,"oy":3612,"such":3613,"just":3614,"were":3615,"low":3616,"ep":3617,"cause":3618,"support":3619,"system":3620,"cil":3621,"ubl":3622,"ted":3623,"States":3624,"lect":3625,"high":3626,"view":3627,"Ch":3628,"ces":3629,"mon":3630,"ices":3631,"countries":3632,"ble":3633,"inv":3634,"An":3635,"Member":3636,"incl":3637,"ual":3638,"mer":3639,"requ":3640,"col":3641,"Coun":3642,"first":3643,"when":3644,"main":3645,"inform":3646,"his":3647,"sol":3648,"present":3649,"econom":3650,"fact":3651,"know":3652,"partic":3653,"polic":3654,"pect":3655,"ra":3656,"irect":3657,"oper":3658,"loc":3659,"ild":3660,"Council":3661,"vis":3662,"point":3663,"ty":3664,"them":3665,"read":3666,"ory":3667,"again":3668,"inte":3669,"important":3670,"where":3671,"ning":3672,"ative":3673,"stand":3674,"make":3675,"hotel":3676,"bas":3677,"stru":3678,"ween":3679,"fic":3680,"inst":3681,"sit":3682,"oup":3683,"ran":3684,"market":3685,"between":3686,"possib":3687,"ting":3688,"propos":3689,"take":3690,"thing":3691,"Wh":3692,"intern":3693,"world":3694,"As":3695,"cept":3696,"because":3697,"cons":3698,"att":3699,"bel":3700,"row":3701,"bu":3702,"med":3703,"pon":3704,"cond":3705,"rough":3706,"ress":3707,"see":3708,"set":3709,"hel":3710,"lar":3711,"aid":3712,"ublic":3713,"tak":3714,"ural":3715,"os":3716,"old":3717,"sul":3718,"land":3719,"ick":3720,"made":3721,"order":3722,"fl":3723,"even":3724,"ality":3725,"dec":3726,"Con":3727,"ards":3728,"par":3729,"two":3730,"ives":3731,"del":3732,"20":3733,"information":3734,"ax":3735,"years":3736,"arch":3737,"great":3738,"product":3739,"sure":3740,"issu":3741,"gram":3742,"good":3743,"through":3744,"every":3745,"polit":3746,"had":3747,"If":3748,"sur":3749,"als":3750,"pers":3751,"inter":3752,"...":3753,"chn":3754,"those":3755,"ict":3756,"ry":3757,"car":3758,"agree":3759,"ents":3760,"direct":3761,"ten":3762,"respon":3763,"then":3764,"want":3765,"olo":3766,"ages":3767,"abl":3768,"policy":3769,"hu":3770,"wever":3771,"gan":3772,"iver":3773,"being":3774,"may":3775,"peri":3776,"cour":3777,"ited":3778,"clear":3779,").":3780,"proble":3781,"play":3782,"long":3783,"place":3784,"ieve":3785,"tee":3786,"unity":3787,"less":3788,"ater":3789,"vot":3790,"num":3791,"oc":3792,"ks":3793,"includ":3794,"used":3795,"10":3796,"There":3797,"particular":3798,"For":3799,"process":3800,"bus":3801,"elf":3802,"De":3803,"call":3804,"after":3805,"uring":3806,"uch":3807,"ph":3808,"possible":3809,"concer":3810,"vir":3811,"say":3812,"quest":3813,"program":3814,"clo":3815,"che":3816,"val":3817,"vent":3818,"bal":3819,"diffe":3820,"rol":3821,"put":3822,"area":3823,"ince":3824,"ma":3825,"You":3826,"rit":3827,"emb":3828,"political":3829,"find":3830,"techn":3831,"public":3832,"men":3833,"economic":3834,"comple":3835,"fer":3836,"Re":3837,"contr":3838,"incre":3839,"deb":3840,"person":3841,"how":3842,"ism":3843,"ines":3844,"situ":3845,"eng":3846,"urn":3847,"io":3848,"alth":3849,"prote":3850,"help":3851,"same":3852,"mot":3853,"ency":3854,"ouse":3855,"tow":3856,"sim":3857,"provid":3858,"country":3859,"iness":3860,"contin":3861,"ved":3862,"char":3863,"effect":3864,"appl":3865,"He":3866,"access":3867,"could":3868,"sm":3869,"interest":3870,"pet":3871,"ters":3872,"development":3873,"ety":3874,"ner":3875,"appro":3876,"ath":3877,"king":3878,"ply":3879,"ss":3880,"gover":3881,"does":3882,"rights":3883,"ily":3884,"equ":3885,"level":3886,"ready":3887,"within":3888,"resul":3889,"led":3890,"exam":3891,"line":3892,"mak":3893,"fol":3894,"Ar":3895,"far":3896,"cap":3897,"fund":3898,"against":3899,"),":3900,"ability":3901,"Ger":3902,"gener":3903,"avail":3904,"fort":3905,"both":3906,"much":3907,"cho":3908,"cord":3909,"human":3910,"back":3911,"govern":3912,"therefore":3913,"lead":3914,"ason":3915,"look":3916,"finan":3917,"ord":3918,"dat":3919,"iven":3920,"ploy":3921,"sign":3922,"On":3923,"Se":3924,"press":3925,"utions":3926,"social":3927,"group":3928,"itions":3929,"free":3930,"hap":3931,"key":3932,"viron":3933,"real":3934,"open":3935,"think":3936,"var":3937,"fam":3938,"last":3939,"ower":3940,"ically":3941,"ith":3942,"her":3943,"down":3944,"different":3945,"ves":3946,"without":3947,"allow":3948,"top":3949,"meas":3950,"ittee":3951,"ional":3952,"organ":3953,"ised":3954,"Hotel":3955,"spec":3956,"sum":3957,"ics":3958,"international":3959,"Ho":3960,"vironment":3961,"number":3962,"hand":3963,"tom":3964,"En":3965,"ven":3966,"services":3967,"tal":3968,"pri":3969,"Gr":3970,"still":3971,"too":3972,"ient":3973,"ists":3974,"embers":3975,"cit":3976,"Pro":3977,"word":3978,"ban":3979,"mit":3980,"special":3981,"change":3982,"site":3983,"require":3984,"side":3985,"la":3986,"available":3987,"fut":3988,"rap":3989,"large":3990,"lif":3991,"ways":3992,"certain":3993,"eas":3994,"national":3995,"mocr":3996,"ask":3997,"urther":3998,"current":3999,"business":4000,"course":4001,"sing":4002,"ix":4003,"follow":4004,"state":4005,"que":4006,"offer":4007,"before":4008,"already":4009,"future":4010,"thor":4011,"ret":4012,"believe":4013,"ulation":4014,"ving":4015,"employ":4016,"ants":4017,"start":4018,"fac":4019,"project":4020,"small":4021,"quality":4022,"soci":4023,"operation":4024,"ug":4025,"concern":4026,"pend":4027,"today":4028,"ness":4029,"That":4030,"ca":4031,"ication":4032,"struct":4033,"position":4034,"decis":4035,"ese":4036,"plement":4037,"Ne":4038,"ff":4039,"products":4040,"indust":4041,"aim":4042,"case":4043,"But":4044,"rooms":4045,"bre":4046,"environment":4047,"compet":4048,"law":4049,"ital":4050,"design":4051,"sk":4052,"ub":4053,"US":4054,"suc":4055,"ann":4056,"pur":4057,"service":4058,"pare":4059,"data":4060,"regard":4061,"cannot":4062,"rem":4063,"war":4064,"responsib":4065,"jor":4066,"pen":4067,"So":4068,"ately":4069,"eld":4070,"financial":4071,"question":4072,"activ":4073,"ier":4074,"ider":4075,"ished":4076,"cy":4077,"search":4078,"ger":4079,"feren":4080,"action":4081,"since":4082,"les":4083,"curity":4084,"reason":4085,"nat":4086,"Commissioner":4087,"offers":4088,"ore":4089,"each":4090,"ship":4091,"udget":4092,"199":4093,"respect":4094,"meet":4095,"light":4096,"necess":4097,"iving":4098,"adv":4099,"ute":4100,"Tr":4101,"els":4102,"hist":4103,"citiz":4104,"vi":4105,"grow":4106,"fully":4107,"issue":4108,"control":4109,"por":4110,"city":4111,"best":4112,"sect":4113,"list":4114,"during":4115,"ible":4116,"cell":4117,"road":4118,"cost":4119,"lim":4120,"example":4121,"debate":4122,"said":4123,"pay":4124,"prof":4125,"means":4126,"cu":4127,"fil":4128,"elect":4129,"hal":4130,"proposal":4131,"instit":4132,"major":4133,"including":4134,"ina":4135,"No":4136,"accept":4137,"implement":4138,"fun":4139,"ral":4140,"web":4141,"power":4142,"ivers":4143,"To":4144,"show":4145,"experi":4146,"At":4147,"cas":4148,"ours":4149,"child":4150,"gent":4151,"resol":4152,"ude":4153,"gl":4154,"amend":4155,"situation":4156,"Pr":4157,"ized":4158,"However":4159,"build":4160,"ivid":4161,"let":4162,"ential":4163,"With":4164,"isation":4165,"invest":4166,"got":4167,"taken":4168,"based":4169,"dem":4170,"Our":4171,"author":4172,"few":4173,"ird":4174,"opt":4175,"ave":4176,"And":4177,"cult":4178,"found":4179,"count":4180,"acy":4181,"uss":4182,"illion":4183,"democr":4184,"ges":4185,"ime":4186,"net":4187,"ium":4188,"common":4189,"legal":4190,"ris":4191,"Committee":4192,"ues":4193,"Fr":4194,"aut":4195,"consider":4196,"three":4197,"represent":4198,"Is":4199,"cal":4200,"object":4201,"ilities":4202,"measures":4203,"success":4204,"Intern":4205,"15":4206,"ref":4207,"gest":4208,"All":4209,"redu":4210,"give":4211,"energy":4212,"stay":4213,"areas":4214,"pass":4215,"tle":4216,"depend":4217,"ize":4218,"di":4219,"lan":4220,"amp":4221,"agreement":4222,"next":4223,"while":4224,"establ":4225,"omen":4226,"company":4227,"rece":4228,"citizens":4229,"discus":4230,"further":4231,"budget":4232,"ually":4233,"atic":4234,"necessary":4235,"glo":4236,"provide":4237,"strate":4238,"joy":4239,"though":4240,"ield":4241,"ric":4242,"sof":4243,"Sp":4244,"second":4245,"ensure":4246,"itional":4247,"ased":4248,"problem":4249,"using":4250,"plan":4251,"life":4252,"ica":4253,"priv":4254,"reed":4255,"commun":4256,"ben":4257,"half":4258,"technolo":4259,"whe":4260,"security":4261,"trad":4262,"istr":4263,"ward":4264,"bar":4265,"12":4266,"wel":4267,"ys":4268,"ination":4269,"opport":4270,"init":4271,"stit":4272,"prin":4273,"problems":4274,"gin":4275,"health":4276,"jo":4277,"unt":4278,"given":4279,"shall":4280,"ik":4281,"pract":4282,"care":4283,"nor":4284,"isl":4285,"stud":4286,"wish":4287,"ross":4288,"pop":4289,"30":4290,"ont":4291,"vote":4292,"ules":4293,"aur":4294,"hope":4295,"why":4296,"train":4297,"iss":4298,"Ex":4299,"itive":4300,"however":4301,"cooperation":4302,"government":4303,"enter":4304,"trade":4305,"did":4306,"iend":4307,"invol":4308,"gether":4309,"compan":4310,"iter":4311,"range":4312,"self":4313,"ged":4314,"ively":4315,"protection":4316,"deal":4317,"ified":4318,"Le":4319,"den":4320,"agement":4321,"conne":4322,"needs":4323,"reach":4324,"remain":4325,"Bo":4326,"aff":4327,"lab":4328,"run":4329,"gen":4330,"18":4331,"full":4332,"legisl":4333,"always":4334,"Amer":4335,"moder":4336,"book":4337,"tru":4338,"individ":4339,"United":4340,"production":4341,"comb":4342,"They":4343,"pecial":4344,"reco":4345,"Be":4346,"working":4347,"cing":4348,"Group":4349,"nam":4350,"met":4351,"located":4352,"move":4353,"commit":4354,"better":4355,"ners":4356,"hol":4357,"utes":4358,"000":4359,"har":4360,"appe":4361,"ped":4362,"water":4363,"ests":4364,"50":4365,"integr":4366,"fav":4367,"global":4368,"az":4369,"ference":4370,"together":4371,"field":4372,"Ro":4373,"recent":4374,"step":4375,"princi":4376,"What":4377,"making":4378,"tail":4379,"eur":4380,"short":4381,"around":4382,"visit":4383,"expl":4384,"prove":4385,"aran":4386,"ising":4387,"ele":4388,"term":4389,"bed":4390,"fast":4391,"Mrs":4392,"become":4393,"terr":4394,"ources":4395,"terms":4396,"whether":4397,"erv":4398,"When":4399,"specific":4400,"particularly":4401,"him":4402,"Community":4403,"hold":4404,"text":4405,"ury":4406,"account":4407,"transport":4408,"non":4409,"ficult":4410,"enjoy":4411,"wee":4412,"porteur":4413,"Am":4414,"subject":4415,"result":4416,"going":4417,"role":4418,"exist":4419,"difficult":4420,"House":4421,"friend":4422,"cut":4423,"another":4424,"proper":4425,"children":4426,"pat":4427,"individual":4428,"ention":4429,"bod":4430,"research":4431,"modern":4432,"These":4433,"issues":4434,"systems":4435,"rapporteur":4436,"clus":4437,"fish":4438,"custom":4439,"contain":4440,"rele":4441,"conditions":4442,"contrib":4443,"ming":4444,"tax":4445,"vious":4446,"views":4447,"cris":4448,"promot":4449,"arr":4450,"writ":4451,"ins":4452,"gress":4453,"Mad":4454,"sector":4455,"aph":4456,"dist":4457,"whole":4458,"ond":4459,"local":4460,"head":4461,"third":4462,"tour":4463,"address":4464,"elves":4465,"pack":4466,"break":4467,"link":4468,"plac":4469,"companies":4470,"ying":4471,"benef":4472,"ars":4473,"ank":4474,"speak":4475,"decision":4476,"dom":4477,"accord":4478,"women":4479,"hip":4480,"uc":4481,"ator":4482,"ended":4483,"gn":4484,"centre":4485,"sa":4486,"tware":4487,"month":4488,"coming":4489,"called":4490,"equip":4491,"ton":4492,"industry":4493,"various":4494,"German":4495,"def":4496,"guaran":4497,"Russ":4498,"comes":4499,"especial":4500,"share":4501,"wide":4502,"mod":4503,"basis":4504,"experience":4505,"feat":4506,"veral":4507,"draw":4508,"page":4509,"Af":4510,"goti":4511,"town":4512,"especially":4513,"conf":4514,"distr":4515,"ground":4516,"near":4517,"inal":4518,"members":4519,"Wor":4520,"11":4521,"round":4522,"matter":4523,"lit":4524,"bur":4525,"vers":4526,"orig":4527,"reaty":4528,"ably":4529,"ilit":4530,"negoti":4531,"Co":4532,"ft":4533,"demand":4534,"she":4535,"food":4536,"ux":4537,"strong":4538,"ensive":4539,"done":4540,"region":4541,"erial":4542,"create":4543,"ization":4544,"Min":4545,"dam":4546,"proced":4547,"ications":4548,"ste":4549,"paren":4550,"hard":4551,"ences":4552,"close":4553,"pose":4554,"period":4555,"approach":4556,"graph":4557,"prior":4558,"really":4559,"ash":4560,"sto":4561,"docu":4562,"improve":4563,"beaut":4564,"oney":4565,"gentle":4566,"name":4567,"among":4568,"million":4569,"ises":4570,"Sw":4571,"load":4572,"prom":4573,"job":4574,"rodu":4575,"protect":4576,"shop":4577,"ique":4578,"ficient":4579,"wal":4580,"employment":4581,"initi":4582,"ling":4583,"sequ":4584,"Germany":4585,"og":4586,"hoto":4587,"itself":4588,"kind":4589,"favour":4590,"begin":4591,"understand":4592,"personal":4593,"Fin":4594,"ived":4595,"something":4596,"iday":4597,"face":4598,"adies":4599,"continue":4600,"general":4601,"Mar":4602,"mb":4603,"force":4604,"material":4605,"single":4606,"crisis":4607,"several":4608,"resolution":4609,"dou":4610,"langu":4611,"post":4612,"introdu":4613,"ons":4614,"afety":4615,"tra":4616,"home":4617,"known":4618,"mus":4619,"amework":4620,"reform":4621,"Bar":4622,"vol":4623,"peace":4624,"management":4625,"programme":4626,"Tur":4627,"restaur":4628,"class":4629,"adop":4630,"away":4631,"taking":4632,"forward":4633,"ang":4634,"often":4635,"days":4636,"house":4637,"excell":4638,"lin":4639,"ense":4640,"serious":4641,"sal":4642,"outh":4643,"EC":4644,"least":4645,"asing":4646,"ove":4647,"keep":4648,"gentlemen":4649,"mention":4650,"test":4651,"ither":4652,"prevent":4653,"expect":4654,"following":4655,"opin":4656,"big":4657,"contact":4658,"Pol":4659,"rules":4660,"ping":4661,"tic":4662,"tar":4663,"detail":4664,"comfort":4665,"directive":4666,"growth":4667,"ats":4668,"particip":4669,"once":4670,"progress":4671,"family":4672,"bon":4673,"ians":4674,"defin":4675,"recogn":4676,"network":4677,"mar":4678,"sed":4679,"ung":4680,"towards":4681,"institutions":4682,"express":4683,"suf":4684,"turn":4685,"night":4686,"location":4687,"active":4688,"money":4689,"16":4690,"welcome":4691,"ging":4692,"price":4693,"feel":4694,"ican":4695,"ister":4696,"aged":4697,"function":4698,"things":4699,"14":4700,"install":4701,"software":4702,"]]":4703,"ories":4704,"establish":4705,"mult":4706,"thank":4707,"until":4708,"[[":4709,"excellent":4710,"Or":4711,"imate":4712,"Madam":4713,"increase":4714,"little":4715,"ER":4716,"date":4717,"Treaty":4718,"bi":4719,"2009":4720,"colle":4721,"bring":4722,"airs":4723,"customers":4724,"private":4725,"atives":4726,"Ital":4727,"New":4728,"ification":4729,"apart":4730,"opportunity":4731,"ood":4732,"ples":4733,"rather":4734,"exp":4735,"sat":4736,"achieve":4737,"IN":4738,"staff":4739,"Br":4740,"stain":4741,"profess":4742,"idency":4743,"ago":4744,"nov":4745,"seem":4746,"lot":4747,"Gu":4748,"ought":4749,"activities":4750,"compl":4751,"ustr":4752,"stat":4753,"ending":4754,"lands":4755,"Members":4756,"heart":4757,"mean":4758,"Cent":4759,"might":4760,"resources":4761,"signific":4762,"check":4763,"13":4764,"trav":4765,"17":4766,"treat":4767,"State":4768,"Ber":4769,"AT":4770,"partners":4771,"actions":4772,"phas":4773,"came":4774,"tion":4775,"reedom":4776,"icial":4777,"iful":4778,"ron":4779,"China":4780,"lat":4781,"regul":4782,"provided":4783,"ctions":4784,"economy":4785,"educ":4786,"framework":4787,"blo":4788,"behalf":4789,"four":4790,"quite":4791,"building":4792,"itor":4793,"Pal":4794,"value":4795,"cover":4796,"reng":4797,"yet":4798,"crim":4799,"vo":4800,"technology":4801,"having":4802,"sug":4803,"version":4804,"fle":4805,"Nor":4806,"ances":4807,"mber":4808,"aft":4809,"include":4810,"focus":4811,"request":4812,"solution":4813,"deed":4814,"After":4815,"ladies":4816,"crip":4817,"lear":4818,"left":4819,"proposals":4820,"igr":4821,"beach":4822,"empt":4823,"event":4824,"amendments":4825,"anim":4826,"along":4827,"Cl":4828,"Sch":4829,"cred":4830,"sid":4831,"viol":4832,"ah":4833,"fail":4834,"body":4835,"costs":4836,"ets":4837,"safety":4838,"times":4839,"appropri":4840,"histor":4841,"photo":4842,"others":4843,"chall":4844,"content":4845,"above":4846,"streng":4847,"pot":4848,"instru":4849,"essential":4850,"bit":4851,"relation":4852,"idence":4853,"Ad":4854,"points":4855,"lay":4856,"anal":4857,"adopted":4858,"ports":4859,"ols":4860,"ministr":4861,"24":4862,"week":4863,"mes":4864,"ival":4865,"cient":4866,"words":4867,"aster":4868,"25":4869,"ze":4870,"ever":4871,"ches":4872,"due":4873,"recomm":4874,"ify":4875,"AN":4876,"addition":4877,"makes":4878,"IT":4879,"entire":4880,"agric":4881,"sc":4882,"ones":4883,"agricult":4884,"Mo":4885,"park":4886,"ivil":4887,"opinion":4888,"Med":4889,"charact":4890,"model":4891,"flo":4892,"policies":4893,"crit":4894,"effective":4895,"attr":4896,"legislation":4897,"Ag":4898,"medi":4899,"sw":4900,"past":4901,"One":4902,"projects":4903,"never":4904,"beautiful":4905,"freedom":4906,"World":4907,"Ind":4908,"amoun":4909,"application":4910,"easy":4911,"central":4912,"ery":4913,"Res":4914,"responsibility":4915,"amental":4916,"results":4917,"Ac":4918,"ES":4919,"host":4920,"context":4921,"thus":4922,"complete":4923,"lack":4924,"groups":4925,"attention":4926,"continu":4927,"na":4928,"team":4929,"concerned":4930,"stre":4931,"imp":4932,"sty":4933,"euro":4934,"provides":4935,"try":4936,"simply":4937,"sea":4938,"website":4939,"minutes":4940,"''":4941,"custo":4942,"olog":4943,"ights":4944,"Des":4945,"istic":4946,"gue":4947,"mob":4948,"youn":4949,"ledge":4950,"rate":4951,"proved":4952,"IS":4953,"infl":4954,"user":4955,"society":4956,"CO":4957,"increasing":4958,"importance":4959,"consum":4960,"innov":4961,"ufact":4962,"greater":4963,"questions":4964,"migr":4965,"moun":4966,"vention":4967,"Part":4968,"environmental":4969,"perfect":4970,"strategy":4971,"Rom":4972,"ceed":4973,"thod":4974,"posed":4975,"natural":4976,"une":4977,"voted":4978,"ru":4979,"significant":4980,"risk":4981,"ather":4982,"ently":4983,"gre":4984,"typ":4985,"auto":4986,"mal":4987,"mach":4988,"extrem":4989,"principle":4990,"ler":4991,"achie":4992,"standards":4993,"hy":4994,"won":4995,"exper":4996,"holiday":4997,"uses":4998,"forts":4999,"capital":5000,"tem":5001,"distrib":5002,"stant":5003,"Sh":5004,"cultural":5005,"training":5006,"Mon":5007,"Reg":5008,"manufact":5009,"spect":5010,"return":5011,"responsible":5012,"ared":5013,"cli":5014,"changes":5015,"indow":5016,"mitted":5017,"aware":5018,"rect":5019,"aud":5020,"sustain":5021,"method":5022,"vision":5023,"uary":5024,"2010":5025,"solid":5026,"century":5027,"Internet":5028,"required":5029,"authorities":5030,"fair":5031,"My":5032,"quick":5033,"ien":5034,"ateg":5035,"vari":5036,"clearly":5037,"Man":5038,"Pe":5039,"imum":5040,"tele":5041,"2008":5042,"EUR":5043,"meeting":5044,"cir":5045,"assist":5046,"technical":5047,"Can":5048,"looking":5049,"ilt":5050,"stop":5051,"regulation":5052,"pages":5053,"according":5054,"music":5055,"bath":5056,"industr":5057,"suggest":5058,"ators":5059,"lease":5060,"iversity":5061,"longer":5062,"commod":5063,"firm":5064,"cel":5065,"independ":5066,"Russia":5067,"internal":5068,"standard":5069,"provis":5070,"cop":5071,"dial":5072,"aspect":5073,"hib":5074,"months":5075,"termin":5076,"currently":5077,"proposed":5078,"directly":5079,"interests":5080,"solutions":5081,"affect":5082,"developed":5083,"Afr":5084,"carr":5085,"via":5086,"don":5087,"civil":5088,"arity":5089,"ME":5090,"rad":5091,"Fir":5092,"history":5093,"nature":5094,"Te":5095,"administr":5096,"maintain":5097,"aging":5098,"fight":5099,"markets":5100,"related":5101,"needed":5102,"ined":5103,"100":5104,"II":5105,"regions":5106,"young":5107,"enough":5108,"AR":5109,"DE":5110,"thems":5111,"foreign":5112,"character":5113,"requirements":5114,"mom":5115,"parties":5116,"front":5117,"themselves":5118,"bor":5119,"events":5120,"ched":5121,"Qu":5122,"Sy":5123,"fundamental":5124,"total":5125,"anced":5126,"democracy":5127,"involved":5128,"ided":5129,"apply":5130,"icated":5131,"vill":5132,"refer":5133,"contract":5134,"table":5135,"efforts":5136,"competition":5137,"arian":5138,"record":5139,"online":5140,"relax":5141,"happen":5142,"implementation":5143,"guests":5144,"stitution":5145,"upon":5146,"claim":5147,"Air":5148,"Please":5149,"guarantee":5150,"forman":5151,"select":5152,"item":5153,"fall":5154,"safe":5155,"From":5156,"board":5157,"mail":5158,"cases":5159,"decl":5160,"dest":5161,"Serv":5162,"space":5163,"First":5164,"ww":5165,"categ":5166,"target":5167,"held":5168,"democratic":5169,"prepare":5170,"language":5171,"ster":5172,"rench":5173,"answ":5174,"Do":5175,"camp":5176,"positive":5177,"comput":5178,"aper":5179,"rich":5180,"seen":5181,"type":5182,"log":5183,"UN":5184,"station":5185,"please":5186,"ov":5187,"extremely":5188,"ordin":5189,"soon":5190,"International":5191,"atory":5192,"document":5193,"facilities":5194,"duct":5195,"negotiations":5196,"milit":5197,"regional":5198,"later":5199,"states":5200,"appropriate":5201,"ibility":5202,"terror":5203,"mor":5204,"advant":5205,"ush":5206,"broad":5207,"developing":5208,"Gover":5209,"More":5210,"previous":5211,"lines":5212,"option":5213,"either":5214,"education":5215,"suit":5216,"offe":5217,"created":5218,"etc":5219,"cure":5220,"sens":5221,"ogue":5222,"May":5223,"live":5224,"40":5225,"prices":5226,"respond":5227,"By":5228,"mess":5229,"2007":5230,"final":5231,"obl":5232,"iting":5233,"mind":5234,"true":5235,"climate":5236,"km":5237,"cast":5238,"performan":5239,"sound":5240,"Direct":5241,"card":5242,"funds":5243,"official":5244,"ll":5245,"ief":5246,"ires":5247,"rist":5248,"clean":5249,"works":5250,"breakfast":5251,"almost":5252,"Brit":5253,"mag":5254,"Bel":5255,"Presidency":5256,"itch":5257,"ired":5258,"French":5259,"pict":5260,"sites":5261,"Not":5262,"famous":5263,"living":5264,"parts":5265,"additional":5266,"immedi":5267,"ior":5268,"cture":5269,"charge":5270,"haps":5271,"sun":5272,"everything":5273,"mass":5274,"recommend":5275,"situated":5276,"surround":5277,"actually":5278,"unique":5279,"ables":5280,"Room":5281,"Off":5282,"encour":5283,"eder":5284,"transparen":5285,"hon":5286,"phone":5287,"idea":5288,"commer":5289,"super":5290,"scho":5291,"ean":5292,"concept":5293,"happ":5294,"file":5295,"gies":5296,"2000":5297,"nu":5298,"workers":5299,"pool":5300,"AS":5301,"correct":5302,"France":5303,"Govern":5304,"iet":5305,"five":5306,"knowledge":5307,"60":5308,"mentioned":5309,"gas":5310,"sent":5311,"consul":5312,"pan":5313,"receive":5314,"ands":5315,"fortun":5316,"included":5317,"publ":5318,"Of":5319,"star":5320,"ource":5321,"rop":5322,"80":5323,"communication":5324,"abled":5325,"jud":5326,"oblig":5327,"leading":5328,"send":5329,"investment":5330,"tre":5331,"dev":5332,"associ":5333,"ino":5334,"condition":5335,"ames":5336,"mis":5337,"TV":5338,"impact":5339,"except":5340,"grat":5341,"accommod":5342,"procedure":5343,"avo":5344,"early":5345,"Po":5346,"designed":5347,"mountain":5348,"comfortable":5349,"takes":5350,"majority":5351,"qual":5352,"restaurant":5353,"moment":5354,"win":5355,"ilar":5356,"collect":5357,"ulate":5358,"print":5359,"built":5360,"potential":5361,"OR":5362,"institution":5363,"cat":5364,"emphas":5365,"American":5366,"ON":5367,"Port":5368,"idd":5369,"amount":5370,"Cour":5371,"outside":5372,"doing":5373,"vert":5374,"strict":5375,"struction":5376,"dan":5377,"discuss":5378,"professional":5379,"How":5380,"took":5381,"elling":5382,"ideal":5383,"cru":5384,"era":5385,"AC":5386,"throughout":5387,"consequ":5388,"Car":5389,"lik":5390,"ternal":5391,"La":5392,"Fund":5393,"users":5394,"customer":5395,"features":5396,"\".":5397,"certainly":5398,"ta":5399,"satis":5400,"fill":5401,"relations":5402,"exclus":5403,"Turkey":5404,"corpor":5405,"pression":5406,"demon":5407,"across":5408,"existing":5409,"forms":5410,"connect":5411,"traditional":5412,"ison":5413,"vide":5414,"connection":5415,"hours":5416,"aring":5417,"confl":5418,"Lis":5419,"flex":5420,"colleag":5421,"complet":5422,"friendly":5423,"mission":5424,"23":5425,"party":5426,"cross":5427,"parliament":5428,"eries":5429,"joint":5430,"Val":5431,"threat":5432,"AL":5433,"Ap":5434,"member":5435,"military":5436,"download":5437,"travel":5438,"concerns":5439,"prec":5440,"zer":5441,"writing":5442,"performance":5443,"wa":5444,"sl":5445,"orders":5446,"walk":5447,"programmes":5448,"emer":5449,"assess":5450,"hes":5451,"complex":5452,"although":5453,"bour":5454,"sphere":5455,"population":5456,"game":5457,"wr":5458,"omet":5459,"sess":5460,"ension":5461,"ature":5462,"monitor":5463,"concerning":5464,"agreements":5465,"established":5466,"thern":5467,"imes":5468,"committee":5469,"media":5470,"err":5471,"decisions":5472,"reasons":5473,"Government":5474,"Austr":5475,"community":5476,"EN":5477,"ded":5478,"America":5479,"separ":5480,"ski":5481,"vic":5482,"Jo":5483,"completely":5484,"rael":5485,"Col":5486,"cum":5487,"Office":5488,"spir":5489,"culture":5490,"nothing":5491,"usu":5492,"Jan":5493,"ots":5494,"ides":5495,"sumer":5496,"hor":5497,"door":5498,"Israel":5499,"2006":5500,"Aff":5501,"ining":5502,"practice":5503,"capac":5504,"ri":5505,"ses":5506,"original":5507,"Gree":5508,"South":5509,"Let":5510,"basic":5511,"Christ":5512,"nel":5513,"ured":5514,"initiative":5515,"reli":5516,"useum":5517,"includes":5518,"allows":5519,"Since":5520,"sense":5521,"infr":5522,"speed":5523,"jobs":5524,"leaders":5525,"iddle":5526,"values":5527,"cam":5528,"conclus":5529,"transl":5530,"objectives":5531,"liber":5532,"farm":5533,"yes":5534,"image":5535,"construction":5536,"unities":5537,"equipped":5538,"pite":5539,"wise":5540,"IC":5541,"pleas":5542,"dig":5543,"ley":5544,"guest":5545,"regarding":5546,"received":5547,"Engl":5548,"Just":5549,"click":5550,"benefit":5551,"Lisbon":5552,"purch":5553,"flow":5554,"Court":5555,"vered":5556,"package":5557,"agricultural":5558,"oil":5559,"choice":5560,"border":5561,"efficient":5562,"applications":5563,"wood":5564,"files":5565,"equipment":5566,"rates":5567,"attack":5568,"Su":5569,"estern":5570,"English":5571,"integration":5572,"Artic":5573,"Some":5574,"objective":5575,"goods":5576,"ology":5577,"treatment":5578,"extra":5579,"gain":5580,"industrial":5581,"tell":5582,"Here":5583,"anish":5584,"note":5585,"answer":5586,"quickly":5587,"transfer":5588,"style":5589,"influ":5590,"popular":5591,"Now":5592,"wat":5593,"dire":5594,"promise":5595,"reports":5596,"suppl":5597,"engine":5598,"mechan":5599,"TO":5600,"creation":5601,"mp":5602,"fortunately":5603,"regular":5604,"Fe":5605,"governments":5606,"\",":5607,"indows":5608,"series":5609,"successful":5610,"display":5611,"burg":5612,"former":5613,"seems":5614,"below":5615,"consist":5616,"simple":5617,"pain":5618,"six":5619,"ned":5620,"asse":5621,"limited":5622,"Affairs":5623,"enda":5624,"rail":5625,"indeed":5626,"achieved":5627,"computer":5628,"hind":5629,"Go":5630,"tered":5631,"Rep":5632,"iveness":5633,"affic":5634,"antic":5635,"East":5636,"Dr":5637,"recently":5638,"stage":5639,"center":5640,"lic":5641,"cks":5642,"placed":5643,"grad":5644,"famil":5645,"aving":5646,"ai":5647,"carry":5648,"contains":5649,"Gener":5650,"Str":5651,"Finally":5652,"beginning":5653,"levels":5654,"commercial":5655,"scient":5656,"avoid":5657,"Amend":5658,"congrat":5659,"apan":5660,"ensu":5661,"hic":5662,"dialogue":5663,"June":5664,"gard":5665,"highly":5666,"relev":5667,"Bal":5668,"internet":5669,"higher":5670,"ously":5671,"increased":5672,"absol":5673,"attempt":5674,"whose":5675,"stances":5676,"Per":5677,"balance":5678,"differen":5679,"Fran":5680,"dy":5681,"nuclear":5682,"challeng":5683,"max":5684,"tas":5685,"presented":5686,"agreed":5687,"acqu":5688,"supply":5689,"theless":5690,"everyone":5691,"70":5692,"ike":5693,"consumers":5694,"huge":5695,"sustainable":5696,"automat":5697,"Berlin":5698,"foot":5699,"appear":5700,"lection":5701,"carried":5702,"office":5703,"origin":5704,"preh":5705,"principles":5706,"subsid":5707,"rup":5708,"asked":5709,"ties":5710,"rain":5711,"ony":5712,"keyword":5713,"reflect":5714,"ene":5715,"22":5716,"news":5717,"places":5718,"added":5719,"iber":5720,"etary":5721,"traffic":5722,"floor":5723,"clud":5724,"fig":5725,"Me":5726,"perhaps":5727,"commitment":5728,"Japan":5729,"atmo":5730,"amendment":5731,"gar":5732,"enlarge":5733,"ills":5734,"covered":5735,"prim":5736,"modif":5737,"za":5738,"Further":5739,"anti":5740,"Cont":5741,"possibility":5742,"track":5743,"exchange":5744,"direction":5745,"similar":5746,"setting":5747,"unch":5748,"effects":5749,"fit":5750,"reviews":5751,"Ju":5752,"idered":5753,"size":5754,"shows":5755,"San":5756,"altern":5757,"Article":5758,"matters":5759,"Im":5760,"choose":5761,"credit":5762,"enable":5763,"Secon":5764,"obtain":5765,"analys":5766,"olf":5767,"furn":5768,"2005":5769,"Therefore":5770,"conv":5771,"Second":5772,"ends":5773,"vehic":5774,"iles":5775,"shown":5776,"promote":5777,"considered":5778,"capacity":5779,"sco":5780,"stress":5781,"Social":5782,"doub":5783,"dict":5784,"rid":5785,"organis":5786,"mic":5787,"scre":5788,"double":5789,"Ge":5790,"aspects":5791,"spac":5792,"opportunities":5793,"sufficient":5794,"Spain":5795,"ona":5796,"thanks":5797,"appoint":5798,"prepared":5799,"AG":5800,"pressure":5801,"ye":5802,"review":5803,"labor":5804,"response":5805,"artic":5806,"crib":5807,"harmon":5808,"death":5809,"behind":5810,"external":5811,"worth":5812,"optim":5813,"latest":5814,"reduce":5815,"Web":5816,"hab":5817,"jour":5818,"Oc":5819,"multi":5820,"ering":5821,"issions":5822,"fici":5823,"materials":5824,"Republic":5825,"reached":5826,"encies":5827,"Central":5828,"determin":5829,"exe":5830,"closed":5831,"summer":5832,"urch":5833,"billion":5834,"providing":5835,"RO":5836,"arm":5837,"reser":5838,"remains":5839,"arily":5840,"decided":5841,"hous":5842,"21":5843,"produced":5844,"smo":5845,"hotels":5846,"Sept":5847,"criter":5848,"AP":5849,"Italy":5850,"exhib":5851,"Roman":5852,"immigr":5853,"prise":5854,"easily":5855,"ale":5856,"wonder":5857,"tool":5858,"Africa":5859,"fa":5860,"AD":5861,"relevant":5862,"submitted":5863,"funding":5864,"cember":5865,"neigh":5866,"compreh":5867,"ases":5868,"ees":5869,"priority":5870,"ption":5871,"conduct":5872,"talk":5873,"Cor":5874,"2004":5875,"Bank":5876,"preci":5877,"enlargement":5878,"cand":5879,"consumer":5880,"curren":5881,"ken":5882,"resh":5883,"December":5884,"September":5885,"announ":5886,"cul":5887,"video":5888,"gives":5889,"archite":5890,"rely":5891,"atmosphere":5892,"supported":5893,"guarante":5894,"path":5895,"Au":5896,"secure":5897,"grant":5898,"details":5899,"accommodation":5900,"code":5901,"inste":5902,"independent":5903,"island":5904,"standing":5905,"tation":5906,"property":5907,"movement":5908,"numer":5909,"ball":5910,"rule":5911,"produce":5912,"creating":5913,"ware":5914,"iterran":5915,"else":5916,"ites":5917,"assistance":5918,"tober":5919,"purpose":5920,"leave":5921,"ada":5922,"Gre":5923,"box":5924,"istics":5925,"territ":5926,"adap":5927,"sch":5928,"green":5929,"thous":5930,"manufacture":5931,"bey":5932,"loss":5933,"Book":5934,"March":5935,"acceptable":5936,"bro":5937,"largest":5938,"cident":5939,"regulations":5940,"org":5941,"fix":5942,"cup":5943,"Ma":5944,"activity":5945,"198":5946,"Convention":5947,"rat":5948,"ening":5949,"highlight":5950,"Tod":5951,"brought":5952,"iterranean":5953,"Develop":5954,"Hu":5955,"Trans":5956,"deep":5957,"prepar":5958,"2003":5959,"bank":5960,"source":5961,"27":5962,"danger":5963,"ana":5964,"sho":5965,"iation":5966,"stability":5967,"base":5968,"school":5969,"perform":5970,"club":5971,"alu":5972,"explain":5973,"counter":5974,"pie":5975,"mem":5976,"strengthen":5977,"una":5978,"steps":5979,"OS":5980,"January":5981,"categories":5982,"nice":5983,"Ser":5984,"ays":5985,"relationship":5986,"pleased":5987,"fishing":5988,"ama":5989,"written":5990,"repe":5991,"mobile":5992,"Minister":5993,"ometimes":5994,"became":5995,"ological":5996,"discussion":5997,"instead":5998,"measure":5999,"North":6000,"conference":6001,"British":6002,"message":6003,"National":6004,"amb":6005,"allowed":6006,"CD":6007,"regards":6008,"effort":6009,"scal":6010,"ficiency":6011,"pover":6012,"obvious":6013,"Italian":6014,"EL":6015,"Mediterranean":6016,"section":6017,"map":6018,"son":6019,"variety":6020,"IM":6021,"October":6022,"iture":6023,"icy":6024,"ellow":6025,"forget":6026,"prob":6027,"guid":6028,"structure":6029,"demonstr":6030,"Service":6031,"construct":6032,"die":6033,"giving":6034,"plant":6035,"raq":6036,"Today":6037,"dut":6038,"Park":6039,"ID":6040,"PC":6041,"paid":6042,"medium":6043,"astic":6044,"status":6045,"started":6046,"interesting":6047,"procedures":6048,"spo":6049,"Che":6050,"study":6051,"distribution":6052,"bad":6053,"exer":6054,"enh":6055,"El":6056,"advantage":6057,"wall":6058,"quare":6059,"violence":6060,"damage":6061,"conven":6062,"pow":6063,"compromise":6064,"yl":6065,"limit":6066,"compon":6067,"contribution":6068,"types":6069,"porary":6070,"War":6071,"equal":6072,"Democr":6073,"istan":6074,"ades":6075,"warm":6076,"partner":6077,"provisions":6078,"fu":6079,"server":6080,"Every":6081,"benefits":6082,"tit":6083,"2001":6084,"Her":6085,"Mark":6086,"aily":6087,"relig":6088,"orrow":6089,"lives":6090,"payment":6091,"pread":6092,"exact":6093,"prises":6094,"Mic":6095,"instruments":6096,"dim":6097,"poses":6098,"aries":6099,"task":6100,"statement":6101,"General":6102,"enced":6103,"plat":6104,"learn":6105,"instrument":6106,"labour":6107,"coast":6108,"growing":6109,"icate":6110,"depart":6111,"iers":6112,"ring":6113,"During":6114,"served":6115,"Spanish":6116,"criteria":6117,"ourselves":6118,"ision":6119,"minor":6120,"historical":6121,"Dis":6122,"electron":6123,"serve":6124,"July":6125,"TH":6126,"Pl":6127,"--":6128,"argu":6129,"eth":6130,"operating":6131,"finally":6132,"draft":6133,"Iraq":6134,"quiet":6135,"documents":6136,"restaurants":6137,"forces":6138,"reading":6139,"astru":6140,"apartment":6141,"poor":6142,"integrated":6143,"cript":6144,"ivity":6145,"bot":6146,"ij":6147,"reject":6148,"Many":6149,"reserv":6150,"distance":6151,"sche":6152,"liberal":6153,"Sal":6154,"Lo":6155,"West":6156,"Mus":6157,"film":6158,"King":6159,"constit":6160,"weak":6161,"swim":6162,"drive":6163,"airport":6164,"transparency":6165,"challenges":6166,"Ko":6167,"agenda":6168,"wine":6169,"constant":6170,"lower":6171,"Rights":6172,"sou":6173,"uted":6174,"elements":6175,"highest":6176,"enge":6177,"immediately":6178,"Sol":6179,"quot":6180,"conflict":6181,"vember":6182,"poverty":6183,"reality":6184,"ane":6185,"changed":6186,"Although":6187,"Party":6188,"employees":6189,"elections":6190,"consequences":6191,"Ver":6192,"evalu":6193,"village":6194,"quar":6195,"goes":6196,"Mal":6197,"legislative":6198,"ker":6199,"happy":6200,"applied":6201,"Ph":6202,"vere":6203,"November":6204,"soft":6205,"tools":6206,"90":6207,"iment":6208,"RE":6209,"numerous":6210,"Furthermore":6211,"solidarity":6212,"analysis":6213,"Bu":6214,"useful":6215,"Your":6216,"processes":6217,"gic":6218,"aign":6219,"ened":6220,"beyond":6221,"digital":6222,"Palest":6223,"crucial":6224,"Swed":6225,"IP":6226,"ager":6227,"infrastru":6228,"2002":6229,"Apr":6230,"formation":6231,"victim":6232,"augh":6233,"institutional":6234,"ception":6235,"copy":6236,"saying":6237,"ps":6238,"daily":6239,"links":6240,"Windows":6241,"practical":6242,"persons":6243,"occas":6244,"teach":6245,"vac":6246,"lux":6247,"adequ":6248,"occur":6249,"friends":6250,"Inter":6251,"late":6252,"rs":6253,"requires":6254,"Iran":6255,"colleagues":6256,"trip":6257,"hesion":6258,"Development":6259,"historic":6260,"AM":6261,"terrorism":6262,"thought":6263,"cription":6264,"apartments":6265,"offering":6266,"hair":6267,"renew":6268,"Ste":6269,"implemented":6270,"email":6271,"ideas":6272,"500":6273,"Even":6274,"April":6275,"ilater":6276,"'.":6277,"rend":6278,"spee":6279,"likely":6280,"cert":6281,"frequ":6282,"Western":6283,"drink":6284,"pursu":6285,"waste":6286,"published":6287,"sales":6288,"minimum":6289,"oud":6290,"offered":6291,"Char":6292,"26":6293,"reduction":6294,"remo":6295,"efficiency":6296,"doubt":6297,"buy":6298,"circum":6299,"zone":6300,"meaning":6301,"organisations":6302,"tur":6303,"Directive":6304,"inese":6305,"partnership":6306,"season":6307,"discrim":6308,"tomorrow":6309,"estic":6310,"ederal":6311,"utely":6312,"Paris":6313,"starting":6314,"reference":6315,"congratulate":6316,"options":6317,"stor":6318,"weeks":6319,"neg":6320,"monitoring":6321,"Loc":6322,"wanted":6323,"mous":6324,"relating":6325,"usion":6326,"surance":6327,"campaign":6328,"caused":6329,"While":6330,"itarian":6331,"fire":6332,"Sk":6333,"ava":6334,"sometimes":6335,"comprehensive":6336,"rapid":6337,"Amendment":6338,"ls":6339,"aver":6340,"machine":6341,"critic":6342,"mix":6343,"div":6344,"maximum":6345,"voting":6346,"spirit":6347,"wind":6348,"ny":6349,"ini":6350,"ishing":6351,"advert":6352,"bers":6353,"omic":6354,"cape":6355,"28":6356,"accordance":6357,"heav":6358,"clients":6359,"fine":6360,"technologies":6361,"powers":6362,"challenge":6363,"High":6364,"vital":6365,"lies":6366,"extent":6367,"SE":6368,"ague":6369,"probably":6370,"explo":6371,"cience":6372,"cities":6373,"proving":6374,"ney":6375,"itors":6376,"accession":6377,"worldwide":6378,"farmers":6379,"Econ":6380,"sectors":6381,"ultim":6382,"interpre":6383,"Chinese":6384,"phys":6385,"sports":6386,"anything":6387,"scientific":6388,"City":6389,"assu":6390,"interested":6391,"players":6392,"sex":6393,"izing":6394,"ift":6395,"forest":6396,"xim":6397,"alone":6398,"describ":6399,"simpl":6400,"methods":6401,"concent":6402,"Aug":6403,"scale":6404,"annual":6405,"sil":6406,"banks":6407,"sport":6408,"adjust":6409,"parking":6410,"strategic":6411,"ano":6412,"marks":6413,"arrange":6414,"ifically":6415,"Austria":6416,"She":6417,"despite":6418,"businesses":6419,"sha":6420,"suring":6421,"hom":6422,"session":6423,"ients":6424,"isters":6425,"calls":6426,"Star":6427,"candid":6428,"UK":6429,"clos":6430,"images":6431,"languages":6432,"Ob":6433,"sole":6434,"Em":6435,"craft":6436,"Lin":6437,"release":6438,"cot":6439,"System":6440,"band":6441,"justice":6442,"processing":6443,"Russian":6444,"initial":6445,"pictures":6446,"chance":6447,"lost":6448,"Moreover":6449,"innovative":6450,"influence":6451,"occup":6452,"player":6453,"morning":6454,"1999":6455,"hot":6456,"sav":6457,"www":6458,"accepted":6459,"shopping":6460,"sort":6461,"guard":6462,"exerc":6463,"Thank":6464,"fields":6465,"san":6466,"selection":6467,"innovation":6468,"raised":6469,"appreci":6470,"street":6471,"abs":6472,"ouch":6473,"ilateral":6474,"genu":6475,"rise":6476,"swimming":6477,"valid":6478,"reland":6479,"join":6480,"shops":6481,"garden":6482,"drug":6483,"operate":6484,"tick":6485,"mid":6486,"expert":6487,"borders":6488,"35":6489,"Ireland":6490,"games":6491,"demands":6492,"hn":6493,"trying":6494,"ivery":6495,"trust":6496,"config":6497,"29":6498,"fre":6499,"aint":6500,"affected":6501,"bathroom":6502,"adopt":6503,"kitch":6504,"restrict":6505,"Tour":6506,"uge":6507,"expected":6508,"visitors":6509,"urgent":6510,"namely":6511,"zz":6512,"involve":6513,"ender":6514,"earch":6515,"intended":6516,"investig":6517,"absolutely":6518,"illa":6519,"cret":6520,"critical":6521,"tradition":6522,"overall":6523,"honour":6524,"bian":6525,"worked":6526,"menu":6527,"elines":6528,"upd":6529,"forced":6530,"Secondly":6531,"currency":6532,"fresh":6533,"45":6534,"din":6535,"hour":6536,"ule":6537,"itude":6538,"decor":6539,"motor":6540,"reforms":6541,"opening":6542,"berg":6543,"south":6544,"brow":6545,"substant":6546,"hood":6547,"representatives":6548,"initiatives":6549,"wrong":6550,"Conference":6551,"letter":6552,"heard":6553,"alternative":6554,"dry":6555,"debt":6556,"lam":6557,"proceed":6558,"Lu":6559,"minute":6560,"spr":6561,"isely":6562,"PL":6563,"gg":6564,"iqu":6565,"expressed":6566,"lier":6567,"committed":6568,"feed":6569,"ata":6570,"increasingly":6571,"usually":6572,"block":6573,"Public":6574,"Other":6575,"illegal":6576,"Indeed":6577,"plans":6578,"resort":6579,"clar":6580,"Uk":6581,"structural":6582,"fur":6583,"yourself":6584,"goal":6585,"running":6586,"mainly":6587,"Only":6588,"posit":6589,"Rooms":6590,"remind":6591,"confidence":6592,"virt":6593,"administration":6594,"mill":6595,"deliver":6596,"suffer":6597,"alle":6598,"elt":6599,"Bus":6600,"approved":6601,"suitable":6602,"ondon":6603,"born":6604,"scr":6605,"Lat":6606,"cin":6607,"passeng":6608,"acts":6609,"spend":6610,"eleg":6611,"Constitution":6612,"univers":6613,"ka":6614,"Gen":6615,"Are":6616,"University":6617,"talking":6618,"award":6619,"mut":6620,"mbH":6621,"screen":6622,"Its":6623,"cohesion":6624,"regime":6625,"white":6626,"mand":6627,"Bre":6628,"scope":6629,"ease":6630,"van":6631,"iance":6632,"Ter":6633,"planning":6634,"infrastructure":6635,"London":6636,"tourist":6637,"Security":6638,"kitchen":6639,"ba":6640,"undred":6641,"cou":6642,"unemployment":6643,"families":6644,"improved":6645,"Free":6646,"nic":6647,"Agree":6648,"whom":6649,"sitting":6650,"Ukrain":6651,"tt":6652,"black":6653,"walking":6654,"Centre":6655,"datab":6656,"reduced":6657,"conclusion":6658,"circumstances":6659,"oral":6660,"People":6661,"Bl":6662,"fellow":6663,"197":6664,"competitive":6665,"cluded":6666,"decide":6667,"evening":6668,"entr":6669,"fru":6670,"coordin":6671,"delivery":6672,"love":6673,"began":6674,"went":6675,"tings":6676,"Palestin":6677,"va":6678,"August":6679,"roy":6680,"accoun":6681,"GmbH":6682,"Nations":6683,"feature":6684,"collection":6685,"raph":6686,"comments":6687,"priorities":6688,"emissions":6689,"terrace":6690,"Accord":6691,"nes":6692,"crime":6693,"izes":6694,"protected":6695,"Sum":6696,"export":6697,"ensuring":6698,"stable":6699,"applic":6700,"contribute":6701,"client":6702,"laws":6703,"perman":6704,"ford":6705,"automatically":6706,"powerful":6707,"deg":6708,"mas":6709,"IL":6710,"defined":6711,"Eas":6712,"ream":6713,"agraph":6714,"CE":6715,"Os":6716,"satisf":6717,"willing":6718,"hear":6719,"students":6720,"God":6721,"akes":6722,"played":6723,"India":6724,"encourage":6725,"impl":6726,"founded":6727,"participation":6728,"introduced":6729,"da":6730,"says":6731,"idge":6732,"wo":6733,"effectively":6734,"victims":6735,"brand":6736,"Cal":6737,"Hung":6738,"cele":6739,"perspect":6740,"resist":6741,"Techn":6742,"supports":6743,"ull":6744,"separate":6745,"risks":6746,"Greece":6747,"Mer":6748,"specifically":6749,"ari":6750,"museum":6751,"attle":6752,"helpful":6753,"electronic":6754,"understanding":6755,"ico":6756,"paper":6757,"hop":6758,"tabled":6759,"dead":6760,"prefer":6761,"sources":6762,"aves":6763,"inary":6764,"itation":6765,"agriculture":6766,"extensive":6767,"celebr":6768,"larger":6769,"motion":6770,"Play":6771,"functions":6772,"seek":6773,"hundred":6774,"Red":6775,"manner":6776,"aimed":6777,"atively":6778,"referred":6779,"electric":6780,"pleasant":6781,"dynam":6782,"zech":6783,"Slo":6784,"orient":6785,"Mac":6786,"speaking":6787,"comment":6788,"ordination":6789,"cycl":6790,"belong":6791,"stated":6792,"Mor":6793,"income":6794,"purposes":6795,"installation":6796,"wards":6797,"managed":6798,"300":6799,"ür":6800,"According":6801,"constitution":6802,"detailed":6803,"Human":6804,"dish":6805,"PE":6806,"becoming":6807,"precisely":6808,"animals":6809,"weap":6810,"Each":6811,"linked":6812,"ferences":6813,"corporate":6814,"rural":6815,"cip":6816,"positions":6817,"opened":6818,"entry":6819,"Cas":6820,"Czech":6821,"compar":6822,"listed":6823,"Sun":6824,"cers":6825,"prem":6826,"ert":6827,"Sof":6828,"police":6829,"assessment":6830,"itzer":6831,"adequate":6832,"convin":6833,"normal":6834,"Any":6835,"deleg":6836,"represents":6837,"remember":6838,"valu":6839,"Program":6840,"Febr":6841,"discussed":6842,"Asia":6843,"His":6844,".,":6845,"nation":6846,"developments":6847,"getting":6848,"exactly":6849,"ault":6850,"budgetary":6851,"Enter":6852,"prison":6853,"Also":6854,"wants":6855,"ifying":6856,"kill":6857,"Ab":6858,"otherwise":6859,"conver":6860,"winter":6861,"Agreement":6862,"Ir":6863,"Middle":6864,"spread":6865,"Cap":6866,"alloc":6867,"enterprises":6868,"idential":6869,"programs":6870,"facilit":6871,"poll":6872,"confirm":6873,"selected":6874,"thousands":6875,"las":6876,"ork":6877,"discussions":6878,"icts":6879,"satisfact":6880,"ST":6881,"Cy":6882,"February":6883,"introduction":6884,"Then":6885,"stock":6886,"ham":6887,"nal":6888,"belie":6889,"medical":6890,"operations":6891,"Why":6892,"Ham":6893,"ulture":6894,"itiveness":6895,"Eng":6896,"OL":6897,"earlier":6898,"rac":6899,"Hol":6900,"followed":6901,"houses":6902,"lap":6903,"Barcel":6904,"hosp":6905,"provision":6906,"administrative":6907,"sized":6908,"connected":6909,"brief":6910,"closely":6911,"31":6912,"wid":6913,"button":6914,"Act":6915,"guidelines":6916,"camera":6917,"regret":6918,"symb":6919,"Fl":6920,"color":6921,"refuge":6922,"oth":6923,"legit":6924,"profit":6925,"immigration":6926,"supporting":6927,"networks":6928,"chem":6929,"pal":6930,"cook":6931,"discrimination":6932,"ED":6933,"weight":6934,"anks":6935,"Green":6936,"itzerland":6937,"buildings":6938,"ensions":6939,"improving":6940,"Sim":6941,"ito":6942,"Sea":6943,"substantial":6944,"lying":6945,"format":6946,"Policy":6947,"considerable":6948,"compens":6949,"uration":6950,"actual":6951,"ange":6952,"iff":6953,"degree":6954,"tourism":6955,"facing":6956,"speech":6957,"playing":6958,"Switzerland":6959,"urs":6960,"correspond":6961,"north":6962,"enor":6963,"inside":6964,"Er":6965,"plants":6966,"urally":6967,"aul":6968,"graphic":6969,"metres":6970,"financing":6971,"exclusive":6972,"Sub":6973,"wonderful":6974,"tack":6975,"organisation":6976,"enty":6977,"EM":6978,"discover":6979,"DP":6980,"marketing":6981,"gal":6982,"Apart":6983,"SP":6984,"impress":6985,"entit":6986,"196":6987,"save":6988,"temper":6989,"Last":6990,"mir":6991,"owned":6992,"duty":6993,"Christian":6994,"slow":6995,"combat":6996,"thinking":6997,"istered":6998,"ado":6999,"properly":7000,"umb":7001,"Art":7002,"bes":7003,"generation":7004,"purchase":7005,"sell":7006,"drawn":7007,"presence":7008,"stream":7009,"accur":7010,"paragraph":7011,"gency":7012,"expand":7013,"Most":7014,"CH":7015,"competitiveness":7016,"ureau":7017,"components":7018,"Ed":7019,"delay":7020,"के":7021,"miss":7022,"experts":7023,"core":7024,"animal":7025,"average":7026,"command":7027,"Economic":7028,"DV":7029,"telephone":7030,"domin":7031,"coordination":7032,"typical":7033,"Barcelona":7034,"authority":7035,"ordinary":7036,"criminal":7037,"entirely":7038,"ibe":7039,"clude":7040,"fisheries":7041,"drop":7042,"bear":7043,"watch":7044,"mist":7045,"portion":7046,"indic":7047,"Swiss":7048,"owners":7049,"cry":7050,"stead":7051,"ti":7052,"hands":7053,"offee":7054,"presidency":7055,"Poland":7056,"bound":7057,"Cro":7058,"compat":7059,"plus":7060,"Click":7061,"ength":7062,"raz":7063,"ost":7064,"summit":7065,"picture":7066,"generally":7067,"domestic":7068,"flexible":7069,"ussels":7070,"habit":7071,"ered":7072,"court":7073,"gave":7074,"rou":7075,"dealing":7076,"imag":7077,"Cast":7078,"Turk":7079,"parliamentary":7080,"relate":7081,"difficulties":7082,"amber":7083,"syn":7084,"Bur":7085,"UR":7086,"beds":7087,"flexibility":7088,"element":7089,"USA":7090,"crete":7091,"modified":7092,"items":7093,"Open":7094,"Because":7095,"onom":7096,"stra":7097,"settle":7098,"abilities":7099,"ella":7100,"Unfortunately":7101,"informed":7102,"cards":7103,"tot":7104,"percent":7105,"beha":7106,"Brussels":7107,"consideration":7108,"vehicles":7109,"appears":7110,"dered":7111,"ns":7112,"monetary":7113,"chair":7114,"ga":7115,"Comp":7116,"advance":7117,"fixed":7118,"machines":7119,"Never":7120,"politics":7121,"becomes":7122,"advanced":7123,"Great":7124,"establishment":7125,"stone":7126,"tocol":7127,"agen":7128,"succeed":7129,"medic":7130,"vit":7131,"applies":7132,"numbers":7133,"meetings":7134,"pas":7135,"reception":7136,"',":7137,"signed":7138,"Net":7139,"reasonable":7140,"ids":7141,"iar":7142,"communications":7143,"Fore":7144,"sle":7145,"York":7146,"spacious":7147,"Fo":7148,"Belg":7149,"peaceful":7150,"enn":7151,"experienced":7152,"IV":7153,"registr":7154,"bodies":7155,"failure":7156,"union":7157,"square":7158,"elegant":7159,"promoting":7160,"kept":7161,"practices":7162,"ón":7163,"omb":7164,"told":7165,"dol":7166,"aims":7167,"ero":7168,"convenient":7169,"estival":7170,"economies":7171,"estate":7172,"Once":7173,"himself":7174,"structures":7175,"Over":7176,"trend":7177,"calling":7178,"elim":7179,"laun":7180,"middle":7181,"icians":7182,"preser":7183,"rant":7184,"continued":7185,"Kingdom":7186,"sterdam":7187,"confir":7188,"Airport":7189,"bind":7190,"isine":7191,"district":7192,"isms":7193,"acknow":7194,"urban":7195,"easier":7196,"courses":7197,"Bul":7198,"opposition":7199,"Amsterdam":7200,"rout":7201,"associated":7202,"Arab":7203,"stance":7204,"seriously":7205,"evol":7206,"humanitarian":7207,"voice":7208,"terday":7209,"charged":7210,"uck":7211,"sets":7212,"defence":7213,"fis":7214,"accident":7215,"FR":7216,"tor":7217,"shower":7218,"myself":7219,"Har":7220,"Ukraine":7221,"reducing":7222,"subsidi":7223,"manage":7224,"cutive":7225,"MS":7226,"Services":7227,"differences":7228,"rock":7229,"mbly":7230,"models":7231,"cars":7232,"leader":7233,"length":7234,"database":7235,"Islam":7236,"Rest":7237,"implementing":7238,"song":7239,"contem":7240,"ios":7241,"spent":7242,"ancient":7243,"difference":7244,"Organ":7245,"seven":7246,"penal":7247,"kil":7248,"fear":7249,"Museum":7250,"adoption":7251,"glass":7252,"excess":7253,"names":7254,"ahead":7255,"spending":7256,"producers":7257,"zo":7258,"hi":7259,"Priv":7260,"evidence":7261,"translation":7262,"ET":7263,"consumption":7264,"Grand":7265,"happened":7266,"lose":7267,"grounds":7268,"concrete":7269,"balanced":7270,"condem":7271,"proof":7272,"combination":7273,"sight":7274,"behavi":7275,"instance":7276,"dangerous":7277,"anyone":7278,"Environment":7279,"Je":7280,"osen":7281,"neighbour":7282,"agencies":7283,"statements":7284,"Linux":7285,"studies":7286,"cuisine":7287,"recognition":7288,"impossible":7289,"consult":7290,"audio":7291,"buff":7292,".”":7293,"Micro":7294,"carefully":7295,"Pre":7296,"booking":7297,"Bas":7298,"Budget":7299,"NG":7300,"changing":7301,"immediate":7302,"organiz":7303,"Firstly":7304,"coffee":7305,"announced":7306,"mm":7307,"capable":7308,"negative":7309,"Research":7310,"quant":7311,"described":7312,"exhibition":7313,"religious":7314,"released":7315,"Sa":7316,"article":7317,"radio":7318,"shared":7319,"collabor":7320,"guarantees":7321,"32":7322,"Debian":7323,"passed":7324,"rein":7325,"ias":7326,"Frank":7327,"sand":7328,"Vien":7329,"Cam":7330,"propose":7331,"claims":7332,"spl":7333,"introduce":7334,"attractive":7335,"truly":7336,"ulations":7337,"genuine":7338,"governmental":7339,"forth":7340,"rig":7341,"bat":7342,"Board":7343,"territory":7344,"availability":7345,"trading":7346,"architecture":7347,"Europeans":7348,"membership":7349,"Koso":7350,"marked":7351,"ya":7352,"dimension":7353,"resto":7354,"Justice":7355,"keeping":7356,"raise":7357,"improvement":7358,"orial":7359,"Wal":7360,"tel":7361,"television":7362,"attach":7363,"Appl":7364,"Will":7365,"sides":7366,"36":7367,"beaches":7368,"plom":7369,"ships":7370,"allowing":7371,"Add":7372,"African":7373,"replace":7374,"transparent":7375,"Vis":7376,"votes":7377,"reservation":7378,"possibilities":7379,"Associ":7380,"iling":7381,"matic":7382,"continues":7383,"election":7384,"fant":7385,"desire":7386,"wishes":7387,"store":7388,"Health":7389,"expend":7390,"unacceptable":7391,"ulated":7392,"Democrats":7393,"figures":7394,"teen":7395,"unless":7396,"Market":7397,"Business":7398,"combined":7399,"advis":7400,"taste":7401,"learning":7402,"fiscal":7403,"los":7404,"participate":7405,"Pers":7406,"delight":7407,"ctural":7408,"Turkish":7409,"greatest":7410,"respective":7411,"wit":7412,"insurance":7413,"registered":7414,"finance":7415,"tasks":7416,"uff":7417,"Stud":7418,"skills":7419,"SS":7420,"geo":7421,"tenance":7422,"approxim":7423,"Trade":7424,"photograph":7425,"ja":7426,"strongly":7427,"unto":7428,"unfortunately":7429,"reliable":7430,"WTO":7431,"hall":7432,"elected":7433,"AB":7434,"river":7435,"tests":7436,"Up":7437,"Irish":7438,"asyl":7439,"1998":7440,"piece":7441,"devices":7442,"Ca":7443,"completed":7444,"Aud":7445,"vest":7446,"lock":7447,"closer":7448,"Kar":7449,"asylum":7450,"prospect":7451,"establishing":7452,"parent":7453,"appeal":7454,"installed":7455,"Mart":7456,"touch":7457,"noon":7458,"entertain":7459,"enables":7460,"Due":7461,"entitled":7462,"wealth":7463,"surface":7464,"saw":7465,"restr":7466,"roll":7467,"oppos":7468,"ashion":7469,"sta":7470,"packages":7471,"pure":7472,"divid":7473,"von":7474,"earth":7475,"75":7476,"bum":7477,"ensus":7478,"sale":7479,"arrival":7480,"DVD":7481,"lex":7482,"chemical":7483,"48":7484,"seeing":7485,"continent":7486,"permanent":7487,"Prime":7488,"analy":7489,"Sat":7490,"Greek":7491,"deser":7492,"enormous":7493,"moving":7494,"Fol":7495,"individuals":7496,"Prof":7497,"icht":7498,"platform":7499,"unit":7500,"onto":7501,"ugal":7502,"failed":7503,"surrounding":7504,"meters":7505,"Such":7506,"uk":7507,"Mun":7508,"phil":7509,"story":7510,"gical":7511,"revol":7512,"stands":7513,"Booking":7514,"dispos":7515,"beauty":7516,"rep":7517,"exercise":7518,"perspective":7519,"OF":7520,"profession":7521,"fruit":7522,"Kore":7523,"Liber":7524,"....":7525,"Sup":7526,"ilst":7527,"bul":7528,"science":7529,"atever":7530,"PS":7531,"OT":7532,"dedicated":7533,"rightly":7534,"vereign":7535,"observ":7536,"nearby":7537,"holidays":7538,"Under":7539,"Nether":7540,"ube":7541,"compared":7542,"meant":7543,"declar":7544,"convinced":7545,"Afgh":7546,"Another":7547,"weapons":7548,"citizen":7549,"imm":7550,"Tre":7551,"harm":7552,"notice":7553,"ambit":7554,"sensitive":7555,"Mont":7556,"abil":7557,"adult":7558,"launch":7559,"desk":7560,"ads":7561,"advertising":7562,"Lux":7563,"Kosovo":7564,"satell":7565,"Eastern":7566,"isch":7567,"Regulation":7568,"Del":7569,"write":7570,"storage":7571,"Third":7572,"**":7573,"bag":7574,"extended":7575,"books":7576,"factors":7577,"Nevertheless":7578,"gs":7579,"organization":7580,"mil":7581,"signal":7582,"relaxing":7583,"granted":7584,"tend":7585,"push":7586,"totally":7587,"contrary":7588,"biggest":7589,"strength":7590,"icit":7591,"mov":7592,"osop":7593,"Mag":7594,"pun":7595,"Cus":7596,"dream":7597,"definition":7598,"controls":7599,"memory":7600,"guide":7601,"existence":7602,"church":7603,"formed":7604,"usual":7605,"disease":7606,"unable":7607,"organised":7608,"Guest":7609,"appointed":7610,"hr":7611,"conclusions":7612,"west":7613,"iger":7614,"ione":7615,"payments":7616,"device":7617,"Yet":7618,"Ty":7619,"edge":7620,"Palestinian":7621,"voc":7622,"window":7623,"railway":7624,"Netherlands":7625,"”,":7626,"Club":7627,"!!":7628,"anned":7629,"diver":7630,"laid":7631,"dum":7632,"Foreign":7633,"accessible":7634,"Where":7635,"commitments":7636,"destroy":7637,"vey":7638,"chain":7639,"Ener":7640,"defic":7641,"ato":7642,"diplom":7643,"Ben":7644,"Ke":7645,"outcome":7646,"blood":7647,"mann":7648,"intervention":7649,"ambitious":7650,"Instit":7651,"race":7652,"sen":7653,"gold":7654,"expression":7655,"Afghan":7656,"bir":7657,"Restaur":7658,"Croat":7659,"mother":7660,"neither":7661,"tried":7662,"sched":7663,"flight":7664,"Vienna":7665,"Well":7666,"colour":7667,"्र":7668,"apers":7669,"Ps":7670,"chosen":7671,"astr":7672,"ko":7673,"ille":7674,"candidate":7675,"Sm":7676,"attractions":7677,"advice":7678,"master":7679,"Portugal":7680,"maintenance":7681,"father":7682,"IF":7683,"Thus":7684,"ume":7685,"”.":7686,"vul":7687,"gage":7688,"achieving":7689,"limits":7690,"zu":7691,"Gard":7692,"artists":7693,"title":7694,"avel":7695,"obligations":7696,"Center":7697,"honourable":7698,"agency":7699,"Cr":7700,"promotion":7701,"disput":7702,"continuing":7703,"perfectly":7704,"IR":7705,"proval":7706,"fuel":7707,"gel":7708,"susp":7709,"interface":7710,"mountains":7711,"libr":7712,"background":7713,"lantic":7714,"vehicle":7715,"golf":7716,"conditioning":7717,"aus":7718,"micro":7719,"ote":7720,"thening":7721,"sovereign":7722,"successfully":7723,"{{":7724,"38":7725,"Mil":7726,"Management":7727,"bert":7728,"independence":7729,"Don":7730,"reve":7731,"renov":7732,"register":7733,"dep":7734,"iques":7735,"stim":7736,"obviously":7737,"icted":7738,"Design":7739,"targets":7740,"rence":7741,"ips":7742,"sequently":7743,"Ear":7744,"equality":7745,"Card":7746,"है":7747,"symbol":7748,"species":7749,"constantly":7750,"%.":7751,"utch":7752,"fraud":7753,"colleague":7754,"contained":7755,"luxury":7756,"physical":7757,"asking":7758,"Information":7759,"Host":7760,"Sto":7761,"Dan":7762,"sper":7763,"convent":7764,"fashion":7765,"pick":7766,"outstanding":7767,"goals":7768,"surv":7769,"update":7770,"distin":7771,"Found":7772,"approximately":7773,"employed":7774,"ding":7775,"pill":7776,"itage":7777,"yesterday":7778,"expenditure":7779,"iant":7780,"contents":7781,"buffet":7782,"bringing":7783,"situations":7784,"merely":7785,"pointed":7786,"bab":7787,"error":7788,"route":7789,"category":7790,"THE":7791,"proportion":7792,"planned":7793,"qualified":7794,"decades":7795,"advantages":7796,"binding":7797,"phen":7798,"sam":7799,"ION":7800,"liter":7801,"Austrian":7802,"aircraft":7803,"prevention":7804,"acting":7805,"assign":7806,"Association":7807,"Tor":7808,"Latin":7809,"concentr":7810,"IB":7811,"dete":7812,"98":7813,"filled":7814,"extend":7815,"recommendations":7816,"factor":7817,"Federal":7818,"tro":7819,"spot":7820,"arms":7821,"Sant":7822,"}}":7823,"dynamic":7824,"cheap":7825,"occasion":7826,"seeking":7827,"communities":7828,"putting":7829,"visual":7830,"33":7831,"iced":7832,"faces":7833,"named":7834,"testing":7835,"1997":7836,"ara":7837,"surrounded":7838,"someone":7839,"fif":7840,"Those":7841,"expensive":7842,"lake":7843,"ius":7844,"grade":7845,"mechanism":7846,"determined":7847,"fan":7848,"intention":7849,"John":7850,"catal":7851,"rum":7852,"abol":7853,"consistent":7854,"ों":7855,"iel":7856,"recovery":7857,"bars":7858,"Rome":7859,"elimin":7860,"truth":7861,"Lab":7862,"nearly":7863,"participants":7864,"resulting":7865,"Spe":7866,"disposal":7867,"awa":7868,"leads":7869,"scen":7870,"landscape":7871,"sold":7872,"Glo":7873,"guaranteed":7874,"Out":7875,"smaller":7876,"ellig":7877,"Both":7878,"\"...":7879,"trial":7880,"default":7881,"strengthening":7882,"forum":7883,"spa":7884,"consists":7885,"holders":7886,"waiting":7887,"rul":7888,"Commun":7889,"causes":7890,"manufacturing":7891,"//":7892,"governance":7893,"venue":7894,"reme":7895,"phase":7896,"withdraw":7897,"versions":7898,"pleasure":7899,"responsibilities":7900,"registration":7901,"furnished":7902,"patent":7903,"president":7904,"DA":7905,"extr":7906,"amen":7907,"compliance":7908,"ruption":7909,"lie":7910,"Gal":7911,"zy":7912,"sec":7913,"Break":7914,"Rot":7915,"slight":7916,"cycle":7917,"Control":7918,"retain":7919,"yo":7920,"Lan":7921,"Agency":7922,"attacks":7923,"का":7924,"ails":7925,"lev":7926,"identity":7927,"conclude":7928,"Summit":7929,"vulner":7930,"nations":7931,"instruct":7932,"oring":7933,"examples":7934,"gir":7935,"surpr":7936,"primary":7937,"Rules":7938,"iding":7939,"thereby":7940,"glad":7941,"philosop":7942,"unders":7943,"Java":7944,"turned":7945,"brings":7946,"defend":7947,"steel":7948,"Sweden":7949,"looks":7950,"ING":7951,"IG":7952,"consensus":7953,"eight":7954,"onia":7955,"submit":7956,"driving":7957,"spaces":7958,"safeguard":7959,"contemporary":7960,"Restaurant":7961,"Rel":7962,"association":7963,"sis":7964,"Hel":7965,"34":7966,"umn":7967,"addressed":7968,"ena":7969,"doct":7970,"satellite":7971,"ibr":7972,"photos":7973,"Cur":7974,"multiple":7975,"skin":7976,"Braz":7977,"acted":7978,"semin":7979,"Quest":7980,"consolid":7981,"industries":7982,"preced":7983,"...\"":7984,"magn":7985,"explan":7986,"IA":7987,"birth":7988,"patients":7989,"southern":7990,"Plan":7991,"99":7992,"Lake":7993,"snow":7994,"gap":7995,"capt":7996,"gall":7997,"pine":7998,"Brazil":7999,"Find":8000,"previously":8001,"LE":8002,"liability":8003,"burden":8004,"Pan":8005,"veget":8006,"incorpor":8007,"cool":8008,"Wel":8009,"Sil":8010,"primarily":8011,"cancell":8012,"Pat":8013,"gely":8014,"blue":8015,"Nat":8016,"400":8017,"Located":8018,"intellig":8019,"Enjoy":8020,"afford":8021,"representative":8022,"GDP":8023,"evaluation":8024,"technological":8025,"150":8026,"discussing":8027,"wait":8028,"pa":8029,"Met":8030,"schools":8031,"Thanks":8032,"Enterprise":8033,"isure":8034,"endor":8035,"Romania":8036,"37":8037,"talks":8038,"kinds":8039,"Home":8040,"intel":8041,"bia":8042,"plug":8043,"investments":8044,"Fac":8045,"Mc":8046,"eye":8047,"match":8048,"balcon":8049,"stations":8050,"parame":8051,"felt":8052,"concil":8053,"urge":8054,"remove":8055,"holding":8056,"ें":8057,"mode":8058,"nav":8059,"MP":8060,"hit":8061,"Software":8062,"icip":8063,"fab":8064,"mutual":8065,"ivered":8066,"ife":8067,"draf":8068,"pil":8069,"temporary":8070,"none":8071,"waters":8072,"Gold":8073,"ek":8074,"requested":8075,"leadership":8076,"inations":8077,"older":8078,"album":8079,"ira":8080,"competence":8081,"AV":8082,"NAT":8083,"exception":8084,"bureau":8085,"represented":8086,"Dutch":8087,"smoking":8088,"suite":8089,"Get":8090,"diversity":8091,"Yes":8092,"ju":8093,"ein":8094,"controlled":8095,"adow":8096,"audi":8097,"mechanisms":8098,"delivered":8099,"Despite":8100,"dealt":8101,"approval":8102,"Bud":8103,"jun":8104,"ogle":8105,"uer":8106,"sanctions":8107,"accounts":8108,"unanim":8109,"sem":8110,"lectual":8111,"swe":8112,"ounge":8113,"repeated":8114,"Check":8115,"nia":8116,"Ven":8117,"gone":8118,"reply":8119,"pension":8120,"amongst":8121,"journal":8122,"lish":8123,"eties":8124,"sn":8125,"treated":8126,"atically":8127,"opposite":8128,"dollar":8129,"speakers":8130,"dex":8131,"manufacturers":8132,"Microsoft":8133,"Photo":8134,"shut":8135,"refugees":8136,"ania":8137,"exec":8138,"output":8139,"shape":8140,"compatible":8141,"1990":8142,"heavy":8143,"Bay":8144,"Two":8145,"consultation":8146,"ingu":8147,"east":8148,"runs":8149,"Company":8150,"gment":8151,"uries":8152,"exceed":8153,"insist":8154,"corner":8155,"significantly":8156,"PH":8157,"nar":8158,"gypt":8159,"anda":8160,"Bes":8161,"gam":8162,"195":8163,"quir":8164,"destru":8165,"feeling":8166,"launched":8167,",”":8168,"estim":8169,"mun":8170,"wered":8171,"incent":8172,"straight":8173,"zen":8174,"moved":8175,"clim":8176,"presentation":8177,"helping":8178,"Breakfast":8179,"igno":8180,"knows":8181,"Minutes":8182,"Alli":8183,"spring":8184,"flat":8185,"improvements":8186,"boat":8187,"obligation":8188,"holds":8189,"atures":8190,"Energy":8191,"lets":8192,"covers":8193,"PD":8194,"Best":8195,"venture":8196,"contrast":8197,"Egypt":8198,"Set":8199,"referen":8200,"Aust":8201,"AF":8202,"Mex":8203,"icious":8204,"compensation":8205,"rejected":8206,"mini":8207,"attitude":8208,"Before":8209,"Prote":8210,"drugs":8211,"fing":8212,"umin":8213,"prop":8214,"experiences":8215,"1996":8216,"Fi":8217,"bs":8218,"nels":8219,"Chamber":8220,"furt":8221,"faced":8222,"jection":8223,"39":8224,"fleet":8225,"gets":8226,"charges":8227,"Agr":8228,"PT":8229,"lob":8230,"utin":8231,"Special":8232,"iction":8233,"taxes":8234,"Sam":8235,"expectations":8236,"sky":8237,"relatively":8238,"requests":8239,"Ann":8240,"Pak":8241,"hun":8242,"01":8243,"oples":8244,"Follow":8245,"gro":8246,"aces":8247,"expertise":8248,"appeared":8249,"fighting":8250,"engineering":8251,"trees":8252,"Day":8253,"gence":8254,"aints":8255,"Finan":8256,"figure":8257,"rare":8258,"recognise":8259,"Li":8260,"finding":8261,"Very":8262,"discovered":8263,"Lord":8264,"resolve":8265,"politicians":8266,"units":8267,"fas":8268,"vess":8269,"solve":8270,"Wi":8271,"aking":8272,"exc":8273,"SD":8274,"==":8275,"stac":8276,"nom":8277,"Take":8278,"vast":8279,"emphasis":8280,"suffering":8281,"latter":8282,"fem":8283,"bedroom":8284,"Den":8285,"recommended":8286,"Global":8287,"extension":8288,"producing":8289,"eases":8290,"destination":8291,"comply":8292,"nut":8293,"isol":8294,"inc":8295,"ares":8296,"streets":8297,"carbon":8298,"privacy":8299,"emphasise":8300,"applicable":8301,"Mos":8302,"Stre":8303,"Cat":8304,"Note":8305,"exists":8306,"commission":8307,"websites":8308,"articles":8309,"SME":8310,"elled":8311,"enses":8312,"hospit":8313,"dishes":8314,"substances":8315,"earn":8316,"operators":8317,"secret":8318,"helps":8319,"browser":8320,"bing":8321,"affairs":8322,"entered":8323,"whatever":8324,"Black":8325,"disaster":8326,"abling":8327,"prosper":8328,"95":8329,"centres":8330,"anch":8331,"frag":8332,"stuff":8333,"trib":8334,"mobility":8335,"temperature":8336,"Oper":8337,"leisure":8338,"healthy":8339,"grand":8340,"charming":8341,"supplement":8342,"Sit":8343,"Villa":8344,"flu":8345,"bureaucr":8346,"dependent":8347,"delegation":8348,"renewable":8349,"Def":8350,"Good":8351,"objects":8352,"domain":8353,"44":8354,"involving":8355,"arrangements":8356,"diseases":8357,"Georg":8358,"appreciate":8359,"97":8360,"ience":8361,"proud":8362,"largely":8363,"gun":8364,"ende":8365,"Britain":8366,"naturally":8367,"intellectual":8368,"recognised":8369,"personally":8370,"Bet":8371,"confirmed":8372,"noise":8373,"Sing":8374,"insul":8375,"helped":8376,"happens":8377,"iam":8378,"Use":8379,"nd":8380,"]],":8381,"Auto":8382,"texts":8383,"Like":8384,"uated":8385,"hostels":8386,"Deut":8387,"Munich":8388,"Programme":8389,"termine":8390,"opposed":8391,"minister":8392,"valuable":8393,"peoples":8394,"furniture":8395,"millions":8396,"Google":8397,"intend":8398,"handling":8399,"Real":8400,"graphical":8401,"cold":8402,"repeat":8403,"oman":8404,"weather":8405,"ula":8406,"enhance":8407,"exclusively":8408,"vak":8409,"uni":8410,"Flo":8411,"mine":8412,"ops":8413,"Paper":8414,"mur":8415,"whilst":8416,"reaching":8417,"disci":8418,"creative":8419,"minim":8420,"volume":8421,"fulfil":8422,"ador":8423,"ola":8424,"officials":8425,"Station":8426,"White":8427,"Afghanistan":8428,"arus":8429,"phr":8430,"firstly":8431,"criticism":8432,"tours":8433,"bill":8434,"thorough":8435,"MA":8436,"Japanese":8437,"journey":8438,"cohe":8439,"Instead":8440,"TR":8441,"ais":8442,"bridge":8443,"determine":8444,"COM":8445,"prev":8446,"serves":8447,"nis":8448,"automatic":8449,"cable":8450,"pin":8451,"servers":8452,"bedrooms":8453,"meat":8454,"Institute":8455,"96":8456,"migration":8457,"constructive":8458,"treaty":8459,"familiar":8460,"pir":8461,"Whe":8462,"combating":8463,"involvement":8464,"antly":8465,"):":8466,"equally":8467,"courage":8468,"protecting":8469,"dele":8470,"obstac":8471,"tes":8472,"Time":8473,"Rule":8474,"cow":8475,"leaving":8476,"ederation":8477,"Old":8478,"aside":8479,"definit":8480,"amounts":8481,"passengers":8482,"obtained":8483,"directives":8484,"remot":8485,"amic":8486,"Fer":8487,"battle":8488,"Private":8489,"ML":8490,"aught":8491,"sions":8492,"dining":8493,"ourg":8494,"entertainment":8495,"Swedish":8496,"increases":8497,"inflation":8498,"htt":8499,"stake":8500,"ethnic":8501,"publish":8502,"formal":8503,"offices":8504,"inj":8505,"enforce":8506,"fee":8507,"DS":8508,"sexual":8509,"strategies":8510,"fers":8511,"exceptional":8512,"ander":8513,"Bulgar":8514,"Bro":8515,"collective":8516,"ici":8517,"mandate":8518,"stal":8519,"Moun":8520,"Ministers":8521,"organizations":8522,"util":8523,"ache":8524,"lots":8525,"64":8526,"Safety":8527,"See":8528,"awareness":8529,"ita":8530,"chap":8531,"removed":8532,"tees":8533,"Charter":8534,"impressive":8535,"Bos":8536,"revolution":8537,"Ve":8538,"apparent":8539,"dinner":8540,"issued":8541,"faith":8542,"eyes":8543,"contributions":8544,"sleep":8545,"Dav":8546,"reserve":8547,"NATO":8548,"spectac":8549,"eller":8550,"happening":8551,"Strate":8552,"conserv":8553,"massive":8554,"Luxemb":8555,"Financial":8556,"discharge":8557,"Strategy":8558,"Rad":8559,"outdoor":8560,"Vol":8561,"és":8562,"itime":8563,"ailing":8564,"parents":8565,"Proced":8566,"Pakistan":8567,"define":8568,"contracts":8569,"Welcome":8570,"rupt":8571,"restrictions":8572,"HT":8573,"psy":8574,"rob":8575,"quis":8576,"rapporteurs":8577,"Super":8578,"Foundation":8579,"til":8580,"residence":8581,"walls":8582,"app":8583,"advoc":8584,"remaining":8585,"creates":8586,"precise":8587,"locations":8588,"Croatia":8589,"Ban":8590,"QL":8591,"maintained":8592,"quarter":8593,"lymp":8594,"accompan":8595,"partial":8596,"dro":8597,"liberalisation":8598,"Law":8599,"ampion":8600,"panor":8601,"Alliance":8602,"ör":8603,"announce":8604,"requirement":8605,"reported":8606,"में":8607,"certainty":8608,"legally":8609,"debates":8610,"inhabit":8611,"arrest":8612,"organized":8613,"depth":8614,"Data":8615,"andon":8616,"heat":8617,"Their":8618,"verse":8619,"depends":8620,"pattern":8621,"password":8622,"prohib":8623,"abroad":8624,"cutting":8625,"regulatory":8626,"elfare":8627,"citing":8628,"River":8629,"ployment":8630,"favor":8631,"finished":8632,"preparation":8633,"Street":8634,"plate":8635,"resolved":8636,"55":8637,"Fam":8638,"Monetary":8639,"Desk":8640,"characteristics":8641,"universal":8642,"calcul":8643,"Belarus":8644,"Frankfurt":8645,"assure":8646,"enthus":8647,"invent":8648,"asts":8649,"witness":8650,"seat":8651,"ने":8652,"http":8653,"couple":8654,"resolutions":8655,"metal":8656,"opinions":8657,"reserves":8658,"Scot":8659,"identify":8660,"newly":8661,"sor":8662,"cher":8663,"fantastic":8664,"settlement":8665,"root":8666,"illustr":8667,"connections":8668,"blog":8669,"Du":8670,"roads":8671,"eration":8672,"stick":8673,"throw":8674,"impression":8675,"mobil":8676,"Sky":8677,"Bulgaria":8678,"uting":8679,"vely":8680,"firms":8681,"Polish":8682,"tun":8683,"Nice":8684,"ouble":8685,"classic":8686,"worse":8687,"returned":8688,"conflicts":8689,"explore":8690,"volunt":8691,"doors":8692,"gender":8693,"supposed":8694,"Costa":8695,"doesn":8696,"Cong":8697,"tood":8698,"operational":8699,"ticket":8700,"cab":8701,"Roy":8702,"pieces":8703,"Paul":8704,"youth":8705,"recommendation":8706,"yer":8707,"Read":8708,"ds":8709,"theat":8710,"Austral":8711,"western":8712,"divided":8713,"joined":8714,"focused":8715,"castle":8716,"understood":8717,"flag":8718,"facilitate":8719,"या":8720,"regularly":8721,"label":8722,"owner":8723,"ugu":8724,"ateful":8725,"Hotels":8726,"expan":8727,"orge":8728,"Dom":8729,"Phil":8730,"Through":8731,"productive":8732,"drawing":8733,"Agric":8734,"customs":8735,"Sovi":8736,"investors":8737,"MEPs":8738,"hundreds":8739,"toler":8740,"discipl":8741,"Ladies":8742,"dark":8743,"messages":8744,"bottom":8745,"Korea":8746,"extreme":8747,"roof":8748,"realistic":8749,"dates":8750,"Prov":8751,"bond":8752,"ni":8753,"reveal":8754,"Front":8755,"opol":8756,"Child":8757,"performed":8758,"AND":8759,"Procedure":8760,"Bon":8761,"Olymp":8762,"ultimately":8763,"wing":8764,"license":8765,"conducted":8766,"frequently":8767,"topic":8768,"cash":8769,",\"":8770,"intent":8771,"Stru":8772,"phenomen":8773,"diag":8774,"Cypr":8775,"GN":8776,"string":8777,"acquis":8778,"graphy":8779,"parliaments":8780,"coal":8781,"abandon":8782,"49":8783,"copyright":8784,"remark":8785,"iti":8786,"dram":8787,"Luxembourg":8788,"minority":8789,"Die":8790,"ump":8791,"idden":8792,"northern":8793,"faster":8794,"hardware":8795,"SQL":8796,"Balk":8797,"Cyprus":8798,"Canada":8799,"Muslim":8800,"surroundings":8801,"electricity":8802,"entre":8803,"magaz":8804,"career":8805,"properties":8806,"welfare":8807,"ifications":8808,"visa":8809,"noted":8810,"plen":8811,"listen":8812,"Scho":8813,"actively":8814,"emergency":8815,"://":8816,"colog":8817,"2020":8818,"Power":8819,"esty":8820,"cohol":8821,"demanding":8822,"Church":8823,"federal":8824,"judicial":8825,"oured":8826,"follows":8827,"switch":8828,"deals":8829,"somewhat":8830,"margin":8831,"intens":8832,"symp":8833,"displayed":8834,"Saint":8835,"ancing":8836,"Ti":8837,"driver":8838,"absolute":8839,"leged":8840,"shap":8841,"depending":8842,"47":8843,"65":8844,"cies":8845,"boot":8846,"Est":8847,"CS":8848,"renovated":8849,"SMEs":8850,"worry":8851,"terrorist":8852,"sauna":8853,"pollution":8854,"mel":8855,"Israeli":8856,"Roma":8857,"islands":8858,"printing":8859,"eastern":8860,"mac":8861,"adapt":8862,"heating":8863,"boost":8864,"vacation":8865,"comed":8866,"1995":8867,"correctly":8868,"artist":8869,"transportation":8870,"Friday":8871,"mostly":8872,"planet":8873,"emerging":8874,"hagen":8875,"chen":8876,"accompanied":8877,"decorated":8878,"Sou":8879,"expansion":8880,"ora":8881,"settings":8882,"functioning":8883,"sac":8884,"answers":8885,"Soviet":8886,"Stand":8887,"effectiveness":8888,"lobby":8889,"imposed":8890,"subsidies":8891,"visible":8892,"Year":8893,"ros":8894,"widely":8895,"promises":8896,"liqu":8897,"08":8898,"autom":8899,"PR":8900,"grateful":8901,"balcony":8902,"woman":8903,"scan":8904,"definitely":8905,"Square":8906,"Non":8907,"corruption":8908,"solar":8909,"engen":8910,"imper":8911,"spoken":8912,"raw":8913,"complement":8914,"conciliation":8915,"uguese":8916,"Pack":8917,"icans":8918,"acco":8919,"techniques":8920,"statistics":8921,"eva":8922,"ils":8923,"updated":8924,"Whether":8925,"wild":8926,"heritage":8927,"hum":8928,"declared":8929,"rot":8930,"aria":8931,"indicated":8932,"Ha":8933,"saf":8934,"protocol":8935,"valley":8936,"dule":8937,"arts":8938,"finish":8939,"Product":8940,"Slovak":8941,"profile":8942,"Fil":8943,"visited":8944,"transition":8945,"ancy":8946,"maintaining":8947,"involves":8948,"library":8949,"ura":8950,"interior":8951,"declaration":8952,"delighted":8953,"Camp":8954,"si":8955,"rd":8956,"für":8957,"wines":8958,"amaz":8959,"auf":8960,"orn":8961,"Hall":8962,"contacts":8963,"satisfied":8964,"trafficking":8965,"GB":8966,"moral":8967,"stall":8968,"actors":8969,"III":8970,"र्":8971,"nights":8972,"drivers":8973,"invite":8974,"tran":8975,"orate":8976,"demonstrated":8977,"signs":8978,"incident":8979,"inhabitants":8980,"ADS":8981,"demonstrate":8982,"starts":8983,"resistance":8984,"Given":8985,"presents":8986,"asters":8987,"Portuguese":8988,"istry":8989,"pm":8990,"Ros":8991,"colon":8992,"flights":8993,"showing":8994,"ifies":8995,"bio":8996,"Mat":8997,"thr":8998,"careful":8999,"ulating":9000,"facts":9001,"relaxation":9002,"assets":9003,"bird":9004,"competent":9005,"lists":9006,"corresponding":9007,"Main":9008,"ria":9009,"channels":9010,"ISO":9011,"collaboration":9012,"tourists":9013,"tery":9014,"arrive":9015,"detect":9016,"speaker":9017,"hill":9018,"attend":9019,"committees":9020,"appearance":9021,"department":9022,");":9023,"stored":9024,"lip":9025,"bles":9026,"passenger":9027,"alcohol":9028,"concluded":9029,"thumb":9030,"shadow":9031,"monu":9032,"provider":9033,"bilateral":9034,"iano":9035,"crow":9036,"से":9037,"input":9038,"ongoing":9039,"%,":9040,"asser":9041,"duc":9042,"personnel":9043,"cession":9044,"metro":9045,"functional":9046,"afternoon":9047,"constitutional":9048,"phrase":9049,"Kr":9050,"suites":9051,"exciting":9052,"justified":9053,"entrance":9054,"contrad":9055,"Pact":9056,"pul":9057,"Protection":9058,"explicit":9059,"Class":9060,"newsp":9061,"het":9062,"Palace":9063,"regarded":9064,"towns":9065,"channel":9066,"ictory":9067,"Wik":9068,"makers":9069,"Vice":9070,"oriented":9071,"rapidly":9072,"configuration":9073,"cha":9074,"eless":9075,"Spa":9076,"Transport":9077,"looked":9078,"Hungary":9079,"magnific":9080,"insp":9081,"Perhaps":9082,"pret":9083,"possibly":9084,"Ba":9085,"educational":9086,"etic":9087,"Schengen":9088,"distingu":9089,"apy":9090,"visiting":9091,"remote":9092,"tickets":9093,"desired":9094,"crimes":9095,"Question":9096,"embr":9097,"norm":9098,"immigrants":9099,"Copen":9100,"stylish":9101,"navig":9102,"overcome":9103,"Amendments":9104,"68":9105,"strugg":9106,"Gar":9107,"minorities":9108,"perior":9109,"determination":9110,"Four":9111,"catch":9112,"theme":9113,"Copenhagen":9114,"MB":9115,"recorded":9116,"Custo":9117,"belief":9118,"motiv":9119,"Baltic":9120,"Ze":9121,"foundation":9122,"containing":9123,"assume":9124,"legitimate":9125,"Sur":9126,"uzz":9127,"hostel":9128,"partly":9129,"documentation":9130,"chron":9131,"igen":9132,"respected":9133,"spectacular":9134,"Funds":9135,"replaced":9136,"tag":9137,"tackle":9138,"diction":9139,"Cub":9140,"satisfaction":9141,"lovely":9142,"destruction":9143,"rote":9144,"stronger":9145,"05":9146,"tos":9147,"fitness":9148,"iron":9149,"ikes":9150,"credibility":9151,"की":9152,"adopting":9153,"EX":9154,"Belgium":9155,"Report":9156,"sugar":9157,"gardens":9158,"awarded":9159,"marr":9160,"plays":9161,"lounge":9162,"urious":9163,"behaviour":9164,"occasions":9165,"fered":9166,"Prague":9167,"index":9168,"emot":9169,"paralle":9170,"lift":9171,"argument":9172,"07":9173,"windows":9174,"ental":9175,"films":9176,"identified":9177,"VAT":9178,"lad":9179,"exit":9180,"scheme":9181,"Who":9182,"Nord":9183,"saving":9184,"warrant":9185,"Media":9186,"tob":9187,"facility":9188,"Applause":9189,"ette":9190,"Person":9191,"fal":9192,"routes":9193,"evolution":9194,"2011":9195,"Bush":9196,"ored":9197,"compe":9198,"transactions":9199,"Fre":9200,"edia":9201,"infring":9202,"CC":9203,"centuries":9204,"distributed":9205,"manufacturer":9206,"subsidiarity":9207,"prompt":9208,"cosy":9209,"rub":9210,"demo":9211,"patient":9212,"vised":9213,"flood":9214,"virtual":9215,"shares":9216,"consent":9217,"sharing":9218,"Vir":9219,"uster":9220,"conce":9221,"sending":9222,"plenty":9223,"taxation":9224,"endorse":9225,"09":9226,"died":9227,"Action":9228,"assum":9229,"falls":9230,"Mexico":9231,"ela":9232,"smooth":9233,"ki":9234,"professionals":9235,"Nos":9236,"milk":9237,"46":9238,"upper":9239,"Chair":9240,"rev":9241,"encouraging":9242,"housing":9243,"Following":9244,"division":9245,"bike":9246,"Tun":9247,"generated":9248,"Down":9249,"Wall":9250,"quarters":9251,"narrow":9252,"Structural":9253,"Town":9254,"courts":9255,"certific":9256,"winning":9257,"uris":9258,"globalisation":9259,"fold":9260,"suppliers":9261,"addresses":9262,"Description":9263,"component":9264,"Dol":9265,"bling":9266,"Profess":9267,"inclusion":9268,"interpretation":9269,"icon":9270,"tight":9271,"deposit":9272,"EP":9273,"Van":9274,"reput":9275,"NT":9276,"inspe":9277,"deficit":9278,"Within":9279,"iders":9280,"proven":9281,"03":9282,"dign":9283,"42":9284,"specially":9285,"Earth":9286,"considering":9287,"Hungarian":9288,"decisive":9289,"elsewhere":9290,"visory":9291,"eventually":9292,"extraordinary":9293,"army":9294,"authen":9295,"ranging":9296,"crew":9297,"Secret":9298,"rising":9299,"preparing":9300,"Mill":9301,"providers":9302,"fat":9303,"wrote":9304,"offic":9305,"inser":9306,"proposes":9307,"cuts":9308,"hael":9309,"thousand":9310,"restruct":9311,"scene":9312,"Madrid":9313,"rental":9314,"claimed":9315,"Congress":9316,"ige":9317,"wear":9318,"legitim":9319,"Site":9320,"banking":9321,"vulnerable":9322,"plenary":9323,"exports":9324,"wash":9325,"slightly":9326,"iled":9327,"theory":9328,"Without":9329,"600":9330,"800":9331,"Thurs":9332,"Code":9333,"fourth":9334,"tast":9335,"tries":9336,"examine":9337,"lasting":9338,"tobacco":9339,"excessive":9340,"disk":9341,"ensures":9342,"sembly":9343,"representation":9344,"absence":9345,"bright":9346,"स्":9347,"substance":9348,"Northern":9349,"agers":9350,"]].":9351,"Bad":9352,"impose":9353,"artistic":9354,"magnificent":9355,"lined":9356,"Cho":9357,"miles":9358,"collap":9359,"Thirdly":9360,"distort":9361,"adults":9362,"vary":9363,"eat":9364,"uous":9365,"flows":9366,"Kur":9367,"duties":9368,"university":9369,"prene":9370,"oub":9371,"carrying":9372,"itz":9373,"icing":9374,"horse":9375,"Hy":9376,"lean":9377,"subjects":9378,"England":9379,"Script":9380,"concepts":9381,"ecolog":9382,"maritime":9383,"ida":9384,"Ru":9385,"appointment":9386,"intensive":9387,"Yu":9388,"Among":9389,"proposing":9390,"solely":9391,"Women":9392,"Technology":9393,"Elect":9394,"selling":9395,"ACP":9396,"weekend":9397,"applying":9398,"3D":9399,"sop":9400,"voluntary":9401,"supplies":9402,"savings":9403,"eting":9404,"skill":9405,"06":9406,"complicated":9407,"diverse":9408,"updates":9409,"ams":9410,"abuse":9411,"forests":9412,"traditions":9413,"accurate":9414,"enabled":9415,"privi":9416,"packaging":9417,"everyday":9418,"ika":9419,"tested":9420,"inner":9421,"decre":9422,"gained":9423,"Qual":9424,"Author":9425,"Federation":9426,"nevertheless":9427,"pursue":9428,"defect":9429,"School":9430,"equival":9431,"deter":9432,"autonom":9433,"Assembly":9434,"specified":9435,"bourg":9436,"ahn":9437,"Islamic":9438,"Framework":9439,"clubs":9440,"ationally":9441,"wan":9442,"Island":9443,"sad":9444,"stabil":9445,"Ul":9446,"कर":9447,"Work":9448,"Tha":9449,"shipping":9450,"Treat":9451,"Invest":9452,"renowned":9453,"FA":9454,"execut":9455,"psych":9456,"cycling":9457,"HO":9458,"ema":9459,"Inn":9460,"lessons":9461,"musical":9462,"mental":9463,"poly":9464,"Page":9465,"culation":9466,"Beach":9467,"GM":9468,"luxurious":9469,"uds":9470,"acknowledge":9471,"Na":9472,"resident":9473,"greatly":9474,"Santa":9475,"unning":9476,"iring":9477,"colours":9478,"Fish":9479,"Stock":9480,"philosophy":9481,"EADS":9482,"inated":9483,"Alex":9484,"02":9485,"lich":9486,"arrived":9487,"tables":9488,"Atlantic":9489,"Legal":9490,"suggestions":9491,"villages":9492,"Thursday":9493,"tin":9494,"paying":9495,"1st":9496,"orf":9497,"teams":9498,"suggested":9499,"thedr":9500,"supplier":9501,"Besides":9502,"ido":9503,"topics":9504,"breach":9505,"attempts":9506,"ibly":9507,"script":9508,"Satur":9509,"prosperity":9510,"rical":9511,"departure":9512,"frame":9513,"countryside":9514,"receiving":9515,"1994":9516,"kes":9517,"notes":9518,"phones":9519,"drinks":9520,"enabling":9521,"difficulty":9522,"reaction":9523,"Festival":9524,"invited":9525,"politically":9526,"View":9527,"farming":9528,"module":9529,"uniform":9530,"comparison":9531,"promised":9532,"CO2":9533,"sought":9534,"tea":9535,"productivity":9536,"spoke":9537,"Trek":9538,"description":9539,"Agriculture":9540,"FOR":9541,"tree":9542,"periods":9543,"princip":9544,"Fort":9545,"sheet":9546,"stars":9547,"bled":9548,"UT":9549,"directory":9550,"wheel":9551,"necessarily":9552,"Sunday":9553,"Op":9554,"unforget":9555,"ultane":9556,"arguments":9557,"Cit":9558,"Having":9559,"radical":9560,"twenty":9561,"shar":9562,"Royal":9563,"Bol":9564,"posing":9565,"directed":9566,"pi":9567,"resource":9568,"homes":9569,"wer":9570,"aughter":9571,"societies":9572,"oration":9573,"sett":9574,"constitute":9575,"ride":9576,"disabled":9577,"religion":9578,"reservations":9579,"killed":9580,"destroyed":9581,"lunch":9582,"cean":9583,"Guests":9584,"significance":9585,"Educ":9586,"continuous":9587,"Sloven":9588,"ky":9589,"united":9590,"permitted":9591,"negotiating":9592,"Food":9593,"Mot":9594,"SC":9595,"Exe":9596,"ili":9597,"actor":9598,"director":9599,"skiing":9600,"PHP":9601,"revision":9602,"ington":9603,"imports":9604,"kilomet":9605,"Vill":9606,"placing":9607,"lived":9608,"cooperate":9609,"Americans":9610,"satisfactory":9611,"hat":9612,"portfol":9613,"allocated":9614,"Hamburg":9615,"Mob":9616,"leaves":9617,"secur":9618,"handle":9619,"football":9620,"neighb":9621,"judge":9622,"cock":9623,"obliged":9624,"hof":9625,"cious":9626,"fisher":9627,"referendum":9628,"enjoyed":9629,"freedoms":9630,"trips":9631,"entreprene":9632,"cere":9633,"len":9634,"Gall":9635,"indirect":9636,"tedly":9637,"refers":9638,"Secretary":9639,"Monday":9640,"Barro":9641,"covering":9642,"Tip":9643,"generate":9644,"armed":9645,"fest":9646,"cleaning":9647,"कि":9648,"TA":9649,"retail":9650,"Peter":9651,"PDF":9652,"uggage":9653,"confirmation":9654,"85":9655,"Hist":9656,"crop":9657,"remained":9658,"manual":9659,"barri":9660,"recognized":9661,"festival":9662,"tennis":9663,"municip":9664,"Michael":9665,"Alban":9666,"brid":9667,"missing":9668,"Asian":9669,"Tom":9670,"attrib":9671,"harmonisation":9672,"Finland":9673,"43":9674,"preventing":9675,"2013":9676,"publication":9677,"suffered":9678,"Stras":9679,"PRO":9680,"didn":9681,"uls":9682,"delicious":9683,"surve":9684,"acade":9685,"SA":9686,"fly":9687,"det":9688,"Post":9689,"prime":9690,"introducing":9691,"programming":9692,"reserved":9693,"specialist":9694,"contributed":9695,"ox":9696,"accel":9697,"bomb":9698,"toile":9699,"plo":9700,"undoub":9701,"04":9702,"BC":9703,"usal":9704,"wider":9705,"otic":9706,"ECB":9707,"thedral":9708,"haz":9709,"toward":9710,"Online":9711,"urb":9712,"welcomed":9713,"Tourism":9714,"oker":9715,"supervision":9716,"turning":9717,"overview":9718,"sounds":9719,"passion":9720,"proceedings":9721,"USS":9722,"shr":9723,"para":9724,"sections":9725,"Strasbourg":9726,"hardly":9727,"unforgettable":9728,"surely":9729,"Socialist":9730,"whereas":9731,"Express":9732,"’.":9733,"barriers":9734,"Tal":9735,"gather":9736,"trag":9737,"evident":9738,"Auditors":9739,"characters":9740,"info":9741,"matically":9742,"manager":9743,"enterprise":9744,"movements":9745,"azz":9746,"instructions":9747,"avia":9748,"Indian":9749,"exempt":9750,"Music":9751,"movie":9752,"forthcoming":9753,"ented":9754,"organic":9755,"explained":9756,"sustainability":9757,"acies":9758,"acknowled":9759,"Fire":9760,"Pet":9761,"ries":9762,"Barroso":9763,"ECU":9764,"gallery":9765,"Pass":9766,"rational":9767,"fans":9768,"nine":9769,"vine":9770,"USB":9771,"broadcast":9772,"architect":9773,"ministers":9774,"Tar":9775,"beings":9776,"cells":9777,"vig":9778,"fees":9779,"Mol":9780,"stein":9781,"originally":9782,"41":9783,"sequent":9784,"horiz":9785,"Las":9786,"welcomes":9787,"firmly":9788,"simultane":9789,"stad":9790,"labelling":9791,"liquid":9792,"ieval":9793,"indicate":9794,"everybody":9795,"aza":9796,"ulous":9797,"accus":9798,"Stability":9799,"restricted":9800,"excur":9801,"Cre":9802,"encing":9803,"1980":9804,"transmission":9805,"Project":9806,"uel":9807,"CAP":9808,"Stat":9809,"mouth":9810,"bitr":9811,"parameters":9812,"iest":9813,"Gran":9814,"Should":9815,"mits":9816,"pharm":9817,"conventional":9818,"120":9819,"severe":9820,"agg":9821,"cancer":9822,"Ref":9823,"aga":9824,"Blue":9825,"obstacles":9826,"\")":9827,"User":9828,"dies":9829,"Situated":9830,"Tibet":9831,"Partners":9832,"reflected":9833,"Facilities":9834,"exclusion":9835,"Obama":9836,"250":9837,"realise":9838,"modules":9839,"ista":9840,"enhanced":9841,"chant":9842,"wellness":9843,"lah":9844,"trig":9845,"Serbia":9846,"diagno":9847,"romantic":9848,"vessels":9849,"female":9850,"stret":9851,"driven":9852,"Moroc":9853,"ee":9854,"oul":9855,"classes":9856,"pra":9857,"dog":9858,"thetic":9859,"inevit":9860,"Golf":9861,"heim":9862,"collected":9863,"decade":9864,"ror":9865,"Salz":9866,"stocks":9867,"permit":9868,"commerce":9869,"errors":9870,"Press":9871,"showed":9872,"coordinated":9873,"remarks":9874,"regardless":9875,"saved":9876,"imagine":9877,"Tele":9878,"hearing":9879,"Arch":9880,"enem":9881,"logo":9882,"exploitation":9883,"thes":9884,"contro":9885,"acceptance":9886,"वा":9887,"studio":9888,"universities":9889,"considerably":9890,"combine":9891,"EW":9892,"pled":9893,"juris":9894,"reless":9895,"ws":9896,"lu":9897,"discre":9898,"internationally":9899,"Kir":9900,"Mod":9901,"disasters":9902,"novel":9903,"deliber":9904,"reflects":9905,"DR":9906,"Pay":9907,"News":9908,"functionality":9909,"Regional":9910,"Does":9911,"ün":9912,"investigation":9913,"Start":9914,"breath":9915,"sq":9916,"euros":9917,"rer":9918,"hospitality":9919,"adapted":9920,"wireless":9921,"dignity":9922,"worthy":9923,"generations":9924,"dictator":9925,"undoubtedly":9926,"iversary":9927,"filter":9928,"aling":9929,"welcoming":9930,"eline":9931,"Australia":9932,"bug":9933,"cm":9934,"usage":9935,"ading":9936,"layer":9937,"museums":9938,"ae":9939,"sovereignty":9940,"CL":9941,"Next":9942,"PPE":9943,"fairly":9944,"Commissioners":9945,"losses":9946,"Systems":9947,"han":9948,"computers":9949,"cribe":9950,"iage":9951,"Geneva":9952,"believes":9953,"violations":9954,"distinct":9955,"CF":9956,"Train":9957,"ultural":9958,"gate":9959,"nament":9960,"plastic":9961,"pressed":9962,"managing":9963,"Corpor":9964,"penalty":9965,"roots":9966,"amazing":9967,"amed":9968,"än":9969,"motive":9970,"songs":9971,"iro":9972,"Cer":9973,"Cop":9974,"agre":9975,"excluded":9976,"tu":9977,"ía":9978,"restructuring":9979,"liked":9980,"fascin":9981,"Inte":9982,"Director":9983,"ingred":9984,"subsequent":9985,"anticip":9986,"sophist":9987,"timet":9988,"dens":9989,"experiment":9990,"raising":9991,"Tem":9992,"cosm":9993,"compact":9994,"Yugo":9995,"guided":9996,"worst":9997,"Mult":9998,"meal":9999,"और":10000,"beat":10001,"clause":10002,"sud":10003,"Venice":10004,"िक":10005,"checks":10006,"Yugosl":10007,"peak":10008,"19th":10009,"subs":10010,"endeav":10011,"shift":10012,"outs":10013,"decline":10014,"Valley":10015,"proves":10016,"cue":10017,"porters":10018,"arise":10019,"engage":10020,"transferred":10021,"MO":10022,"omas":10023,"filling":10024,"restore":10025,"Saturday":10026,"traged":10027,"joining":10028,"Resort":10029,"Balkans":10030,"Max":10031,"eu":10032,"equivalent":10033,"disco":10034,"acks":10035,"interven":10036,"processed":10037,"massage":10038,"supplied":10039,"freely":10040,"restored":10041,"assembly":10042,"territorial":10043,"Martin":10044,"approve":10045,"videos":10046,"usive":10047,"edition":10048,"learned":10049,"consulting":10050,"trends":10051,"Mountain":10052,"Zim":10053,"Far":10054,"strengthened":10055,"900":10056,"ordered":10057,"Christmas":10058,"Casino":10059,"partment":10060,"multilateral":10061,"ता":10062,"stages":10063,"satisfy":10064,"concentrate":10065,"agon":10066,"repair":10067,"travelling":10068,"printed":10069,"infringe":10070,"Ken":10071,"schedul":10072,"aj":10073,"height":10074,"parallel":10075,"cultures":10076,"Agenda":10077,"Organisation":10078,"superior":10079,"undertaken":10080,"Box":10081,"reliability":10082,"grown":10083,"eds":10084,"clin":10085,"udsman":10086,"Av":10087,"heads":10088,"incred":10089,"Smo":10090,"tracks":10091,"fishermen":10092,"deeply":10093,"lor":10094,"targeted":10095,"Civil":10096,"thermal":10097,"ellers":10098,"Islands":10099,"reconstruction":10100,"quiry":10101,"Lim":10102,"Education":10103,"Team":10104,"Andre":10105,"missions":10106,"amenities":10107,"Culture":10108,"cket":10109,"till":10110,"Friend":10111,"caf":10112,"profits":10113,"ulf":10114,"Poker":10115,"factory":10116,"CP":10117,"AK":10118,"das":10119,"designs":10120,"damages":10121,"absor":10122,"yn":10123,"irty":10124,"pip":10125,"Common":10126,"Mich":10127,"Pla":10128,"anywhere":10129,"plain":10130,"prest":10131,"arbitr":10132,"produces":10133,"Denmark":10134,"iso":10135,"hydro":10136,"Lam":10137,"Ram":10138,"Wed":10139,"passing":10140,"oting":10141,"hiking":10142,"endar":10143,"calm":10144,"coherent":10145,"Dec":10146,"cles":10147,"1992":10148,"Georgia":10149,"tough":10150,"presenting":10151,"threats":10152,"operates":10153,"BR":10154,"raid":10155,"Castle":10156,"Shop":10157,"editor":10158,"panel":10159,"constitu":10160,"briefly":10161,"treatments":10162,"Sud":10163,"adding":10164,"engaged":10165,"struggle":10166,"arising":10167,"endors":10168,"neighbouring":10169,"mistake":10170,"NI":10171,"Bor":10172,"Forum":10173,"shock":10174,"underground":10175,"counts":10176,"normally":10177,"stan":10178,"aren":10179,"everywhere":10180,"prospects":10181,"Water":10182,"province":10183,"relative":10184,"Argent":10185,"pressing":10186,"Di":10187,"Life":10188,"TER":10189,"wides":10190,"bay":10191,"ecological":10192,"Executive":10193,"Land":10194,"anniversary":10195,"pillar":10196,"wed":10197,"fron":10198,"Vide":10199,"uscan":10200,"Look":10201,"Tim":10202,"petition":10203,"A5":10204,"student":10205,"heading":10206,"Family":10207,"mad":10208,"clock":10209,"funded":10210,"mere":10211,"sensible":10212,"executive":10213,"portfolio":10214,"itar":10215,"66":10216,"listings":10217,"varied":10218,"sights":10219,"án":10220,"Angel":10221,"appropriations":10222,"IMF":10223,"SL":10224,"poo":10225,"attached":10226,"Consumer":10227,"kernel":10228,"(\"":10229,"pense":10230,"floors":10231,"honest":10232,"budgets":10233,"NGOs":10234,"Jer":10235,"refr":10236,"nail":10237,"Point":10238,"pretty":10239,"reputation":10240,"chat":10241,"essentially":10242,"David":10243,"Protocol":10244,"Server":10245,"burn":10246,"concert":10247,"individually":10248,"olive":10249,"entering":10250,"yard":10251,"Consequently":10252,"Omb":10253,"mort":10254,"sufficiently":10255,"phenomenon":10256,"panoramic":10257,"dern":10258,"Belgian":10259,"splend":10260,"nur":10261,"picturesque":10262,"tech":10263,"ión":10264,"aux":10265,"fax":10266,"accompl":10267,"predict":10268,"referring":10269,"Jose":10270,"intends":10271,"operated":10272,"adds":10273,"relates":10274,"diplomatic":10275,"execution":10276,"differ":10277,"begins":10278,"occurred":10279,"Stor":10280,"highlights":10281,"Support":10282,"agents":10283,"engines":10284,"graphics":10285,"chairman":10286,"teaching":10287,"regulated":10288,"eurozone":10289,"Si":10290,"een":10291,"td":10292,"medicine":10293,"()":10294,"chief":10295,"magazine":10296,"urgently":10297,"neut":10298,"twice":10299,"riding":10300,"Tai":10301,"py":10302,"causing":10303,"ala":10304,"shot":10305,"fection":10306,"blind":10307,"SO":10308,"formats":10309,"liable":10310,"Clear":10311,"fined":10312,"brother":10313,"Adr":10314,"Il":10315,"iner":10316,"scientists":10317,"geographical":10318,"tranqu":10319,"Lith":10320,"rally":10321,"producer":10322,"VI":10323,"cia":10324,"macro":10325,"Soci":10326,"recording":10327,"efficiently":10328,"Would":10329,"candidates":10330,"abo":10331,"letters":10332,"eras":10333,"Pic":10334,"dé":10335,"atch":10336,"Budgets":10337,"Award":10338,"outer":10339,"cultiv":10340,"None":10341,"serving":10342,"acquired":10343,"Jes":10344,"arran":10345,"forgot":10346,"Tro":10347,"cater":10348,"logical":10349,"ody":10350,"mouse":10351,"warning":10352,"consequence":10353,"recip":10354,"succeeded":10355,"inspired":10356,"seats":10357,"Jean":10358,"inely":10359,"resulted":10360,"pace":10361,"taxpay":10362,"highlighted":10363,"authentic":10364,"Ombudsman":10365,"feet":10366,"hence":10367,"को":10368,"widespread":10369,"gradually":10370,"pilot":10371,"orous":10372,"haus":10373,"onymous":10374,"haust":10375,"Lou":10376,"Catal":10377,"tort":10378,"wave":10379,"Acade":10380,"tri":10381,"strictly":10382,"incorporated":10383,"adventure":10384,"Rich":10385,"Holiday":10386,"Lastly":10387,"Customer":10388,"Hor":10389,"mining":10390,"integrate":10391,"्य":10392,"itative":10393,"Dig":10394,"considers":10395,"bonus":10396,"oldest":10397,"meets":10398,"ani":10399,"stunning":10400,"Represent":10401,"Putin":10402,"alumin":10403,"favourable":10404,"sophisticated":10405,"kilometres":10406,"NL":10407,"nish":10408,"Show":10409,"overlooking":10410,"virtually":10411,"troops":10412,"sudden":10413,"revenue":10414,"fault":10415,"Pac":10416,"onic":10417,"deem":10418,"hl":10419,"ht":10420,"compuls":10421,"recognize":10422,"foun":10423,"HD":10424,"parad":10425,"surprise":10426,"puts":10427,"eco":10428,"constructed":10429,"BM":10430,"UL":10431,"divers":10432,"specialists":10433,"convention":10434,"composition":10435,"affects":10436,"records":10437,"squ":10438,"rank":10439,"CR":10440,"combines":10441,"pens":10442,"Using":10443,"qualities":10444,"opens":10445,"Rotary":10446,"prize":10447,"infect":10448,"conditioned":10449,"boats":10450,"1993":10451,"wage":10452,"blocks":10453,"airports":10454,"prisoners":10455,"ustry":10456,"environmentally":10457,"operator":10458,"amps":10459,"confidential":10460,"classical":10461,"dance":10462,"Los":10463,"explanation":10464,"boards":10465,"soil":10466,"Industry":10467,"inno":10468,"ald":10469,"choices":10470,"invo":10471,"exhaust":10472,"ublin":10473,"encouraged":10474,"reiter":10475,"desir":10476,"associations":10477,"unk":10478,"participating":10479,"iat":10480,"hidden":10481,"Via":10482,"seeks":10483,"smart":10484,"achievement":10485,"convergence":10486,"Cooperation":10487,"marine":10488,"Manager":10489,"Notes":10490,"Constitutional":10491,"willingness":10492,"aviation":10493,"Por":10494,"ön":10495,"ambi":10496,"teachers":10497,"bearing":10498,"reporting":10499,"alongside":10500,"victory":10501,"Exchange":10502,"forming":10503,"ishment":10504,"accidents":10505,"Deutsche":10506,"Download":10507,"observed":10508,"orer":10509,"harmful":10510,"preserve":10511,"negotiation":10512,"premium":10513,"inet":10514,"quote":10515,"Nu":10516,"Children":10517,"700":10518,"Mel":10519,"Treaties":10520,"indis":10521,"opes":10522,"estimated":10523,"Lithu":10524,"licens":10525,"dryer":10526,"Sen":10527,"ante":10528,"trail":10529,"conscious":10530,"contextual":10531,"clarify":10532,"प्र":10533,"mu":10534,"unfair":10535,"theatre":10536,"Danish":10537,"uct":10538,"convenience":10539,"colors":10540,"itate":10541,"crises":10542,"Cup":10543,"quotas":10544,"purely":10545,"percentage":10546,"inn":10547,"bathrooms":10548,"JavaScript":10549,"beer":10550,"Based":10551,"Have":10552,"istical":10553,"adays":10554,"spite":10555,"utmost":10556,"20th":10557,"dispute":10558,"ario":10559,"tap":10560,"conferences":10561,"Equ":10562,"ern":10563,"casino":10564,"Rh":10565,"sumed":10566,"Industr":10567,"67":10568,"yield":10569,"stories":10570,"secondly":10571,"villa":10572,"shuttle":10573,"acceler":10574,"OK":10575,"seas":10576,"capabilities":10577,"ram":10578,"surprised":10579,"compulsory":10580,"Sie":10581,"Space":10582,"Vers":10583,"assigned":10584,"native":10585,"cope":10586,"specialized":10587,"surprising":10588,"grap":10589,"Maria":10590,"Rem":10591,"secre":10592,"Nob":10593,"seconds":10594,"hopes":10595,"Que":10596,"stores":10597,"Terms":10598,"Dublin":10599,"ão":10600,"asset":10601,"Fundamental":10602,"wooden":10603,"Master":10604,"1000":10605,"gues":10606,"implications":10607,"meals":10608,"Engine":10609,"Nik":10610,"governing":10611,"upgrade":10612,"manif":10613,"checked":10614,"George":10615,"Bed":10616,"Div":10617,"ture":10618,"initially":10619,"Pen":10620,"incentives":10621,"88":10622,"hills":10623,"relationships":10624,"Bern":10625,"extending":10626,"inspir":10627,"believed":10628,"Again":10629,"luck":10630,"ingly":10631,"airlines":10632,"proxim":10633,"possess":10634,"Cond":10635,"bol":10636,"Syria":10637,"hang":10638,"Kong":10639,"secut":10640,"Back":10641,"Garden":10642,"superb":10643,"enthusi":10644,"BA":10645,"communicate":10646,"Ret":10647,"TP":10648,"Flash":10649,"yards":10650,"horizon":10651,"Leban":10652,"enforcement":10653,"aded":10654,"expense":10655,"persist":10656,"broken":10657,"Jewish":10658,"Spr":10659,"thick":10660,"utical":10661,"therapy":10662,"permission":10663,"breed":10664,"Three":10665,"eliminate":10666,"ket":10667,"amended":10668,"ape":10669,"auth":10670,"medieval":10671,"GU":10672,"approaches":10673,"schemes":10674,"developers":10675,"Prodi":10676,"oles":10677,"organise":10678,"m2":10679,"keys":10680,"dialog":10681,"Top":10682,"indoor":10683,"audience":10684,"girls":10685,"scheduled":10686,"Word":10687,"alter":10688,"ml":10689,"concentration":10690,"Ev":10691,"ultimate":10692,"addressing":10693,"Smoking":10694,"eft":10695,"charm":10696,"ennium":10697,"plates":10698,"empty":10699,"zero":10700,"Kyo":10701,"LO":10702,"hur":10703,"soul":10704,"77":10705,"gers":10706,"repl":10707,"elle":10708,"Subject":10709,"Ltd":10710,"iable":10711,"shortly":10712,"envis":10713,"Games":10714,"Select":10715,"Greens":10716,"Es":10717,"Hong":10718,"edited":10719,"constr":10720,"violation":10721,"poorest":10722,"trop":10723,"studied":10724,"constitutes":10725,"eper":10726,"accompany":10727,"hole":10728,"remarkable":10729,"legitimacy":10730,"AID":10731,"Network":10732,"tage":10733,"accounting":10734,"Quality":10735,"aven":10736,"describe":10737,"whereby":10738,"survey":10739,"A4":10740,"intelligent":10741,"estr":10742,"assem":10743,"occupation":10744,"Kyoto":10745,"wife":10746,"ificial":10747,"mixed":10748,"medicines":10749,"fifth":10750,"discount":10751,"venues":10752,"holder":10753,"ENT":10754,"Grow":10755,"kt":10756,"junction":10757,"acht":10758,"campaigns":10759,"Employment":10760,"scribe":10761,"abstain":10762,"desktop":10763,"Fisheries":10764,"bow":10765,"meaningfully":10766,"clicking":10767,"iking":10768,"suspect":10769,"iva":10770,"pools":10771,"painting":10772,"chapter":10773,"Mass":10774,"ua":10775,"Indones":10776,"Access":10777,"width":10778,"Cuba":10779,"ingredients":10780,"cular":10781,"loy":10782,"aceutical":10783,"trem":10784,"sible":10785,"translated":10786,"ownership":10787,"minent":10788,"cluding":10789,"hect":10790,"logic":10791,"gart":10792,"jan":10793,"DC":10794,"Vene":10795,"Meeting":10796,"Similar":10797,"Test":10798,"portal":10799,"bought":10800,"SV":10801,"BO":10802,"Emp":10803,"ctor":10804,"taxi":10805,"neighbours":10806,"cis":10807,"gross":10808,"compos":10809,"persu":10810,"tariff":10811,"Robert":10812,"tournament":10813,"enjoys":10814,"sacr":10815,"inadequate":10816,"completion":10817,"seemed":10818,"urgency":10819,"ratification":10820,"tub":10821,"ना":10822,"grass":10823,"EE":10824,"exposed":10825,"maybe":10826,"steam":10827,"splendid":10828,"Skype":10829,"fewer":10830,"paths":10831,"split":10832,"foundations":10833,"ologies":10834,"Authority":10835,"ivals":10836,"caution":10837,"DI":10838,"bread":10839,"Intergovernmental":10840,"desirable":10841,"Vo":10842,"jac":10843,"Lar":10844,"Wash":10845,"Wednes":10846,"stip":10847,"contextually":10848,"grammatically":10849,"Nav":10850,"hypo":10851,"Make":10852,"elder":10853,"Slovakia":10854,"Player":10855,"baby":10856,"frequency":10857,"1970":10858,"flav":10859,"references":10860,"soever":10861,"technique":10862,"convert":10863,"remed":10864,"Internal":10865,"trained":10866,"navigation":10867,"Gl":10868,"Naz":10869,"oppon":10870,"aps":10871,"grav":10872,"moreover":10873,"secondary":10874,"choos":10875,"principal":10876,"Viet":10877,"begun":10878,"examination":10879,"journalists":10880,"tric":10881,"repeatedly":10882,"stic":10883,"considerations":10884,"suggests":10885,"iones":10886,"Travel":10887,"afts":10888,"collapse":10889,"pour":10890,"ictor":10891,"branch":10892,"certified":10893,"electrical":10894,"circu":10895,"preferred":10896,"Florence":10897,"A3":10898,"Var":10899,"shore":10900,"Key":10901,"upgrad":10902,"underlying":10903,"Distr":10904,"Plat":10905,"array":10906,"Dep":10907,"cs":10908,"thres":10909,"losing":10910,"deserves":10911,"chairs":10912,"economically":10913,"USD":10914,"reinforce":10915,"arranged":10916,"Men":10917,"Colle":10918,"escape":10919,"coach":10920,"genuinely":10921,"timetable":10922,"1991":10923,"enjoying":10924,"render":10925,"newsletter":10926,"observe":10927,"Chairman":10928,"admit":10929,"eli":10930,"solved":10931,"guaranteeing":10932,"Academy":10933,"debating":10934,"dramatic":10935,"ques":10936,"ार":10937,"Current":10938,"managers":10939,"foremost":10940,"Small":10941,"compete":10942,"’,":10943,"legend":10944,"weakness":10945,"Zur":10946,"inder":10947,"coastal":10948,"Video":10949,"Cli":10950,"rog":10951,"codecision":10952,"fascinating":10953,"arer":10954,"Sign":10955,"ambig":10956,"unnecessary":10957,"Les":10958,"PM":10959,"closure":10960,"DO":10961,"sees":10962,"expanded":10963,"folder":10964,"Standard":10965,"EF":10966,"forcing":10967,"representing":10968,"subsequently":10969,"listening":10970,"elig":10971,"igious":10972,"ounds":10973,"Chan":10974,"vocational":10975,"Road":10976,"Polit":10977,"Together":10978,"refused":10979,"Prem":10980,"sizes":10981,"Head":10982,"distribut":10983,"Left":10984,"iments":10985,"Contin":10986,"thumbnail":10987,"affil":10988,"intentions":10989,"characteristic":10990,"reci":10991,"sorry":10992,"Dal":10993,"James":10994,"brain":10995,"optimal":10996,"gor":10997,"inery":10998,"examined":10999,"Hostels":11000,"Plaza":11001,"tox":11002,"residential":11003,"boasts":11004,"informal":11005,"condemn":11006,"Moscow":11007,"gem":11008,"openness":11009,"transfers":11010,"respects":11011,"speeches":11012,"strike":11013,"ician":11014,"Taiwan":11015,"diving":11016,"External":11017,"cancellation":11018,"Wednesday":11019,"owing":11020,"moments":11021,"zza":11022,"cancel":11023,"busy":11024,"comparable":11025,"scand":11026,"Ministry":11027,"false":11028,"Det":11029,"tou":11030,"miner":11031,"neighbourhood":11032,"financed":11033,"expenses":11034,"Administr":11035,"Han":11036,"approx":11037,"layout":11038,"86":11039,"Several":11040,"1989":11041,"Process":11042,"falling":11043,"Morocco":11044,"tram":11045,"dress":11046,"boy":11047,"fortunate":11048,"Live":11049,"importantly":11050,"Mand":11051,"expo":11052,"patch":11053,"viously":11054,"Us":11055,"autumn":11056,"Tunis":11057,"Vietnam":11058,"deploy":11059,"igence":11060,"Section":11061,"tragic":11062,"gling":11063,"Department":11064,"refresh":11065,"forecast":11066,"crimin":11067,"spectrum":11068,"purchased":11069,"detr":11070,"textile":11071,"jointly":11072,"suited":11073,"Alps":11074,"Bosnia":11075,"swi":11076,"trouble":11077,"instantly":11078,"amending":11079,"relief":11080,"CN":11081,"bigger":11082,"वि":11083,"reward":11084,"Pod":11085,"contam":11086,"lights":11087,"slopes":11088,"simultaneously":11089,"tragedy":11090,"72":11091,"uplo":11092,"protest":11093,"loans":11094,"Monte":11095,"jurisdiction":11096,"Jul":11097,"devoted":11098,"artificial":11099,"MySQL":11100,"certification":11101,"Palestinians":11102,"sample":11103,"rubber":11104,"sus":11105,"clarity":11106,"travellers":11107,"manufactured":11108,"ée":11109,"illance":11110,"requis":11111,"Apartments":11112,"IX":11113,"Pacific":11114,"dependence":11115,"accordingly":11116,"fell":11117,"composed":11118,"buses":11119,"Ren":11120,"Rail":11121,"inational":11122,"booked":11123,"accuracy":11124,"Studio":11125,"lively":11126,"ando":11127,"asion":11128,"sessions":11129,"featuring":11130,"complaints":11131,"motorway":11132,"Mobile":11133,"convey":11134,"turns":11135,"Single":11136,"Produ":11137,"CA":11138,"Puer":11139,"dur":11140,"ifor":11141,"Bi":11142,"tray":11143,"ferent":11144,"violent":11145,"Image":11146,"लि":11147,"Mess":11148,"beit":11149,"terrible":11150,"Tam":11151,"manip":11152,"spons":11153,"viewed":11154,"printer":11155,"Heads":11156,"Hans":11157,"enlar":11158,"ighter":11159,"broader":11160,"revised":11161,"staying":11162,"residents":11163,"affecting":11164,"Partnership":11165,"({{":11166,"measurement":11167,"forgotten":11168,".)":11169,"Fair":11170,"Tuscan":11171,"electoral":11172,"jet":11173,"Clean":11174,"calendar":11175,"Suite":11176,"inspection":11177,"Airbus":11178,"odes":11179,"gift":11180,"oppose":11181,"sake":11182,"accessories":11183,"arrangement":11184,"Personal":11185,"lav":11186,"quet":11187,"}})":11188,"excursions":11189,"Wil":11190,"promoted":11191,"destinations":11192,"authors":11193,"poker":11194,"Tit":11195,"transaction":11196,"2012":11197,"parks":11198,"Growth":11199,"recru":11200,"Phone":11201,"finds":11202,"profound":11203,"Pos":11204,"recall":11205,"adm":11206,"rome":11207,"recover":11208,"preserved":11209,"enery":11210,"aris":11211,"afraid":11212,"oning":11213,"orientation":11214,"Mir":11215,"compliment":11216,"behavior":11217,"continuously":11218,"virus":11219,"Sudan":11220,"Consul":11221,"dio":11222,"arians":11223,"ulpt":11224,"udes":11225,"doubts":11226,"ilation":11227,"pharmaceutical":11228,"Mur":11229,"Terr":11230,"pensions":11231,"posts":11232,"expressly":11233,"assured":11234,"Liby":11235,"bach":11236,"pha":11237,"removal":11238,"sunny":11239,"ethical":11240,"pel":11241,"ceiling":11242,"NA":11243,"Search":11244,"modify":11245,"cookies":11246,"GNU":11247,"ained":11248,"answered":11249,"Jack":11250,"whatsoever":11251,"Staff":11252,"buying":11253,"Dar":11254,"Gaza":11255,"hem":11256,"elev":11257,"ROM":11258,"mary":11259,"inity":11260,"stressed":11261,"viable":11262,"authorized":11263,"TS":11264,"Inc":11265,"ffect":11266,"78":11267,"Area":11268,"deadline":11269,"beef":11270,"renewed":11271,"Washington":11272,"mant":11273,"papers":11274,"'''":11275,"stopped":11276,"procure":11277,"Log":11278,"transitional":11279,"refuse":11280,"negotiated":11281,"zing":11282,"Install":11283,"hen":11284,"basically":11285,"annes":11286,"flash":11287,"sculpt":11288,"Otherwise":11289,"Ur":11290,"focusing":11291,"mechanical":11292,"56":11293,"Bav":11294,"nobody":11295,"integrity":11296,"Finnish":11297,"Offic":11298,"promising":11299,"conversion":11300,"delays":11301,"focuses":11302,"Mail":11303,"ativity":11304,"Charles":11305,"knew":11306,"Expl":11307,"soldi":11308,"Doc":11309,"arest":11310,"negotiate":11311,"YO":11312,"perce":11313,"Moz":11314,"Cons":11315,"tip":11316,"operative":11317,"PA":11318,"ciences":11319,"encry":11320,"ipher":11321,"soldiers":11322,"granting":11323,"allocation":11324,"affordable":11325,"installations":11326,"Youth":11327,"officially":11328,"dimensions":11329,"NO":11330,"atlantic":11331,"mature":11332,"occupied":11333,"quantity":11334,"spell":11335,"attended":11336,"adjustment":11337,"Win":11338,"populations":11339,"Modern":11340,"declare":11341,"observation":11342,"bicy":11343,"ym":11344,"lod":11345,"presidential":11346,"alternatives":11347,"belongs":11348,"aya":11349,"apest":11350,"winner":11351,"Fun":11352,"sailing":11353,"lakes":11354,"isa":11355,"sweet":11356,"nings":11357,"tering":11358,"landscap":11359,"distinction":11360,"Citiz":11361,"Maced":11362,"PO":11363,"publishing":11364,"deserve":11365,"Society":11366,"assurance":11367,"ideally":11368,"holm":11369,"Ol":11370,"brands":11371,"Liberal":11372,"delete":11373,"champion":11374,"territories":11375,"commend":11376,"loading":11377,"cludes":11378,"Place":11379,"tower":11380,"privat":11381,"transit":11382,"architectural":11383,"Jac":11384,"gon":11385,"trace":11386,"urches":11387,"frequent":11388,"umes":11389,"researchers":11390,"exhibitions":11391,"Representative":11392,"credible":11393,"jack":11394,"healthcare":11395,"beneficial":11396,"Made":11397,"argue":11398,"hero":11399,"Experi":11400,"privileged":11401,"visits":11402,"surveillance":11403,"grave":11404,"iera":11405,"aes":11406,"opard":11407,"Marina":11408,"bout":11409,"icting":11410,"freight":11411,"explicitly":11412,"achievements":11413,"mines":11414,"duration":11415,"irt":11416,"izer":11417,"twin":11418,"greenhouse":11419,"identification":11420,"Mach":11421,"undertake":11422,"advise":11423,"variable":11424,"ignore":11425,"uncertainty":11426,"57":11427,"typically":11428,"precision":11429,"EA":11430,"pes":11431,"CON":11432,"emerged":11433,"58":11434,"fi":11435,"kan":11436,"sel":11437,"drag":11438,"civilian":11439,"ruling":11440,"Cu":11441,"whel":11442,"ows":11443,"gym":11444,"18th":11445,"catalogue":11446,"Storage":11447,"confront":11448,"closing":11449,"multinational":11450,"organize":11451,"cameras":11452,"Budapest":11453,"postal":11454,"preparations":11455,"Niger":11456,"mi":11457,"whenever":11458,"Gentoo":11459,"fare":11460,"deterior":11461,"attain":11462,"centers":11463,"160":11464,"monuments":11465,"Full":11466,"secution":11467,"newspaper":11468,"segment":11469,"tropical":11470,"Bab":11471,"Leon":11472,"necessity":11473,"machinery":11474,"precious":11475,"missed":11476,"52":11477,"recession":11478,"cht":11479,"debated":11480,"employers":11481,"Prize":11482,"automotive":11483,"certificate":11484,"Light":11485,"bran":11486,"Joint":11487,"slo":11488,"revealed":11489,"Copy":11490,"Thomas":11491,"neighbor":11492,"lever":11493,"accum":11494,"92":11495,"ao":11496,"eness":11497,"asp":11498,"Presidents":11499,"Recent":11500,"enrich":11501,"bonds":11502,"Lic":11503,"Sar":11504,"tempt":11505,"prevented":11506,"colonial":11507,"deaths":11508,"astricht":11509,"aqu":11510,"reflection":11511,"academic":11512,"innovations":11513,"Maastricht":11514,"Opera":11515,"prestigious":11516,"apo":11517,"aming":11518,"Digital":11519,"Pas":11520,"signals":11521,"bench":11522,"Object":11523,"cancelled":11524,"Rap":11525,"angers":11526,"thered":11527,"indicators":11528,"suspended":11529,"threatened":11530,"anger":11531,"environ":11532,"Location":11533,"Sem":11534,"नि":11535,"LA":11536,"pit":11537,"itable":11538,"controvers":11539,"concerts":11540,"deficits":11541,"taxpayers":11542,"Ang":11543,"Link":11544,"trains":11545,"Joh":11546,"ANT":11547,"schedule":11548,"Anton":11549,"itionally":11550,"Call":11551,"cker":11552,"isions":11553,"Champion":11554,"ologne":11555,"Philip":11556,"sures":11557,"overwhel":11558,"publications":11559,"stops":11560,"auer":11561,"Milan":11562,"notably":11563,"pub":11564,"cart":11565,"handed":11566,"ofin":11567,"illness":11568,"contest":11569,"ratified":11570,"Regard":11571,"Investment":11572,"odiversity":11573,"telecommunications":11574,"gradu":11575,"Wire":11576,"nit":11577,"shif":11578,"unusual":11579,"ación":11580,"nationals":11581,"flying":11582,"xy":11583,"incur":11584,"Until":11585,"corre":11586,"Kal":11587,"hers":11588,"drives":11589,"Series":11590,"unknown":11591,"relaxed":11592,"senior":11593,"List":11594,"Sport":11595,"gments":11596,"iang":11597,"Conserv":11598,"realize":11599,"confident":11600,"treas":11601,"Cologne":11602,"oph":11603,"alike":11604,"Democratic":11605,"ceremon":11606,"Salzburg":11607,"Zurich":11608,"insufficient":11609,"releases":11610,"Sony":11611,"interactive":11612,"plane":11613,"Francis":11614,"Leg":11615,"aluminium":11616,"angle":11617,"consistently":11618,"replacement":11619,"chemicals":11620,"conservation":11621,"moves":11622,"silver":11623,"girl":11624,"Iron":11625,"signing":11626,"Olympic":11627,"Der":11628,"justify":11629,"gressive":11630,"purchasing":11631,"Freedom":11632,"Mit":11633,"chose":11634,"Hen":11635,"mistakes":11636,"attract":11637,"Rural":11638,"fails":11639,"sandy":11640,"gene":11641,"William":11642,"Mas":11643,"contractual":11644,"logistics":11645,"photographs":11646,"Az":11647,"oni":11648,"Southern":11649,"hus":11650,"icity":11651,"imported":11652,"stimul":11653,"thanking":11654,"farms":11655,"Ash":11656,"ratio":11657,"ARE":11658,"authorised":11659,"supplementary":11660,"murder":11661,"strip":11662,"Eur":11663,"dating":11664,"rating":11665,"settled":11666,"zones":11667,"क्":11668,"alia":11669,"returns":11670,"heavily":11671,"literature":11672,"51":11673,"SM":11674,"bid":11675,"wis":11676,"tension":11677,"citizenship":11678,"bureaucracy":11679,"Hostelsclub":11680,"2nd":11681,"Europol":11682,"humanity":11683,"hydr":11684,"borrow":11685,"withdrawal":11686,"71":11687,"lingu":11688,"movies":11689,"biz":11690,"Langu":11691,"judgment":11692,"otechn":11693,"acquisition":11694,"Quark":11695,"spiritual":11696,"intervene":11697,"Bureau":11698,"Rob":11699,"comprises":11700,"ungs":11701,"indicates":11702,"designer":11703,"wars":11704,"stayed":11705,"feedback":11706,"nutr":11707,"hospital":11708,"Son":11709,"patterns":11710,"egg":11711,"demonstrates":11712,"Tel":11713,"favourite":11714,"defining":11715,"occurs":11716,"mandatory":11717,"agrees":11718,"RA":11719,"ès":11720,"heated":11721,"dual":11722,"Website":11723,"performing":11724,"generous":11725,"posted":11726,"Metro":11727,"54":11728,"codes":11729,"partition":11730,"clothing":11731,"worrying":11732,"evaluate":11733,"Kon":11734,"Pia":11735,"timely":11736,"contributing":11737,"initiated":11738,"hesitate":11739,"intelligence":11740,"council":11741,"Michel":11742,"spare":11743,"iana":11744,"AIDS":11745,"bin":11746,"decent":11747,"Innov":11748,"Victor":11749,"fitted":11750,"Ado":11751,"patents":11752,"BSE":11753,"Tick":11754,"Yugoslavia":11755,"tz":11756,"rena":11757,"advertise":11758,"bis":11759,"ska":11760,"vous":11761,"encia":11762,"voters":11763,"ultimedia":11764,"igned":11765,"coordinate":11766,"Argentina":11767,"Fu":11768,"imposing":11769,"boxes":11770,"semi":11771,"Hour":11772,"oll":11773,"balances":11774,"HTML":11775,"guards":11776,"archive":11777,"apped":11778,"lovers":11779,"kit":11780,"Conditions":11781,"tan":11782,"Late":11783,"Lie":11784,"Vi":11785,"apparently":11786,"thesis":11787,"airline":11788,"Cath":11789,"Wolf":11790,"pup":11791,"potentially":11792,"Burma":11793,"affili":11794,"Major":11795,"acle":11796,"keen":11797,"harbour":11798,"Econom":11799,"slowly":11800,"robust":11801,"systematic":11802,"qualifications":11803,"OM":11804,"porter":11805,"Plus":11806,"Cir":11807,"theo":11808,"notified":11809,"wherever":11810,"ssen":11811,"applicant":11812,"competences":11813,"Lithuania":11814,"Science":11815,"measuring":11816,"Slovenia":11817,"cocktail":11818,"spots":11819,"Iranian":11820,"conventions":11821,"unanimously":11822,"Chris":11823,"Nordic":11824,"copies":11825,"yr":11826,"churches":11827,"propri":11828,"elderly":11829,"Cross":11830,"inclusive":11831,"react":11832,"tonnes":11833,"copying":11834,"fallen":11835,"subscribe":11836,"folk":11837,"Brand":11838,"drinking":11839,"caught":11840,"creature":11841,"displays":11842,"Beaut":11843,"disputes":11844,"Rev":11845,"dollars":11846,"Line":11847,"bare":11848,"Deposit":11849,"lighting":11850,"experiencing":11851,"ART":11852,"stro":11853,"Adobe":11854,"Fried":11855,"scar":11856,"minimal":11857,"tut":11858,"irts":11859,"specify":11860,"receip":11861,"breaking":11862,"bass":11863,"creativity":11864,"59":11865,"Wars":11866,"intense":11867,"column":11868,"leather":11869,"pursued":11870,"urning":11871,"terrorists":11872,"expanding":11873,"Socialists":11874,"Empire":11875,"procurement":11876,"grees":11877,"Contact":11878,"proximity":11879,"Fisch":11880,"unions":11881,"magic":11882,"Scotland":11883,"gi":11884,"utt":11885,"converted":11886,"controversial":11887,"downloaded":11888,"toilet":11889,"male":11890,"cooking":11891,"babwe":11892,"redund":11893,"Sc":11894,"UM":11895,"fundament":11896,"biological":11897,"premises":11898,"municipal":11899,"lia":11900,"Mem":11901,"irs":11902,"respectively":11903,"Canon":11904,"pursuant":11905,"EG":11906,"ott":11907,"transformation":11908,"Malta":11909,"Jun":11910,"bell":11911,"ст":11912,"stones":11913,"foster":11914,"opolit":11915,"tank":11916,"enchant":11917,"Similarly":11918,"iland":11919,"mers":11920,"rew":11921,"Zimbabwe":11922,"53":11923,"isn":11924,"consistency":11925,"dated":11926,"iler":11927,"structured":11928,"Peace":11929,"fabric":11930,"blame":11931,"vice":11932,"pays":11933,"catering":11934,"tang":11935,"sentence":11936,"hazard":11937,"Big":11938,"yang":11939,"erad":11940,"sume":11941,"Tues":11942,"unte":11943,"avi":11944,"Lebanon":11945,"Commer":11946,"ester":11947,"stag":11948,"logy":11949,"regulate":11950,"favorite":11951,"uzzi":11952,"pix":11953,"aly":11954,"Sound":11955,"estyle":11956,"arbitrary":11957,"laser":11958,"tab":11959,"feas":11960,"undermine":11961,"ESS":11962,"Communist":11963,"Six":11964,"amin":11965,"unemployed":11966,"tone":11967,"wages":11968,"inspect":11969,"agent":11970,"essence":11971,"capture":11972,"opho":11973,"brut":11974,"Right":11975,"Excell":11976,"headquarters":11977,"tempor":11978,"equity":11979,"biodiversity":11980,"progressive":11981,"Order":11982,"Hand":11983,"degrees":11984,"Sha":11985,"visitor":11986,"dominant":11987,"exposure":11988,"stays":11989,"convince":11990,"score":11991,"fulfilled":11992,"retire":11993,"Everything":11994,"wake":11995,"ometers":11996,"maps":11997,"platforms":11998,"scrutin":11999,"evil":12000,"Solid":12001,"Guide":12002,"perspectives":12003,"ère":12004,"ambition":12005,"silence":12006,"1960":12007,"sheets":12008,"keeps":12009,"treaties":12010,"thy":12011,"alarm":12012,"trick":12013,"vacc":12014,"Mean":12015,"Num":12016,"findings":12017,"coverage":12018,"Apple":12019,"Scott":12020,"crops":12021,"SK":12022,"peripher":12023,"lowest":12024,"NOT":12025,"Writ":12026,"retr":12027,"handled":12028,"warmly":12029,"neutral":12030,"dupl":12031,"warming":12032,"Kirk":12033,"gear":12034,"Clim":12035,"alling":12036,"Alexander":12037,"College":12038,"integral":12039,"accommodate":12040,"coup":12041,"pu":12042,"embed":12043,"Califor":12044,"tribute":12045,"Ms":12046,"advent":12047,"intermedi":12048,"maxim":12049,"iatic":12050,"ardo":12051,"convers":12052,"End":12053,"borne":12054,"crash":12055,"Which":12056,"terminal":12057,"sung":12058,"Choose":12059,"anx":12060,"threshold":12061,"edit":12062,"shell":12063,"workshops":12064,"69":12065,"practically":12066,"detriment":12067,"ova":12068,"temperatures":12069,"bureaucratic":12070,"Nic":12071,"suggestion":12072,"SAP":12073,"devast":12074,"doctor":12075,"tips":12076,"cano":12077,"aug":12078,"Obviously":12079,"shaped":12080,"pole":12081,"explains":12082,"rose":12083,"prelim":12084,"Alger":12085,"refurb":12086,"Golden":12087,"Defence":12088,"weigh":12089,"ilingual":12090,"birds":12091,"Game":12092,"fs":12093,"specifications":12094,"gaining":12095,"rhe":12096,"itr":12097,"rolling":12098,"Captain":12099,"हो":12100,"takings":12101,"Nov":12102,"paradise":12103,"Experience":12104,"Rou":12105,"eing":12106,"kom":12107,"specialities":12108,"democrat":12109,"aken":12110,"ji":12111,"Contr":12112,"acquire":12113,"ati":12114,"colate":12115,"atten":12116,"describes":12117,"workshop":12118,"lag":12119,"rand":12120,"rival":12121,"emission":12122,"kin":12123,"apt":12124,"partnerships":12125,"Trad":12126,"substantially":12127,"sensit":12128,"catast":12129,"receives":12130,"holes":12131,"harmony":12132,"incentive":12133,"avoided":12134,"Cathedral":12135,"enlarged":12136,"emphasised":12137,"Stockholm":12138,"Elev":12139,"tact":12140,"Nep":12141,"bean":12142,"meantime":12143,"fate":12144,"rics":12145,"tte":12146,"interview":12147,"21st":12148,"performances":12149,"appreciated":12150,"sharp":12151,"League":12152,"opo":12153,"raises":12154,"genetic":12155,"Tan":12156,"cheese":12157,"athy":12158,"neglect":12159,"grace":12160,"kel":12161,"talked":12162,"Visit":12163,"aced":12164,"Palestine":12165,"choosing":12166,"Beij":12167,"swift":12168,"History":12169,"setup":12170,"VIS":12171,"Citizens":12172,"lers":12173,"Allow":12174,"torture":12175,"Puerto":12176,"dos":12177,"ensible":12178,"chi":12179,"resid":12180,"3rd":12181,"aspir":12182,"nonetheless":12183,"kg":12184,"chestra":12185,"irregular":12186,"transform":12187,"Parliamentary":12188,"controlling":12189,"deemed":12190,"idy":12191,"boom":12192,"develops":12193,"measured":12194,"consequently":12195,"photography":12196,"मा":12197,"nover":12198,"Gi":12199,"noticed":12200,"directions":12201,"writer":12202,"Hostel":12203,"fro":12204,"sail":12205,"gains":12206,"preliminary":12207,"undertakings":12208,"migrants":12209,"Iraqi":12210,"teacher":12211,"Beijing":12212,"Gulf":12213,"Mall":12214,"Edition":12215,"elve":12216,"finances":12217,"etch":12218,"exchanges":12219,"isolated":12220,"fought":12221,"hier":12222,"RI":12223,"én":12224,"unde":12225,"acer":12226,"watching":12227,"executed":12228,"statistical":12229,"Ce":12230,"signature":12231,"acknowledged":12232,"sin":12233,"är":12234,"marking":12235,"genet":12236,"Additionally":12237,"LAN":12238,"Pop":12239,"piano":12240,"thoroughly":12241,"Prom":12242,"comings":12243,"Prin":12244,"imperial":12245,"Certain":12246,"Ku":12247,"publicly":12248,"expressing":12249,"entries":12250,"alt":12251,"lesson":12252,"interpret":12253,"Labour":12254,"Creat":12255,"Sev":12256,"jeopard":12257,"demographic":12258,"interinstitutional":12259,"LT":12260,"dust":12261,"passes":12262,"declarations":12263,"entrepreneur":12264,"BE":12265,"olic":12266,"notion":12267,"formula":12268,"lessly":12269,"tens":12270,"admitted":12271,"memor":12272,"Industrial":12273,"aked":12274,"damaged":12275,"Hamas":12276,"drafting":12277,"Along":12278,"thin":12279,"iverse":12280,"pray":12281,"founding":12282,"breathtaking":12283,"crystal":12284,"discipline":12285,"ains":12286,"scenery":12287,"characterized":12288,"battery":12289,"Nonetheless":12290,"strange":12291,"disappointed":12292,"paintings":12293,"licence":12294,"oli":12295,"negl":12296,"regn":12297,"BMW":12298,"bone":12299,"derived":12300,"Spring":12301,"Tuesday":12302,"SW":12303,"ression":12304,"Lad":12305,"ilder":12306,"leges":12307,"ctic":12308,"abund":12309,"activated":12310,"confusion":12311,"sein":12312,"indu":12313,"Ant":12314,"camps":12315,"hire":12316,"Form":12317,"socio":12318,"belonging":12319,"Cha":12320,"alleged":12321,"telling":12322,"unlike":12323,"fuels":12324,"magnet":12325,"ALL":12326,"automation":12327,"tailored":12328,"hoped":12329,"challenging":12330,"Easy":12331,"ignored":12332,"scandal":12333,"Hence":12334,"ás":12335,"guitar":12336,"marquis":12337,"downtown":12338,"Instru":12339,"Norway":12340,"prohibited":12341,"distinguish":12342,"wording":12343,"autonomy":12344,"celebrate":12345,"Elevator":12346,"bered":12347,"transmit":12348,"realized":12349,"sporting":12350,"Budgetary":12351,"Moldo":12352,"dil":12353,"themes":12354,"interaction":12355,"parameter":12356,"Macedonia":12357,"California":12358,"auch":12359,"incredible":12360,"pig":12361,"но":12362,"governed":12363,"Orig":12364,"Radio":12365,"nik":12366,"shortcomings":12367,"dominated":12368,"सा":12369,"encounter":12370,"asis":12371,"flowers":12372,"tolerance":12373,"Adriatic":12374,"pione":12375,"monito":12376,"engineers":12377,"Everyone":12378,"Budd":12379,"login":12380,"yellow":12381,"regimes":12382,"Pap":12383,"rejection":12384,"finest":12385,"Declar":12386,"finger":12387,"Som":12388,"yers":12389,"fears":12390,"weapon":12391,"condemned":12392,"dumping":12393,"economics":12394,"connecting":12395,"tells":12396,"ér":12397,"deck":12398,"plural":12399,"loyal":12400,"Chile":12401,"ventions":12402,"Content":12403,"racism":12404,"skilled":12405,"Indonesia":12406,"monitored":12407,"ctures":12408,"Heating":12409,"guidance":12410,"yours":12411,"93":12412,"regrettable":12413,"hosts":12414,"_marquis":12415,"पर":12416,"compr":12417,"Red_marquis":12418,"mirror":12419,"Abo":12420,"emerge":12421,"officer":12422,"Luggage":12423,"ervation":12424,"isode":12425,"theoret":12426,"propag":12427,"manifest":12428,"fib":12429,"ras":12430,"compare":12431,"sustained":12432,"survival":12433,"circuit":12434,"kids":12435,"foods":12436,"tape":12437,"adjusted":12438,"environments":12439,"C5":12440,"vin":12441,"complexity":12442,"Bill":12443,"acing":12444,"pedestr":12445,"circle":12446,"sensor":12447,"fragment":12448,"Know":12449,"Build":12450,"fifteen":12451,"weg":12452,"outset":12453,"schol":12454,"Sav":12455,"esse":12456,"defense":12457,"infringement":12458,"kers":12459,"allies":12460,"gang":12461,"slip":12462,"acid":12463,"powered":12464,"indication":12465,"shame":12466,"salt":12467,"hide":12468,"aser":12469,"entity":12470,"branches":12471,"transatlantic":12472,"stretch":12473,"inquiry":12474,"reverse":12475,"lacking":12476,"на":12477,"prominent":12478,"thoughts":12479,"garage":12480,"Riv":12481,"ogy":12482,"calculated":12483,"Albania":12484,"accepts":12485,"stood":12486,"circulation":12487,"62":12488,"insula":12489,"abandoned":12490,"hors":12491,"neo":12492,"prerequis":12493,"loaded":12494,"zig":12495,"pling":12496,"Clearly":12497,"sla":12498,"solo":12499,"downloading":12500,"reper":12501,"frank":12502,"survive":12503,"bra":12504,"73":12505,"inos":12506,"accepting":12507,"golden":12508,"taught":12509,"vor":12510,"ached":12511,"optical":12512,"walks":12513,"automated":12514,"exceptions":12515,"Organization":12516,"Dam":12517,"Hard":12518,"pair":12519,"searching":12520,"incorporate":12521,"Comple":12522,"ensured":12523,"Silver":12524,"Libya":12525,"Declaration":12526,"cig":12527,"seal":12528,"checking":12529,"subsidiary":12530,"unfortunate":12531,"Adv":12532,"crossing":12533,"Thailand":12534,"GP":12535,"Libr":12536,"Apartment":12537,"unification":12538,"shareholders":12539,"uum":12540,"grants":12541,"Long":12542,"styles":12543,"thread":12544,"myth":12545,"departments":12546,"cofin":12547,"intr":12548,"penalties":12549,"Film":12550,"110":12551,"multimedia":12552,"vas":12553,"characterised":12554,"married":12555,"Dor":12556,"Shar":12557,"UP":12558,"ín":12559,"alliance":12560,"quota":12561,"drafted":12562,"Meanwhile":12563,"atile":12564,"conjunction":12565,"striking":12566,"Reser":12567,"iene":12568,"fires":12569,"idad":12570,"reduces":12571,"simplify":12572,"discovery":12573,"dans":12574,"separately":12575,"bott":12576,"failing":12577,"defects":12578,"god":12579,"returning":12580,"invitation":12581,"delicate":12582,"enemy":12583,"Training":12584,"modes":12585,"Comput":12586,"responses":12587,"assumed":12588,"Technical":12589,"XP":12590,"badly":12591,"Dolom":12592,"WC":12593,"enz":12594,"clothes":12595,"seminars":12596,"diox":12597,"undertaking":12598,"airy":12599,"motions":12600,"celebrated":12601,"isons":12602,"igenous":12603,"Blo":12604,"Bang":12605,"imprison":12606,"horizontal":12607,"guides":12608,"enger":12609,"tooth":12610,"reductions":12611,"broch":12612,"सं":12613,"unlikely":12614,"Hit":12615,"tene":12616,"modest":12617,"Brow":12618,"ictions":12619,"simplification":12620,"daughter":12621,"ole":12622,"editing":12623,"pact":12624,"vegetables":12625,"pred":12626,"Fut":12627,"upcoming":12628,"gery":12629,"stadt":12630,"bally":12631,"bases":12632,"respecting":12633,"Dem":12634,"pursuing":12635,"burgh":12636,"Multi":12637,"tremend":12638,"aller":12639,"transformed":12640,"cripts":12641,"Client":12642,"Docu":12643,"encoun":12644,"feels":12645,"centrally":12646,"requiring":12647,"isolation":12648,"optional":12649,"denied":12650,"EST":12651,"translations":12652,"trails":12653,"grew":12654,"implies":12655,"Eth":12656,"defending":12657,"Hal":12658,"Discover":12659,"Sometimes":12660,"conform":12661,"unpreced":12662,"derog":12663,"backed":12664,"officers":12665,"89":12666,"umps":12667,"doctors":12668,"iasm":12669,"Tyrol":12670,"Joseph":12671,"लिए":12672,"GA":12673,"aire":12674,"iously":12675,"desper":12676,"unprecedented":12677,"utter":12678,"receipt":12679,"EEC":12680,"aco":12681,"preferences":12682,"discrimin":12683,"MP3":12684,"iPhone":12685,"surfing":12686,"participated":12687,"ASE":12688,"roles":12689,"bathing":12690,"confron":12691,"observers":12692,"issance":12693,"continuation":12694,"lens":12695,"pse":12696,"loved":12697,"Anti":12698,"securities":12699,"landscapes":12700,"vie":12701,"ello":12702,"discretion":12703,"depos":12704,"earning":12705,"breaks":12706,"overwhelming":12707,"continually":12708,"continental":12709,"जा":12710,"chocolate":12711,"reiterate":12712,"B5":12713,"recycling":12714,"Currently":12715,"Above":12716,"130":12717,"roughly":12718,"interim":12719,"substit":12720,"Rock":12721,"endeavour":12722,"Print":12723,"combining":12724,"radiation":12725,"concentrated":12726,"Naturally":12727,"16th":12728,"della":12729,"Alpine":12730,"separated":12731,"adaptation":12732,"compatibility":12733,"Chi":12734,"Professional":12735,"Chap":12736,"Sor":12737,"Come":12738,"About":12739,"announcement":12740,"Rio":12741,"quantities":12742,"consolidation":12743,"Cred":12744,"episode":12745,"identical":12746,"monthly":12747,"fon":12748,"minds":12749,"secured":12750,"76":12751,"ounce":12752,"Hot":12753,"ente":12754,"wie":12755,"Holy":12756,"profiles":12757,"panels":12758,"estimates":12759,"defeat":12760,"globalization":12761,"marginal":12762,"Louis":12763,"Kor":12764,"ample":12765,"trou":12766,"linguistic":12767,"cheaper":12768,"bags":12769,"volunte":12770,"humans":12771,"74":12772,"wet":12773,"analyses":12774,"accused":12775,"Fif":12776,"chip":12777,"FI":12778,"Univers":12779,"underline":12780,"exploring":12781,"booth":12782,"ATION":12783,"investigate":12784,"stuffs":12785,"Integr":12786,"Chief":12787,"oo":12788,"newspapers":12789,"ultra":12790,"haven":12791,"commonly":12792,"listened":12793,"Region":12794,"consisting":12795,"conveniently":12796,"haul":12797,"boarding":12798,"suddenly":12799,"solving":12800,"banned":12801,"Pa":12802,"cking":12803,"ESCO":12804,"deleted":12805,"enthusiasm":12806,"rivers":12807,"Friendly":12808,"pron":12809,"influenced":12810,"Danube":12811,"Ocean":12812,"Seven":12813,"mph":12814,"thouse":12815,"teries":12816,"compass":12817,"este":12818,"exploit":12819,"permanently":12820,"vy":12821,"tangible":12822,"Bug":12823,"ré":12824,"unlimited":12825,"Stutt":12826,"Mul":12827,"vre":12828,"knowing":12829,"weekly":12830,"winners":12831,"Tax":12832,"ials":12833,"backing":12834,"Coast":12835,"Natural":12836,"icop":12837,"unstable":12838,"ifiable":12839,"frustr":12840,"Cold":12841,"ried":12842,"prolif":12843,"demonstration":12844,"specialised":12845,"demanded":12846,"CT":12847,"barr":12848,"rescue":12849,"pod":12850,"Exhib":12851,"resorts":12852,"ति":12853,"gastr":12854,"हैं":12855,"ders":12856,"Anonymous":12857,"handic":12858,"ungen":12859,"earthqu":12860,"earned":12861,"culinary":12862,"eine":12863,"invested":12864,"vib":12865,"restoration":12866,"tackling":12867,"AU":12868,"refined":12869,"EMU":12870,"ला":12871,"Arts":12872,"abolition":12873,"warranty":12874,"Millennium":12875,"themat":12876,"EB":12877,"lide":12878,"districts":12879,"vicinity":12880,"partially":12881,"comod":12882,"trademarks":12883,"mailing":12884,"ambitions":12885,"bust":12886,"brill":12887,"authorisation":12888,"hearted":12889,"alive":12890,"QU":12891,"इस":12892,"charter":12893,"Carib":12894,"Tunisia":12895,"ali":12896,"bless":12897,"ocean":12898,"iny":12899,"titude":12900,"cz":12901,"Ther":12902,"fox":12903,"clearer":12904,"labels":12905,"carrier":12906,"optimum":12907,"twelve":12908,"Change":12909,"competitors":12910,"arrested":12911,"GR":12912,"63":12913,"HU":12914,"ни":12915,"congress":12916,"sofa":12917,"Could":12918,"17th":12919,"94":12920,"ii":12921,"kam":12922,"distribute":12923,"honor":12924,"Dü":12925,"eve":12926,"prag":12927,"Rather":12928,"lon":12929,"icating":12930,"railways":12931,"bands":12932,"uncertain":12933,"cribed":12934,"Fax":12935,"odo":12936,"activate":12937,"contributes":12938,"obtaining":12939,"configure":12940,"oder":12941,"Intel":12942,"minib":12943,"ले":12944,"wir":12945,"furthermore":12946,"backs":12947,"founder":12948,"Text":12949,"dangers":12950,"presentations":12951,"LIN":12952,"deny":12953,"investigations":12954,"absur":12955,"ups":12956,"Tower":12957,"bears":12958,"embark":12959,"independently":12960,"Stuttgart":12961,"Near":12962,"strive":12963,"household":12964,"Jews":12965,"-,":12966,"82":12967,"NEW":12968,"revenues":12969,"atom":12970,"sten":12971,"nicht":12972,"1950":12973,"capability":12974,"congratulations":12975,"differently":12976,"distinguished":12977,"UNESCO":12978,"loop":12979,"platz":12980,"sar":12981,"elab":12982,"motivated":12983,"üh":12984,"descript":12985,"laboratory":12986,"random":12987,"Dres":12988,"employee":12989,"moderate":12990,"permits":12991,"controller":12992,"furnish":12993,"Tok":12994,"orca":12995,"inequality":12996,"synchron":12997,"sick":12998,"Bridge":12999,"removing":13000,"Playa":13001,"eligible":13002,"LateRooms":13003,"Climate":13004,"transmitted":13005,"Working":13006,"prevail":13007,"Blan":13008,"isk":13009,"homepage":13010,"resistant":13011,"gathered":13012,"Deutsch":13013,"pg":13014,"notification":13015,"featured":13016,"currencies":13017,"Mu":13018,"bever":13019,"Conne":13020,"fert":13021,"cend":13022,"liness":13023,"nowadays":13024,"Fourth":13025,"indispens":13026,"Ly":13027,"ße":13028,"preventive":13029,"seekers":13030,"Ele":13031,"Sho":13032,"350":13033,"Bag":13034,"Double":13035,"Revolution":13036,"Crim":13037,"Richard":13038,"15th":13039,"Spir":13040,"cinema":13041,"GE":13042,"ih":13043,"struck":13044,"ugen":13045,"investing":13046,"Starfleet":13047,"Capital":13048,"embedded":13049,"Cert":13050,"absurd":13051,"gio":13052,"benefici":13053,"excellence":13054,"capacities":13055,"Sand":13056,"loud":13057,"appreciation":13058,"Custom":13059,"Domin":13060,"Vista":13061,"assessments":13062,"Ges":13063,"thic":13064,"albeit":13065,"iga":13066,"CHF":13067,"URL":13068,"stakeholders":13069,"Country":13070,"translate":13071,"vessel":13072,"tube":13073,"dispar":13074,"annex":13075,"ра":13076,"maker":13077,"District":13078,"placement":13079,"laying":13080,"observations":13081,"Communication":13082,"pregn":13083,"shoes":13084,"coalition":13085,"ICE":13086,"Voy":13087,"Youn":13088,"fits":13089,"Nature":13090,"php":13091,"Tool":13092,"constraints":13093,"ही":13094,"indigenous":13095,"coll":13096,"halt":13097,"ACH":13098,"Moldova":13099,"Winter":13100,"zar":13101,"lifestyle":13102,"trademark":13103,"quer":13104,"prud":13105,"astery":13106,"scenario":13107,"Professor":13108,"damaging":13109,"collections":13110,"kilometers":13111,"Library":13112,"Opt":13113,"pone":13114,"accountability":13115,"credited":13116,"younger":13117,"audit":13118,"Tech":13119,"scenes":13120,"uation":13121,"iances":13122,"intergovernmental":13123,"unanimous":13124,"cabin":13125,"Jesus":13126,"surplus":13127,"engagement":13128,"CEO":13129,"Electron":13130,"Caribbean":13131,"Dub":13132,"Gas":13133,"oque":13134,"promotes":13135,"boundaries":13136,"dismant":13137,"brush":13138,"Gallery":13139,"iser":13140,"petr":13141,"flaw":13142,"Reform":13143,"supervisory":13144,"Hus":13145,"IK":13146,"fulfill":13147,"washing":13148,"tiny":13149,"emp":13150,"gra":13151,"interpreted":13152,"ray":13153,"consulted":13154,"refund":13155,"coinc":13156,"besides":13157,"gaming":13158,"Later":13159,"uit":13160,"moon":13161,"pride":13162,"stimulate":13163,"forums":13164,"nen":13165,"designers":13166,"ierra":13167,"Andal":13168,"adequately":13169,"mould":13170,"tto":13171,"atories":13172,"extends":13173,"feelings":13174,"databases":13175,"sightseeing":13176,"Sadd":13177,"shel":13178,"conviction":13179,"divide":13180,"climbing":13181,"kid":13182,"ambience":13183,"eating":13184,"dissemin":13185,"Partner":13186,"paint":13187,"Casa":13188,"coherence":13189,"dictatorship":13190,"countless":13191,"royal":13192,"usalem":13193,"desert":13194,"tol":13195,"decentral":13196,"REE":13197,"mineral":13198,"feld":13199,"illing":13200,"musicians":13201,"genetically":13202,"PSE":13203,"sist":13204,"pock":13205,"mounted":13206,"reconciliation":13207,"plot":13208,"peror":13209,"crafts":13210,"inspiration":13211,"XI":13212,"doss":13213,"speaks":13214,"separation":13215,"argued":13216,"parte":13217,"safely":13218,"exped":13219,"justification":13220,"Nero":13221,"nan":13222,"ston":13223,"ima":13224,"unilateral":13225,"camping":13226,"clarification":13227,"Estonia":13228,"oma":13229,"Suites":13230,"killing":13231,"delayed":13232,"Excellent":13233,"awards":13234,"bub":13235,"palace":13236,"inevitable":13237,"Jerusalem":13238,"dive":13239,"afterwards":13240,"dogs":13241,"spark":13242,"Forest":13243,"symbolic":13244,"aer":13245,"drum":13246,"91":13247,"B4":13248,"waves":13249,"disagree":13250,"conditional":13251,"subscription":13252,"FS":13253,"entities":13254,"reaches":13255,"cooling":13256,"stringent":13257,"vineyards":13258,"FC":13259,"Vel":13260,"comforts":13261,"Wer":13262,"aton":13263,"tock":13264,"opponents":13265,"electronics":13266,"Muslims":13267,"HIV":13268,"sich":13269,"finishing":13270,"seed":13271,"pending":13272,"marriage":13273,"retirement":13274,"opoly":13275,"summary":13276,"insight":13277,"horses":13278,"attempted":13279,"blocked":13280,"hyper":13281,"adhere":13282,"Theat":13283,"sincerely":13284,"installing":13285,"rhy":13286,"outr":13287,"Ski":13288,"Bour":13289,"impet":13290,"wire":13291,"uns":13292,"aker":13293,"Christians":13294,"dreams":13295,"suspension":13296,"inhe":13297,"itudes":13298,"foss":13299,"intoler":13300,"designated":13301,"Schul":13302,"Update":13303,"Products":13304,"hectares":13305,"GT":13306,"pets":13307,"utility":13308,"cellor":13309,"convincing":13310,"Bio":13311,"Close":13312,"gif":13313,"nois":13314,"wick":13315,"cargo":13316,"socially":13317,"provin":13318,"infrastructures":13319,"villas":13320,"ruled":13321,"asks":13322,"Residence":13323,"capitalism":13324,"avoiding":13325,"realised":13326,"theast":13327,"existed":13328,"mainstream":13329,"steep":13330,"woods":13331,"otechnology":13332,"reproduction":13333,"vacuum":13334,"Foot":13335,"Piazza":13336,"indispensable":13337,"endless":13338,"Sahar":13339,"rene":13340,"Supervisory":13341,"Much":13342,"Rental":13343,"VER":13344,"Heritage":13345,"GPS":13346,"elong":13347,"estone":13348,"Unlike":13349,"eldorf":13350,"advocate":13351,"Regarding":13352,"praise":13353,"lawyers":13354,"calculation":13355,"explanations":13356,"hunger":13357,"apore":13358,"highway":13359,"Has":13360,"Between":13361,"61":13362,"gau":13363,"flour":13364,"voices":13365,"limitations":13366,"plugin":13367,"Py":13368,"stroll":13369,"amm":13370,"summar":13371,"delivering":13372,"elite":13373,"diame":13374,"painted":13375,"Annual":13376,"Wood":13377,"talent":13378,"deeper":13379,"fruits":13380,"reinforced":13381,"Singapore":13382,"Language":13383,"fundamentally":13384,"sters":13385,"cream":13386,"ideological":13387,"Warcraft":13388,"Gir":13389,"reck":13390,"processor":13391,"Motor":13392,"weld":13393,"gradual":13394,"universe":13395,"Bun":13396,"Jud":13397,"Ry":13398,"seminar":13399,"wedding":13400,"pull":13401,"ila":13402,"seaside":13403,"advances":13404,"ät":13405,"ibration":13406,"bold":13407,"))":13408,"nick":13409,"Finance":13410,"cant":13411,"Allah":13412,"belt":13413,"globally":13414,"fusion":13415,"aman":13416,"hosting":13417,"racing":13418,"Simply":13419,"Fed":13420,"Ten":13421,"prejud":13422,"180":13423,"prints":13424,"inevitably":13425,"impetus":13426,"Jour":13427,"Stra":13428,"Korean":13429,"ville":13430,"suff":13431,"instability":13432,"DG":13433,"instant":13434,"Pict":13435,"Galile":13436,"mild":13437,"outlined":13438,"Army":13439,"titles":13440,"iten":13441,"reviewed":13442,"toxic":13443,"Dim":13444,"alpine":13445,"Stad":13446,"somewhere":13447,"rear":13448,"patri":13449,"rigid":13450,"1990s":13451,"Catholic":13452,"refurbished":13453,"grid":13454,"workforce":13455,"systematically":13456,"viewing":13457,"Marco":13458,"libraries":13459,"Ak":13460,"Hill":13461,"über":13462,"perpetr":13463,"Saddam":13464,"Kat":13465,"dor":13466,"luggage":13467,"blank":13468,"helicop":13469,"openly":13470,"threatening":13471,"Cash":13472,"Lit":13473,"prede":13474,"oked":13475,"integrating":13476,"hazardous":13477,"admission":13478,"gases":13479,"simplified":13480,"admire":13481,"Kling":13482,"etr":13483,"दे":13484,"uten":13485,"Though":13486,"carries":13487,"counterfe":13488,"refugee":13489,"Cultural":13490,"PP":13491,"oven":13492,"asy":13493,"await":13494,"opera":13495,"menus":13496,"judges":13497,"proliferation":13498,"ische":13499,"subjected":13500,"Young":13501,"Cau":13502,"endo":13503,"Corporate":13504,"invites":13505,"attent":13506,"hopefully":13507,"Chechn":13508,"Wellness":13509,"complimentary":13510,"HR":13511,"ales":13512,"alys":13513,"aland":13514,"auction":13515,"gran":13516,"worker":13517,"PEG":13518,"legendary":13519,"herself":13520,"predecess":13521,"4th":13522,"tent":13523,"Basel":13524,"pedestrian":13525,"5th":13526,"coat":13527,"filters":13528,"Newsp":13529,"TU":13530,"hai":13531,"ibi":13532,"arriving":13533,"profitable":13534,"Stay":13535,"locally":13536,"interference":13537,"detection":13538,"Being":13539,"attempting":13540,"cycles":13541,"Fast":13542,"Ni":13543,"Sir":13544,"avian":13545,"serial":13546,"packed":13547,"rupted":13548,"Pier":13549,"'',":13550,"File":13551,"pointing":13552,"rances":13553,"innocent":13554,"Round":13555,"mn":13556,"ourmet":13557,"Maur":13558,"advised":13559,"Chechnya":13560,"Hon":13561,"elegance":13562,"prevents":13563,"Saudi":13564,"echo":13565,"asi":13566,"chamber":13567,"Doha":13568,"----":13569,"tremendous":13570,"Try":13571,"giant":13572,"thirty":13573,"eland":13574,"distant":13575,"habilit":13576,"Dresden":13577,"Kle":13578,"shine":13579,"donors":13580,"maintains":13581,"html":13582,"rhetor":13583,"Criminal":13584,"Move":13585,"bish":13586,"bund":13587,"enco":13588,"query":13589,"offset":13590,"interfaces":13591,"critique":13592,"hyg":13593,"Wireless":13594,"Gay":13595,"Pad":13596,"incorrect":13597,"repression":13598,"Pur":13599,"kon":13600,"mos":13601,"breeding":13602,"incomes":13603,"inki":13604,"delivers":13605,"viation":13606,"linking":13607,"mixture":13608,"Privacy":13609,"Nigeria":13610,"abuses":13611,"exquis":13612,"ahr":13613,"olly":13614,"Chic":13615,"indirectly":13616,"rever":13617,"stry":13618,"nos":13619,"ranges":13620,"communist":13621,"grey":13622,"Hels":13623,"stamp":13624,"dei":13625,"spam":13626,"archy":13627,"Village":13628,"Reserve":13629,"Athen":13630,"tensions":13631,"brick":13632,"ül":13633,"enopho":13634,"criterion":13635,"drafts":13636,"].":13637,"entrepreneurs":13638,"encompass":13639,"reader":13640,"attraction":13641,"Syn":13642,"tv":13643,"hearts":13644,"Short":13645,"rigorous":13646,"autonomous":13647,"Luc":13648,"vable":13649,"exclude":13650,"reasonably":13651,"symbols":13652,".-":13653,"GO":13654,"arises":13655,"stating":13656,"ounced":13657,"behold":13658,"personality":13659,"postpone":13660,"inland":13661,"enshr":13662,"rarely":13663,"decrease":13664,"recipro":13665,"criminals":13666,"Bra":13667,"Fle":13668,"mood":13669,"adjustments":13670,"Helsinki":13671,"disastr":13672,"Cot":13673,"resumed":13674,"cla":13675,"Montene":13676,"****":13677,"quiries":13678,"aboard":13679,"Adam":13680,"dimin":13681,"ami":13682,"ifice":13683,"loan":13684,"readers":13685,"technically":13686,"wishing":13687,"Spec":13688,"Riviera":13689,"toll":13690,"immen":13691,"adverse":13692,"exem":13693,"determining":13694,"revolutionary":13695,"NET":13696,"ulates":13697,"examining":13698,"postpon":13699,"abort":13700,"sympto":13701,"Siem":13702,"Care":13703,"elli":13704,"Armen":13705,"Romanian":13706,"decoration":13707,"HP":13708,"ко":13709,"Proper":13710,"Cru":13711,"adian":13712,"imperative":13713,"bicycle":13714,"Altern":13715,"ferry":13716,"resolving":13717,"iki":13718,"tons":13719,"adox":13720,"abstained":13721,"License":13722,"Night":13723,"inher":13724,"precaution":13725,"ANY":13726,"selecting":13727,"destro":13728,"shooting":13729,"Roc":13730,"origins":13731,"Summer":13732,"Administration":13733,"ffective":13734,"Fal":13735,"kick":13736,"imal":13737,"iere":13738,"basket":13739,"avec":13740,"classified":13741,"harmonised":13742,"restrictive":13743,"grapher":13744,"Das":13745,"FL":13746,"Sports":13747,"healing":13748,"neys":13749,"civilians":13750,"silent":13751,"McC":13752,"Nikon":13753,"81":13754,"XML":13755,"envisaged":13756,"aggressive":13757,"gov":13758,"complain":13759,"Porto":13760,"topical":13761,"Statute":13762,"Hz":13763,"sts":13764,"ially":13765,"strikes":13766,"chances":13767,"glac":13768,"appearing":13769,"recruit":13770,"overnight":13771,"Malays":13772,"jer":13773,"ilty":13774,"veter":13775,"elihood":13776,"VIP":13777,"rice":13778,"annually":13779,"Cab":13780,"atro":13781,"headed":13782,"IGC":13783,"theoretical":13784,"feeding":13785,"refriger":13786,"PER":13787,"procedural":13788,"excuse":13789,"Bell":13790,"thereof":13791,"KDE":13792,"lend":13793,"remin":13794,"upload":13795,"eda":13796,"fere":13797,"Latvia":13798,"clinical":13799,"degrad":13800,"sums":13801,"limitation":13802,"pillars":13803,"Explorer":13804,"Age":13805,"BI":13806,"Edin":13807,"Mary":13808,"supporters":13809,"harvest":13810,"swit":13811,"carriers":13812,"Help":13813,"Sierra":13814,"idel":13815,"Samsung":13816,"Mountains":13817,"brilliant":13818,"icular":13819,"pere":13820,"Concer":13821,"Corporation":13822,"Rhine":13823,"distributors":13824,"Dy":13825,"noble":13826,"matches":13827,"monopoly":13828,"complaint":13829,"Was":13830,"ffer":13831,"arming":13832,"Unless":13833,"Record":13834,"sincere":13835,"Flor":13836,"Edinburgh":13837,"LCD":13838,"statute":13839,"validity":13840,"trigger":13841,"democracies":13842,"globe":13843,"uxe":13844,"tracking":13845,"exceptionally":13846,"Nobel":13847,"Dev":13848,"cro":13849,"ück":13850,"perception":13851,"ageing":13852,"ceremony":13853,"Solidarity":13854,"\").":13855,"sensitivity":13856,".'":13857,"Times":13858,"bei":13859,"blow":13860,"interventions":13861,"refusal":13862,"scrutiny":13863,"sey":13864,"conci":13865,"surgery":13866,"terraces":13867,"Len":13868,"dent":13869,"ित":13870,"protests":13871,"formally":13872,"Leip":13873,"harsh":13874,"divisions":13875,"secular":13876,"zon":13877,"preservation":13878,"enjoyable":13879,"newest":13880,"illed":13881,"Deep":13882,"->":13883,"Mid":13884,"bahn":13885,"ere":13886,"rhyth":13887,"voy":13888,"wrap":13889,"ori":13890,"compromises":13891,"Stein":13892,"Rod":13893,"coins":13894,"osis":13895,"productions":13896,"keyboard":13897,"Local":13898,"Dat":13899,"liv":13900,"recit":13901,"reactions":13902,"monopol":13903,"Account":13904,"cotton":13905,"analyse":13906,"LED":13907,"reb":13908,"carte":13909,"brea":13910,"distur":13911,"protective":13912,"classification":13913,"bou":13914,"layers":13915,"emotional":13916,"XX":13917,"acter":13918,"Scient":13919,"iPod":13920,"shots":13921,"workplace":13922,"pollut":13923,"disastrous":13924,"Fab":13925,"akh":13926,"cussions":13927,"enhancing":13928,"heres":13929,"proto":13930,"lio":13931,"consolidated":13932,"Especially":13933,"Ky":13934,"corporations":13935,"Bö":13936,"Jord":13937,"Mann":13938,"Nok":13939,"inch":13940,"accomod":13941,"safeguarding":13942,"unanimity":13943,"Theatre":13944,"garian":13945,"tyard":13946,"towels":13947,"customized":13948,"securing":13949,"Petitions":13950,"mud":13951,"Colomb":13952,"hairdryer":13953,"SH":13954,"amid":13955,"visas":13956,"congratulating":13957,"Brun":13958,"credits":13959,"inth":13960,"agu":13961,"unta":13962,"vertical":13963,"perceived":13964,"immense":13965,"thet":13966,"fasc":13967,"sleeping":13968,"87":13969,"Ay":13970,"cache":13971,"forb":13972,"2015":13973,"Share":13974,"samples":13975,"dun":13976,"1988":13977,"Bath":13978,"transported":13979,"utory":13980,"lifts":13981,"Dry":13982,"zed":13983,"cliff":13984,"Aqu":13985,"CI":13986,"thal":13987,"beautifully":13988,"Karl":13989,"Annex":13990,"Chancellor":13991,"Spirit":13992,"ku":13993,"march":13994,"pic":13995,"shor":13996,"Comfort":13997,"iann":13998,"aka":13999,"deriv":14000,"preference":14001,"thinks":14002,"diet":14003,"modification":14004,"Upon":14005,"cessions":14006,"Force":14007,"hunting":14008,"ро":14009,"assessed":14010,"proportionate":14011,"certificates":14012,"hut":14013,"nearest":14014,"licensed":14015,"wisdom":14016,"invoice":14017,"auster":14018,"Whilst":14019,"literally":14020,"Venezu":14021,"Scand":14022,"admin":14023,"popul":14024,"digit":14025,"formerly":14026,"Written":14027,"Fall":14028,"leys":14029,"husband":14030,"Innovation":14031,"concludes":14032,"lays":14033,"Gate":14034,"Map":14035,"elo":14036,"Smith":14037,"intu":14038,"audiovisual":14039,"scept":14040,"zip":14041,"cloud":14042,"limiting":14043,"chart":14044,"differenti":14045,"insert":14046,"1980s":14047,"accompanying":14048,"wasn":14049,"energies":14050,"onomy":14051,"Newspapers":14052,"Aus":14053,"dess":14054,"catalog":14055,"exempl":14056,"aiming":14057,"beside":14058,"Bulgarian":14059,"Relax":14060,"tranquil":14061,"Tex":14062,"VO":14063,"deployment":14064,"cease":14065,"eman":14066,"consultations":14067,"Friedrich":14068,"Leipzig":14069,"austerity":14070,"altitude":14071,"abstr":14072,"singer":14073,"Siemens":14074,"bast":14075,"rix":14076,"wished":14077,"mano":14078,"Congo":14079,"elson":14080,"smoke":14081,"buyer":14082,"igation":14083,"worried":14084,"ECT":14085,"immunity":14086,"Jos":14087,"Ka":14088,"त्":14089,"escal":14090,"demonstrations":14091,"Ukrainian":14092,"sympathy":14093,"jacent":14094,"stimulus":14095,"Galileo":14096,"BB":14097,"kno":14098,"ifferent":14099,"meter":14100,"rows":14101,"rim":14102,"accommodations":14103,"Mallorca":14104,"rush":14105,"iller":14106,"prosecut":14107,"unified":14108,"counting":14109,"penetr":14110,"couples":14111,"laptop":14112,"pushed":14113,"cattle":14114,"rehabilit":14115,"exploited":14116,"endorsed":14117,"inherent":14118,"Nokia":14119,"CAN":14120,"inen":14121,"idal":14122,"Neither":14123,"Nothing":14124,"arc":14125,"stell":14126,"tonight":14127,"comfortably":14128,"रा":14129,"verify":14130,"1930":14131,"visions":14132,"archae":14133,"IND":14134,"detention":14135,"Gra":14136,"cc":14137,"burning":14138,"missible":14139,"Disabled":14140,"punishment":14141,"safer":14142,"drew":14143,"gut":14144,"nb":14145,"irrespective":14146,"galleries":14147,"dramatically":14148,"och":14149,"oda":14150,"fled":14151,"generating":14152,"landing":14153,"ECD":14154,"Engineering":14155,"plements":14156,"cathedral":14157,"multilingual":14158,"memories":14159,"paragraphs":14160,"Building":14161,"aba":14162,"deciding":14163,"armament":14164,"Watch":14165,"align":14166,"dear":14167,"wanting":14168,"ancies":14169,"tras":14170,"evo":14171,"uga":14172,"confirms":14173,"obstacle":14174,"cigare":14175,"zi":14176,"Roth":14177,"83":14178,"Ri":14179,"identifying":14180,"container":14181,"sheep":14182,"bankrupt":14183,"Daniel":14184,"Sac":14185,"iors":14186,"nest":14187,"Prince":14188,"delegations":14189,"medicinal":14190,"tunnel":14191,"Icel":14192,"onian":14193,"axis":14194,"costly":14195,"responding":14196,"Valencia":14197,"dorf":14198,"reaf":14199,"studying":14200,"deadlines":14201,"Firefox":14202,"84":14203,"pricing":14204,"syner":14205,"horr":14206,"Blair":14207,"Histor":14208,"gorith":14209,"lining":14210,"furnishings":14211,"guilty":14212,"Zealand":14213,"Iceland":14214,"tren":14215,"assert":14216,"Colombia":14217,"ét":14218,"ordering":14219,"baths":14220,"popularity":14221,"consolidate":14222,"remedy":14223,"genoc":14224,"trials":14225,"execute":14226,"festivals":14227,"Pin":14228,"asting":14229,"disappoint":14230,"inviting":14231,"buttons":14232,"Wind":14233,"pestic":14234,"gry":14235,"Guard":14236,"documented":14237,"Depending":14238,"correction":14239,"brutal":14240,"Mah":14241,"imbur":14242,"140":14243,"emphasize":14244,"Buch":14245,"surfaces":14246,"configured":14247,"tendency":14248,"ensively":14249,"modernisation":14250,"sequence":14251,"minded":14252,"CDs":14253,"arios":14254,"conse":14255,"aston":14256,"RSS":14257,"exotic":14258,"smallest":14259,"witnessed":14260,"psychological":14261,"fortress":14262,"renewal":14263,"क्ष":14264,"Kaz":14265,"ifa":14266,"cents":14267,"variables":14268,"Color":14269,"intim":14270,"intimate":14271,"completing":14272,"meaningful":14273,"barrier":14274,"Montenegro":14275,"Gro":14276,"tein":14277,"mount":14278,"shoot":14279,"Anyone":14280,"erous":14281,"bee":14282,"Palma":14283,"Exhibition":14284,"definitions":14285,"Tuscany":14286,"MI":14287,"chal":14288,"Cohesion":14289,"Algeria":14290,"vibrant":14291,"exquisite":14292,"SY":14293,"asonic":14294,"fastest":14295,"clauses":14296,"counted":14297,"problematic":14298,"ruins":14299,"ICT":14300,"sacrific":14301,"detain":14302,"ieth":14303,"ideology":14304,"breast":14305,"introduces":14306,"Looking":14307,"Bah":14308,"wich":14309,"legacy":14310,"OECD":14311,"ctive":14312,"improves":14313,"aks":14314,"coating":14315,"PV":14316,"Mount":14317,"complementary":14318,"Decision":14319,"Credit":14320,"xenopho":14321,"isations":14322,"organs":14323,"traditionally":14324,"fossil":14325,"disabilities":14326,"textiles":14327,"blocking":14328,"Ship":14329,"spreading":14330,"Hil":14331,"dairy":14332,"ados":14333,"inea":14334,"modifications":14335,"broadcasting":14336,"jazz":14337,"anyway":14338,"invasion":14339,"advisory":14340,"Against":14341,"dal":14342,"disappear":14343,"Resol":14344,"Sales":14345,"acerb":14346,"Ra":14347,"Sax":14348,"ées":14349,"ento":14350,"neck":14351,"asty":14352,"epide":14353,"Wikitr":14354,"79":14355,"reluct":14356,"developer":14357,"Peters":14358,"werden":14359,"Want":14360,"tong":14361,"qui":14362,"Comb":14363,"indications":14364,"worlds":14365,"Germans":14366,"Laun":14367,"painful":14368,"Bot":14369,"Ferr":14370,"Run":14371,"anium":14372,"laus":14373,"sends":14374,"Marketing":14375,"Recently":14376,"Francisco":14377,"temporarily":14378,"reimbur":14379,"ampl":14380,"unexpected":14381,"foresee":14382,"rounded":14383,"Holland":14384,"distinctive":14385,"Azer":14386,"Bir":14387,"Love":14388,"polis":14389,"biof":14390,"Medical":14391,"Airlines":14392,"Consider":14393,"dioxide":14394,"fet":14395,"casting":14396,"earthquake":14397,"Speed":14398,"Eve":14399,"Spl":14400,"fen":14401,"accessed":14402,"Voyager":14403,"MC":14404,"honey":14405,"proport":14406,"iker":14407,"Exper":14408,"MENT":14409,"ischen":14410,"cogn":14411,"Week":14412,"cave":14413,"pushing":14414,"Ticket":14415,"UB":14416,"commands":14417,"Fortun":14418,"iop":14419,"kov":14420,"bugs":14421,"downloads":14422,"attacked":14423,"Did":14424,"nach":14425,"antique":14426,"Wikitravel":14427,"TE":14428,"owski":14429,"Initi":14430,"iban":14431,"forestry":14432,"captured":14433,"exacerb":14434,"settlements":14435,"Additional":14436,"Thai":14437,"Objective":14438,"rust":14439,"ती":14440,"adjacent":14441,"passport":14442,"continuity":14443,"fulfilling":14444,"listing":14445,"broadly":14446,"vigil":14447,"enemies":14448,"ede":14449,"protects":14450,"nightlife":14451,"Division":14452,"Kre":14453,"dia":14454,"lending":14455,"mart":14456,"democratically":14457,"writers":14458,"comprehensible":14459,"conducting":14460,"Environmental":14461,"zur":14462,"alleg":14463,"13th":14464,"assessing":14465,"pipeline":14466,"Kim":14467,"mathemat":14468,"donor":14469,"incidents":14470,"jpg":14471,"baggage":14472,"prerequisite":14473,"Ah":14474,"izations":14475,"brew":14476,"Lead":14477,"Relations":14478,"gathering":14479,"ilia":14480,"Alt":14481,"volumes":14482,"sorts":14483,"Tu":14484,"corrid":14485,"rolled":14486,"german":14487,"modular":14488,"Warsaw":14489,"Cin":14490,"Hold":14491,"cooperative":14492,"commissioned":14493,"chronic":14494,"DF":14495,"Pi":14496,"flower":14497,"Terrace":14498,"Arena":14499,"Lag":14500,"Ped":14501,"Save":14502,"rez":14503,"safeguards":14504,"ALE":14505,"retained":14506,"panorama":14507,"feasible":14508,"rug":14509,"wholes":14510,"pressive":14511,"Cook":14512,"potato":14513,"OLAF":14514,"confidentiality":14515,"YOU":14516,"cos":14517,"economical":14518,"encourages":14519,"Solutions":14520,"Users":14521,"Event":14522,"inton":14523,"1986":14524,"Future":14525,"grain":14526,"Whatever":14527,"Political":14528,"dot":14529,"snacks":14530,"fragile":14531,"Int":14532,"Croatian":14533,"Andalus":14534,"Transl":14535,"coastline":14536,"pad":14537,"isse":14538,"alien":14539,"quo":14540,"Democracy":14541,"evaluated":14542,"conservative":14543,"Railway":14544,"govina":14545,"Mater":14546,"Sel":14547,"mile":14548,"suits":14549,"organising":14550,"screens":14551,"diplomacy":14552,"Ide":14553,"imbalances":14554,"Smart":14555,"Picard":14556,"shorter":14557,"Sust":14558,"tains":14559,"Nazi":14560,"imped":14561,"aine":14562,"estimate":14563,"cio":14564,"transnational":14565,"tailor":14566,"ratify":14567,"valued":14568,"preserving":14569,"Large":14570,"etime":14571,"Level":14572,"recognises":14573,"Quick":14574,"Computer":14575,"nbsp":14576,"illy":14577,"arena":14578,"activists":14579,"Canary":14580,"Canadian":14581,"races":14582,"prolong":14583,"acio":14584,"Johannes":14585,"Cher":14586,"debts":14587,"quoted":14588,"Dolomites":14589,"gourmet":14590,"Assist":14591,"Pool":14592,"Herze":14593,"floods":14594,"outermost":14595,"nutrition":14596,"underest":14597,"Battle":14598,"öm":14599,"static":14600,"compiled":14601,"gambling":14602,"Haiti":14603,"HS":14604,"apolog":14605,"airo":14606,"bottle":14607,"lib":14608,"definite":14609,"TNG":14610,"persecution":14611,"attitudes":14612,"MAN":14613,"नी":14614,"dub":14615,"embar":14616,"marble":14617,"1987":14618,"phan":14619,"ungal":14620,"responded":14621,"TW":14622,"arel":14623,"pretext":14624,"bikes":14625,"Active":14626,"macroeconomic":14627,"inappropriate":14628,"metals":14629,"Import":14630,"inspections":14631,"tasty":14632,"Father":14633,"shed":14634,"directors":14635,"households":14636,"qualification":14637,"encountered":14638,"SI":14639,"itary":14640,"anticipated":14641,"Herzegovina":14642,"Bou":14643,"Wo":14644,"ogues":14645,"coni":14646,"matt":14647,"defines":14648,"commodity":14649,"organisms":14650,"zoom":14651,"privileges":14652,"culate":14653,"Info":14654,"iev":14655,"merch":14656,"anc":14657,"spin":14658,"Ford":14659,"lifting":14660,"Drive":14661,"visibility":14662,"Solana":14663,"360":14664,"Lod":14665,"oasis":14666,"itt":14667,"regener":14668,"pressures":14669,"14th":14670,"Monitor":14671,"sponsor":14672,"dwell":14673,"vens":14674,"suic":14675,"liver":14676,"timing":14677,"hoc":14678,"experiments":14679,"purchases":14680,"iannual":14681,"Source":14682,"evenings":14683,"''[[":14684,"launching":14685,"Hague":14686,"anna":14687,"advantaged":14688,"Peru":14689,"routine":14690,"Audio":14691,"birthday":14692,"boys":14693,"understandable":14694,"++":14695,"thro":14696,"claiming":14697,"Bonn":14698,"स्थ":14699,"Still":14700,"10th":14701,"initiate":14702,"batteries":14703,"batt":14704,"promen":14705,"burdens":14706,"statutory":14707,"locked":14708,"algorith":14709,"widen":14710,"wheels":14711,"harder":14712,"Articles":14713,"Keep":14714,"Version":14715,"kn":14716,"courtyard":14717,"optimized":14718,"municipality":14719,"Document":14720,"genocide":14721,"Pot":14722,"Broad":14723,"thou":14724,"paradox":14725,"institute":14726,"voltage":14727,"automobile":14728,"stresses":14729,"1985":14730,"कार":14731,"HA":14732,"sink":14733,"pursuit":14734,"foodstuffs":14735,"oga":14736,"vegetable":14737,"Kurdish":14738,"Tot":14739,"toys":14740,"eta":14741,"ardin":14742,"Lounge":14743,"1945":14744,"imagination":14745,"varying":14746,"Jordan":14747,"disadvantage":14748,"diagnosis":14749,"Journal":14750,"Athens":14751,"Lind":14752,"Marx":14753,"dropped":14754,"IBM":14755,"Ashton":14756,"Fortunately":14757,"theater":14758,"conscience":14759,"eliminating":14760,"Aut":14761,"sind":14762,"retention":14763,"то":14764,"aki":14765,"ivities":14766,"doz":14767,"closest":14768,"Tourist":14769,"deliberately":14770,"persuade":14771,"Lud":14772,"UV":14773,"ोग":14774,"enza":14775,"casual":14776,"magazines":14777,"ña":14778,"leaf":14779,"successes":14780,"wholehearted":14781,"stere":14782,"void":14783,"Bat":14784,"KG":14785,"relevance":14786,"isen":14787,"icion":14788,"viruses":14789,"detected":14790,"EIB":14791,"electro":14792,"fed":14793,"pump":14794,"scripts":14795,"withdrawn":14796,"retro":14797,"Cambod":14798,"Ker":14799,"resign":14800,"Baron":14801,"Shang":14802,"EURO":14803,"Queen":14804,"Hat":14805,"Learn":14806,"reign":14807,"ström":14808,"charging":14809,"accessibility":14810,"hosted":14811,"Scandin":14812,"Flex":14813,"ре":14814,"anas":14815,"eigh":14816,"ometer":14817,"athlet":14818,"studios":14819,"entrust":14820,"socialist":14821,"como":14822,"coordinating":14823,"Type":14824,"injury":14825,"rhetoric":14826,"rov":14827,"igo":14828,"disappeared":14829,"affair":14830,"posting":14831,"Berg":14832,"emergence":14833,"possession":14834,"Hosp":14835,"regulating":14836,"collecting":14837,"liquidity":14838,"stanbul":14839,"minibar":14840,"urg":14841,"portra":14842,"categor":14843,"fabulous":14844,"Ta":14845,"eager":14846,"solarium":14847,"arre":14848,"enters":14849,"devote":14850,"dealers":14851,"Jane":14852,"OSCE":14853,"liest":14854,"ते":14855,"resem":14856,"forever":14857,"lifelong":14858,"measurements":14859,"seller":14860,"Hitler":14861,"aired":14862,"isc":14863,"backup":14864,"DJ":14865,"Farm":14866,"wholly":14867,"ourcing":14868,"couldn":14869,"Wild":14870,"rocks":14871,"Europa":14872,"indul":14873,"Price":14874,"positively":14875,"weaknesses":14876,"Advanced":14877,"Arc":14878,"disciplinary":14879,"hydraul":14880,"precautionary":14881,"Fig":14882,"surf":14883,"thrown":14884,"करने":14885,"Ali":14886,"alarming":14887,"Termin":14888,"Bahn":14889,"orously":14890,"concessions":14891,"imply":14892,"tec":14893,"shield":14894,"disc":14895,"radi":14896,"reminded":14897,"hoping":14898,"admir":14899,"competitions":14900,"stainless":14901,"Liberals":14902,"SER":14903,"bent":14904,"depriv":14905,"frames":14906,"refreshing":14907,"Review":14908,"по":14909,"contradiction":14910,"C4":14911,"tariat":14912,"liberty":14913,"Soft":14914,"SDL":14915,"örse":14916,"हा":14917,"establishments":14918,"educated":14919,"facilitating":14920,"HOT":14921,"protein":14922,"6th":14923,"FREE":14924,"pus":14925,"utic":14926,"agger":14927,"drain":14928,"protectionism":14929,"umbrel":14930,"boutique":14931,"Astr":14932,"CAR":14933,"bek":14934,"uma":14935,"shoulder":14936,"ranks":14937,"aggreg":14938,"neighborhood":14939,"Ox":14940,"hne":14941,"erie":14942,"plast":14943,"inequalities":14944,"fridge":14945,"template":14946,"celebration":14947,"Bavaria":14948,"encrypt":14949,"Ober":14950,"lus":14951,"alin":14952,"andem":14953,"acou":14954,"banana":14955,"Technologies":14956,"quantitative":14957,"uels":14958,"instances":14959,"ranking":14960,"kingdom":14961,"organizing":14962,"speculation":14963,"Need":14964,"passage":14965,"powder":14966,"Hi":14967,"Sul":14968,"Way":14969,"erup":14970,"overseas":14971,"Hom":14972,"Patten":14973,"Rena":14974,"uz":14975,"recreation":14976,"linen":14977,"ITY":14978,"Schulz":14979,"7th":14980,"Ok":14981,"Um":14982,"remit":14983,"cury":14984,"preparatory":14985,"journalist":14986,"(“":14987,"Kun":14988,"Marr":14989,"PN":14990,"narr":14991,"agne":14992,"attending":14993,"buffer":14994,"reveals":14995,"accomplished":14996,"Return":14997,"propaganda":14998,"injection":14999,"shortage":15000,"Egyptian":15001,"Cad":15002,"sored":15003,"disadvantaged":15004,"dealer":15005,"onda":15006,"negligence":15007,"Universal":15008,"Tokyo":15009,"&#":15010,"MT":15011,"segments":15012,"precar":15013,"fitting":15014,"elimination":15015,"irregularities":15016,"Laundry":15017,"Bau":15018,"alled":15019,"manually":15020,"draws":15021,"impressed":15022,"FO":15023,"Rol":15024,"replacing":15025,"itives":15026,"ingen":15027,"sseldorf":15028,"Trav":15029,"cultivation":15030,"CAD":15031,"Kel":15032,"queries":15033,"ilege":15034,"varieties":15035,"storm":15036,"Likewise":15037,"billions":15038,"bridges":15039,"DN":15040,"tanks":15041,"vez":15042,"wearing":15043,"terrain":15044,"gna":15045,"Adjust":15046,"hybrid":15047,"broadband":15048,"oft":15049,"poorer":15050,"inson":15051,"exemption":15052,"deployed":15053,"Crow":15054,"rian":15055,"networking":15056,"thirds":15057,"Carl":15058,"broke":15059,"objections":15060,"eleven":15061,"faire":15062,"threaten":15063,"slaughter":15064,"influences":15065,"Hussein":15066,"dossier":15067,"outline":15068,"Cleaning":15069,"Cry":15070,"Kl":15071,"pd":15072,"tender":15073,"roph":15074,"instruction":15075,"ijk":15076,"bulk":15077,"Da":15078,"Diam":15079,"gically":15080,"rolls":15081,"halls":15082,"infection":15083,"idity":15084,"Solar":15085,"turnover":15086,"Face":15087,"escap":15088,"igent":15089,"450":15090,"grip":15091,"creational":15092,"spat":15093,"economists":15094,"multitude":15095,"capitalist":15096,"density":15097,"incurred":15098,"रू":15099,"anymore":15100,"retreat":15101,"Avail":15102,"Borg":15103,"zia":15104,"ál":15105,"unter":15106,"atorium":15107,"eliminated":15108,"intensity":15109,"Renaissance":15110,"CV":15111,"Ess":15112,"gig":15113,"rine":15114,"bookings":15115,"attracted":15116,"Cypri":15117,"earnings":15118,"idyll":15119,"Dun":15120,"Fit":15121,"Low":15122,"emen":15123,"Century":15124,"analog":15125,"mounting":15126,"Quite":15127,"sixth":15128,"hospitals":15129,"GMOs":15130,"cafe":15131,"ALDE":15132,"Five":15133,"DS9":15134,"descriptions":15135,"mole":15136,"strongest":15137,"speeds":15138,"laundry":15139,"Fern":15140,"eggs":15141,"factories":15142,"massac":15143,"Tampere":15144,"Caucas":15145,"Tube":15146,"sau":15147,"izz":15148,"rises":15149,"successor":15150,"9001":15151,"peripheral":15152,"smell":15153,"accountable":15154,"Cost":15155,"clip":15156,"springs":15157,"diesel":15158,"recipient":15159,"Istanbul":15160,"altogether":15161,"displaced":15162,"Works":15163,"momentum":15164,"revers":15165,"icons":15166,"updating":15167,"mothers":15168,"Düsseldorf":15169,"Kom":15170,"Learning":15171,"jug":15172,"stairs":15173,"amate":15174,"shipment":15175,"authoritarian":15176,"embargo":15177,"Band":15178,"CAM":15179,"ikan":15180,"Russians":15181,"midst":15182,"tackled":15183,"repercussions":15184,"depl":15185,"acking":15186,"donation":15187,"barely":15188,"pragmatic":15189,"DL":15190,"complied":15191,"guiding":15192,"gaps":15193,"champ":15194,"Production":15195,"confronted":15196,"tired":15197,"orange":15198,"mont":15199,"FAQ":15200,"Instruments":15201,"iche":15202,"Below":15203,"Virgin":15204,"Pom":15205,"tissue":15206,"caut":15207,"Garda":15208,"experimental":15209,"Incre":15210,"positioned":15211,"nets":15212,"installer":15213,"aspirations":15214,"ota":15215,"artet":15216,"diameter":15217,"Fon":15218,"tied":15219,"seve":15220,"Guinea":15221,"corresponds":15222,"consultants":15223,"predictable":15224,"vising":15225,"basin":15226,"vegetation":15227,"Shanghai":15228,"=\"":15229,"Cô":15230,"seam":15231,"Klingon":15232,"DIN":15233,"Sri":15234,"monastery":15235,"trek":15236,"deliveries":15237,"Lay":15238,"elles":15239,"flora":15240,"mails":15241,"Gothic":15242,"Christo":15243,"republic":15244,"priced":15245,"geared":15246,"chains":15247,"noisy":15248,"Put":15249,"thir":15250,"unal":15251,"translat":15252,"archives":15253,"drawings":15254,"Verhe":15255,"architects":15256,"hygiene":15257,"trendy":15258,"decides":15259,"aze":15260,"screening":15261,"Scottish":15262,"forbidden":15263,"undering":15264,"definitive":15265,"livestock":15266,"Taliban":15267,"enshrined":15268,"lecture":15269,"variations":15270,"Fine":15271,"sister":15272,"issuing":15273,"portray":15274,"compensate":15275,"punish":15276,"Bundes":15277,"Little":15278,"Kh":15279,"wand":15280,"unden":15281,"temple":15282,"amente":15283,"Neigh":15284,"competing":15285,"Certainly":15286,"rehabilitation":15287,"jar":15288,"jum":15289,"Arabia":15290,"Classic":15291,"emotions":15292,"tariffs":15293,"Mün":15294,"arko":15295,"125":15296,"Offer":15297,"vulnerability":15298,"Verheugen":15299,"WE":15300,"owed":15301,"distances":15302,"critics":15303,"ORT":15304,"Serbian":15305,"ambiguous":15306,"Blog":15307,"Sab":15308,"signatures":15309,"Buyer":15310,"Jacqu":15311,"cort":15312,"debut":15313,"avan":15314,"premature":15315,"Almost":15316,"teeth":15317,"priorit":15318,"sensors":15319,
[...]
